{"version":"1.0","truncation":null,"padding":null,"added_tokens":[],"normalizer":null,"pre_tokenizer":{"type":"ByteLevel","add_prefix_space":false,"trim_offsets":true},"post_processor":{"type":"ByteLevel","add_prefix_space":true,"trim_offsets":false},"decoder":{"type":"ByteLevel","add_prefix_space":true,"trim_offsets":true},"model":{"type":"BPE","dropout":null,"unk_token":null,"continuing_subword_prefix":null,"end_of_word_suffix":null,"fuse_unk":false,"vocab":{"!":0,"\"":1,"#":2,"$":3,"%":4,"&":5,"'":6,"(":7,")":8,"*":9,"+":10,",":11,"-":12,".":13,"/":14,"0":15,"1":16,"2":17,"3":18,"4":19,"5":20,"6":21,"7":22,"8":23,"9":24,":":25,";":26,"<":27,"=":28,">":29,"?":30,"@":31,"A":32,"B":33,"C":34,"D":35,"E":36,"F":37,"G":38,"H":39,"I":40,"J":41,"K":42,"L":43,"M":44,"N":45,"O":46,"P":47,"Q":48,"R":49,"S":50,"T":51,"U":52,"V":53,"W":54,"X":55,"Y":56,"Z":57,"[":58,"\\":59,"]":60,"^":61,"_":62,"`":63,"a":64,"b":65,"c":66,"d":67,"e":68,"f":69,"g":70,"h":71,"i":72,"j":73,"k":74,"l":75,"m":76,"n":77,"o":78,"p":79,"q":80,"r":81,"s":82,"t":83,"u":84,"v":85,"w":86,"x":87,"y":88,"z":89,"{":90,"|":91,"}":92,"~":93,"¡":94,"¢":95,"£":96,"¤":97,"¥":98,"¦":99,"§":100,"¨":101,"©":102,"ª":103,"«":104,"¬":105,"®":106,"¯":107,"°":108,"±":109,"²":110,"³":111,"´":112,"µ":113,"¶":114,"·":115,"¸":116,"¹":117,"º":118,"»":119,"¼":120,"½":121,"¾":122,"¿":123,"À":124,"Á":125,"Â":126,"Ã":127,"Ä":128,"Å":129,"Æ":130,"Ç":131,"È":132,"É":133,"Ê":134,"Ë":135,"Ì":136,"Í":137,"Î":138,"Ï":139,"Ð":140,"Ñ":141,"Ò":142,"Ó":143,"Ô":144,"Õ":145,"Ö":146,"×":147,"Ø":148,"Ù":149,"Ú":150,"Û":151,"Ü":152,"Ý":153,"Þ":154,"ß":155,"à":156,"á":157,"â":158,"ã":159,"ä":160,"å":161,"æ":162,"ç":163,"è":164,"é":165,"ê":166,"ë":167,"ì":168,"í":169,"î":170,"ï":171,"ð":172,"ñ":173,"ò":174,"ó":175,"ô":176,"õ":177,"ö":178,"÷":179,"ø":180,"ù":181,"ú":182,"û":183,"ü":184,"ý":185,"þ":186,"ÿ":187,"Ā":188,"ā":189,"Ă":190,"ă":191,"Ą":192,"ą":193,"Ć":194,"ć":195,"Ĉ":196,"ĉ":197,"Ċ":198,"ċ":199,"Č":200,"č":201,"Ď":202,"ď":203,"Đ":204,"đ":205,"Ē":206,"ē":207,"Ĕ":208,"ĕ":209,"Ė":210,"ė":211,"Ę":212,"ę":213,"Ě":214,"ě":215,"Ĝ":216,"ĝ":217,"Ğ":218,"ğ":219,"Ġ":220,"ġ":221,"Ģ":222,"ģ":223,"Ĥ":224,"ĥ":225,"Ħ":226,"ħ":227,"Ĩ":228,"ĩ":229,"Ī":230,"ī":231,"Ĭ":232,"ĭ":233,"Į":234,"į":235,"İ":236,"ı":237,"Ĳ":238,"ĳ":239,"Ĵ":240,"ĵ":241,"Ķ":242,"ķ":243,"ĸ":244,"Ĺ":245,"ĺ":246,"Ļ":247,"ļ":248,"Ľ":249,"ľ":250,"Ŀ":251,"ŀ":252,"Ł":253,"ł":254,"Ń":255,"Ġt":256,"he":257,"Ġa":258,"in":259,"Ġthe":260,"er":261,"on":262,"Ġ,":263,"re":264,"Ġs":265,"ed":266,"Ġw":267,"Ġo":268,"nd":269,"at":270,"Ġ.":271,"or":272,"it":273,"Ġc":274,"en":275,"Ġf":276,"es":277,"is":278,"ar":279,"Ġof":280,"an":281,"Ġb":282,"Ġin":283,"al":284,"ing":285,"Ġp":286,"as":287,"Ġand":288,"Ġto":289,"ro":290,"ic":291,"Ġm":292,"Ġd":293,"Ġh":294,"ion":295,"ĠĊ":296,"ou":297,"le":298,"ĠT":299,"Ġre":300,"Ġ=":301,"ĠA":302,"ĠS":303,"il":304,"ent":305,"Ġ\"":306,"Ġth":307,"Ġ1":308,"st":309,"ĠC":310,"Ġl":311,"el":312,"om":313,"am":314,"Ġe":315,"Ġn":316,"Ġ@":317,"ad":318,"ac":319,"ĠM":320,"Ġwas":321,"ur":322,"ĠThe":323,"ec":324,"Ġon":325,"ly":326,"ĠB":327,"ĠI":328,"et":329,"Ġ'":330,"ol":331,"Ġg":332,"id":333,"iv":334,"im":335,"Ġfor":336,"ir":337,"ig":338,"-@":339,"Ġ@-@":340,"ter":341,"ot":342,"ĠH":343,"Ġas":344,"us":345,"ow":346,"ut":347,"Ġst":348,"Ġ2":349,"ay":350,"ith":351,"ĠP":352,"ation":353,"ver":354,"Ġbe":355,"Ġwith":356,"Ġhe":357,"Ġthat":358,"ĠR":359,"em":360,"th":361,"ĠD":362,"un":363,"ce":364,"ĠF":365,"Ġis":366,"ul":367,"Ġwh":368,"Ġby":369,"ch":370,"Ġ)":371,"Ġ(":372,"Ġal":373,"Ġcon":374,"ĠN":375,"ĠW":376,"ra":377,"Ġat":378,"ĠL":379,"os":380,"ĠG":381,"ers":382,"ct":383,"Ġ19":384,"Ġit":385,"rom":386,"and":387,"ĠJ":388,"Ġan":389,"her":390,"est":391,"um":392,"00":393,"ag":394,"ist":395,"ain":396,"av":397,"ri":398,"od":399,"ĠE":400,"ĠO":401,"Ġfrom":402,"Ġcom":403,"Ġhis":404,"op":405,"res":406,"if":407,"ere":408,"ort":409,"Ġpro":410,"ies":411,"Ġv":412,"ill":413,"Ġde":414,"pp":415,"ore":416,"ld":417,"Ġr":418,"Ġwere":419,"Ġsu":420,"ĠIn":421,"Ġse":422,"ong":423,"igh":424,"ew":425,"ate":426,"all":427,"ak":428,"ard":429,"ich":430,"art":431,"ber":432,"ant":433,"Ġor":434,"ity":435,"ud":436,"oc":437,"ated":438,"ab":439,"ĠK":440,"Ġch":441,"gh":442,"Ġex":443,"qu":444,"pt":445,"Ġpl":446,"rou":447,"ess":448,"ear":449,"ĠU":450,"ame":451,"ive":452,"Ġâ":453,"ack":454,"Ġsh":455,"Ġk":456,"Ġare":457,"ect":458,"Ġhad":459,"ĠâĢ":460,"ian":461,"ĠSt":462,"se":463,"Ġwhich":464,"ast":465,"red":466,"ge":467,"our":468,"ov":469,"ip":470,"ment":471,"Ġsp":472,"Ġnot":473,"Ġy":474,"Ġle":475,"ial":476,"ine":477,"rit":478,"ost":479,"ap":480,"ust":481,"ight":482,"ell":483,"ĠCh":484,"ord":485,"Ġ3":486,"Ġu":487,"oun":488,"ia":489,"ical":490,"ther":491,"ish":492,"ary":493,"ave":494,"og":495,"Ġun":496,"cl":497,"Ġ200":498,"irst":499,"ĠV":500,"ous":501,"ions":502,"Ġ;":503,"Ġar":504,"Ġint":505,"ru":506,"ide":507,"so":508,"Ġcomp":509,"fter":510,"Ġbut":511,"Ġtheir":512,"Ġcont":513,"cc":514,"ure":515,"out":516,"ould":517,"Ġits":518,"Ġwhe":519,"Ġfirst":520,"wo":521,"Ġ20":522,"per":523,"ff":524,"hed":525,"ĠâĢĵ":526,"own":527,"ass":528,"ign":529,"Ġalso":530,"ue":531,"ry":532,"orm":533,"Ġcl":534,"ok":535,"ub":536,"ĠHe":537,"ie":538,"ater":539,"ran":540,"ome":541,"Ġres":542,"ire":543,"Ġ:":544,"ond":545,"ork":546,"end":547,"Ġad":548,"Ġab":549,"mer":550,"Ġus":551,"Ġ4":552,"age":553,"Ġher":554,"Ġro":555,"Ġhave":556,"Ġ5":557,"low":558,"Ġone":559,"Ġper":560,"Ġrec":561,"Ġbeen":562,"Ġhas":563,"Ġtwo":564,".@":565,"Ġ@.@":566,"ime":567,"ĠTh":568,"ree":569,"uring":570,"du":571,"ally":572,"ence":573,"pl":574,"Ġ18":575,"ile":576,"ult":577,"Ġsc":578,"land":579,"ough":580,"ition":581,"iz":582,"Ġag":583,"Ġwho":584,"Ġthis":585,"ach":586,"ations":587,"Ġdis":588,"ĠAl":589,"ric":590,"Ġbec":591,"ĠIt":592,"Ġapp":593,"Ġj":594,"Ġpart":595,"ount":596,"are":597,"Ġdes":598,"clud":599,"act":600,"ely":601,"ade":602,"ory":603,"Ġ201":604,"Ġthey":605,"Ġover":606,"Ġplay":607,"over":608,"ib":609,"Ġman":610,"ound":611,"Ġafter":612,"Ġyear":613,"ens":614,",@":615,"Ġ@,@":616,"ik":617,"Ġoff":618,"Ġser":619,"Ġatt":620,"Ġim":621,"ction":622,"Ġother":623,"ĠY":624,"urn":625,"ph":626,"ember":627,"ace":628,"Ġinclud":629,"ance":630,"ress":631,"ite":632,"Ġout":633,"ice":634,"te":635,"Ġen":636,"ark":637,"ang":638,"man":639,"ey":640,"round":641,"wn":642,"Ġinto":643,"rough":644,"Ġup":645,"Ġpre":646,"nder":647,"Ġev":648,"ren":649,"Ġ6":650,"Ġtime":651,"int":652,"we":653,"ĠOn":654,"ced":655,"port":656,"Ġcomm":657,"ward":658,"ind":659,"ces":660,"amp":661,"Ġte":662,"ied":663,"ĠUn":664,"Ġwould":665,"vel":666,"ose":667,"Ġ7":668,"Ġwe":669,"Ġmore":670,"tern":671,"ited":672,"Ġall":673,"ents":674,"ĠAn":675,"les":676,"Ġhim":677,"ason":678,"Ġne":679,"able":680,"iss":681,"rib":682,"ors":683,"ings":684,"oy":685,"ased":686,"Ġshe":687,"aw":688,"ates":689,"rop":690,"ood":691,"att":692,"Ġcent":693,"ase":694,"one":695,"Ġwork":696,"Ġpo":697,"ral":698,"ious":699,"old":700,"orth":701,"ix":702,"ict":703,"gan":704,"Ġ9":705,"ild":706,"Ġrem":707,"inal":708,"Ġsec":709,"ep":710,"ail":711,"Ġfe":712,"form":713,"Ġear":714,"Ġduring":715,"ath":716,"Ġbet":717,"Ġthem":718,"ered":719,"Ġwhen":720,"Ġcons":721,"Ġ8":722,"ilm":723,"outh":724,"ved":725,"ron":726,"Ġkn":727,"ĠAs":728,"aus":729,"fer":730,"Ġmost":731,"ubl":732,"Ġdec":733,"ft":734,"ick":735,"Ġonly":736,"Ġsong":737,"way":738,"Ġagain":739,"ake":740,"ĠSe":741,"ollow":742,"Ġnew":743,"ug":744,"ĠMar":745,"ters":746,"ĠCom":747,"oth":748,"Ġ199":749,"reat":750,"ween":751,"ational":752,"ons":753,"ĠAr":754,"hip":755,"Ġthree":756,"Ġtr":757,"Ġunder":758,"Ġgame":759,"ook":760,"ision":761,"Ġabout":762,"ock":763,"Ġfl":764,"Ġrel":765,"ob":766,"olog":767,"Ġcol":768,"Ġ00":769,"als":770,"Ġthan":771,"Ġseason":772,"Ġpos":773,"Ġbetween":774,"ve":775,"Ġfilm":776,"Ġthrough":777,"meric":778,"fore":779,"Ġend":780,"Ġcan":781,"ĠAmeric":782,"Ġme":783,"Ġnum":784,"orn":785,"ĠEn":786,"ĠNew":787,"iew":788,"Ġlater":789,"Ġdef":790,"Ġret":791,"Ġass":792,"ted":793,"Ġwhile":794,"ular":795,"ans":796,"Ġchar":797,"Ġact":798,"Ġsub":799,"hn":800,"Ġver":801,"Ġrecord":802,"ts":803,"Ġprodu":804,"Ġra":805,"Ġpe":806,"Ġpr":807,"Ġreg":808,"Ġwhere":809,"Ġmade":810,"ames":811,"orld":812,"Ġform":813,"ating":814,"Ġbu":815,"Ġac":816,"Ġlar":817,"Ġmov":818,"Ġrele":819,"Ġinter":820,"ener":821,"ever":822,"hes":823,"ury":824,"ished":825,"ines":826,"Ġsome":827,"Ġfollow":828,"Ġso":829,"Ġwrit":830,"ros":831,"Ġqu":832,"Ġco":833,"Ġday":834,"Ġspec":835,"Ġinc":836,"ĠAt":837,"Ġfour":838,"Ġam":839,"ived":840,"ĠLe":841,"ual":842,"Ġsecond":843,"Ġacc":844,"ĠRe":845,"Ġ000":846,"Ġused":847,"ins":848,"lect":849,"Ġind":850,"ning":851,"ike":852,"Ġbefore":853,"ank":854,"bum":855,"aid":856,"iel":857,"Ġsupp":858,"ific":859,"Ġsuch":860,"Ġmon":861,"rans":862,"Ġmus":863,"Ġ0":864,"ĠThis":865,"ll":866,"ics":867,"Ġ10":868,"ily":869,"Ġ12":870,"hen":871,"Ġhigh":872,"iver":873,"ĠSh":874,"Ġcall":875,"ĠBrit":876,"Ġbeing":877,"Ġthere":878,"any":879,"Ġpubl":880,"aj":881,"io":882,"Ġent":883,"ars":884,"ĠSc":885,"owever":886,"ĠJo":887,"Ġsy":888,"Ġsur":889,"Ġdo":890,"ĠAust":891,"Ġyears":892,"Ġnumber":893,"Ġfound":894,"Ġep":895,"Ġloc":896,"Ġalbum":897,"Ġtra":898,"Ġsever":899,"velop":900,"Ġagainst":901,"Ġno":902,"ton":903,"ek":904,"Ġset":905,"ĠâĢĶ":906,"Ġinv":907,"ife":908,"ince":909,"ised":910,"other":911,"Ġbl":912,"ject":913,"uc":914,"ier":915,"ĠZ":916,"ement":917,"Ġem":918,"ten":919,"ird":920,"ĠEng":921,"Ġ/":922,"Ġboth":923,"ities":924,"Ġpres":925,"Ġincluding":926,"Ġback":927,"Ġseries":928,"ained":929,"ause":930,"Ġthen":931,"Ġbecame":932,"its":933,"ane":934,"irect":935,"Ġwell":936,"yl":937,"pr":938,"ode":939,"ram":940,"ise":941,"Ġknown":942,"urch":943,"Ġtrans":944,"Ġperform":945,"Ġteam":946,"Ġadd":947,"ident":948,"ale":949,"son":950,"Ġexp":951,"Ġ16":952,"ĠUnited":953,"Ġdep":954,"ures":955,"ann":956,"az":957,"Ġ198":958,"ert":959,"Ġepis":960,"ined":961,"Ġmain":962,"row":963,"ful":964,"Ġpop":965,"Ġrece":966,"ield":967,"Ġ194":968,"Ġmet":969,"though":970,"Ġ15":971,"overn":972,"ower":973,"Ġsing":974,"iet":975,"uch":976,"Ġ11":977,"Ġmany":978,"air":979,"ross":980,"ĠAfter":981,"Ġcharac":982,"Ġlong":983,"ĠInd":984,"Ġseveral":985,"Ġdesc":986,"ather":987,"ober":988,"Ġrep":989,"Ġcontin":990,"Ġest":991,"Ġ17":992,"Ġdevelop":993,"Ġop":994,"ool":995,"ĠAustral":996,"ĠAmerican":997,"Ġmill":998,"up":999,"ivers":1000,"Ġgo":1001,"ute":1002,"Ġsm":1003,"ern":1004,"elf":1005,"Ġorig":1006,"led":1007,"Ġcity":1008,"Ġbegan":1009,"ative":1010,"ared":1011,"Ġshow":1012,"Ġstud":1013,"ĠGer":1014,"Ġmin":1015,"au":1016,"Ġcre":1017,"une":1018,"emb":1019,"der":1020,"roup":1021,"ĠWar":1022,"ĠShe":1023,"ĠBritish":1024,"Ġalong":1025,"ah":1026,"ĠMay":1027,"ven":1028,"Ġpol":1029,"Ġhead":1030,"Ġcomple":1031,"apt":1032,"Ġ197":1033,"Ġcentury":1034,"ĠJohn":1035,"ued":1036,"Ġdid":1037,"Ġlead":1038,"erm":1039,"Ġsign":1040,"Ġ196":1041,"ired":1042,"Ġmil":1043,"Ġdirect":1044,"Ġship":1045,"til":1046,"Ġart":1047,"ually":1048,"Ġcould":1049,"ized":1050,"Ġob":1051,"Ġext":1052,"Ġdown":1053,"iam":1054,"Ġearly":1055,"ley":1056,"Ġhist":1057,"view":1058,"Ġnear":1059,"Ġcar":1060,"Ġbel":1061,"Ġdif":1062,"Ġwar":1063,"Ġoper":1064,"ĠCon":1065,"Ġinf":1066,"ient":1067,"Ġbro":1068,"ĠWh":1069,"ĠUS":1070,"Ġthese":1071,"els":1072,"Ġmat":1073,"Ġcalled":1074,"oot":1075,"Ġair":1076,"ĠBr":1077,"Ġimp":1078,"Ġmay":1079,"Ġsaid":1080,"aking":1081,"Ġrun":1082,"Ġcrit":1083,"Ġkm":1084,"ĠIs":1085,"ople":1086,"ull":1087,"ruct":1088,"ccess":1089,"Ġfeat":1090,"Ġepisode":1091,"Ġdesign":1092,"itt":1093,"ured":1094,"Ġland":1095,"Ġinst":1096,"Ġresp":1097,"Ġdisc":1098,"ments":1099,"ĠSp":1100,"imes":1101,"Ġdist":1102,"Ġuntil":1103,"Ġreturn":1104,"gest":1105,"Ġdescrib":1106,"yp":1107,"ists":1108,"Ġins":1109,"ĠCl":1110,"Ġstart":1111,"Ġattack":1112,"xt":1113,"ajor":1114,"Ġprev":1115,"ided":1116,"oss":1117,"Ġany":1118,"Ġfin":1119,"ĠBl":1120,"ĠAug":1121,"ĠGerman":1122,"ĠAugust":1123,"ink":1124,"Ġarea":1125,"amed":1126,"erson":1127,"ains":1128,"ially":1129,"ĠSept":1130,"my":1131,"erv":1132,"Ġprov":1133,"enn":1134,"ible":1135,"ism":1136,"ĠCol":1137,"Ġthough":1138,"Ġgener":1139,"ĠSeptember":1140,"ĠCar":1141,"Ġconst":1142,"Ġ13":1143,"Ġpass":1144,"Ġgovern":1145,"Ġnorth":1146,"ĠNorth":1147,"ty":1148,"Ġoffic":1149,"ange":1150,"ĠThey":1151,"osed":1152,"ĠComm":1153,"Ġsame":1154,"Ġown":1155,"Ġaround":1156,"ĠMan":1157,"Ġgroup":1158,"ove":1159,"Ġopen":1160,"Ġbecause":1161,"Ġsupport":1162,"cept":1163,"Ġreleased":1164,"Ġmillion":1165,"ĠPl":1166,"Ġeff":1167,"ets":1168,"Ġuse":1169,"Ġlike":1170,"ium":1171,"Ġsix":1172,"Ġsmall":1173,"Ġocc":1174,"ash":1175,"Ġsuccess":1176,"Ġfinal":1177,"Ġcount":1178,"chool":1179,"Ġadv":1180,"Ã©":1181,"Ġbatt":1182,"ĠJu":1183,"Ġappear":1184,"Ġmusic":1185,"aced":1186,"Ġgu":1187,"Ġsim":1188,"Ġpeople":1189,"ues":1190,"stem":1191,"ĠWorld":1192,"Ġfam":1193,"ĠChr":1194,"Ġfollowing":1195,"wards":1196,"ivision":1197,"ĠDe":1198,"Ġbr":1199,"Ġconc":1200,"Ġdam":1201,"ouse":1202,"Ġmod":1203,"Ġwin":1204,"Ġph":1205,"uth":1206,"ĠAll":1207,"ĠHowever":1208,"ina":1209,"ke":1210,"und":1211,"ilt":1212,"ians":1213,"Ġconsid":1214,"Ġlarge":1215,"Ġeach":1216,"Ġ195":1217,"ĠJune":1218,"ĠAd":1219,"oman":1220,"Ġresult":1221,"ck":1222,"ology":1223,"ution":1224,"ĠFor":1225,"ole":1226,"Ġed":1227,"ats":1228,"ropical":1229,"Ġele":1230,"ives":1231,"ĠSouth":1232,"Ġann":1233,"Ġ191":1234,"Ġfive":1235,"Ġ%":1236,"Ġreport":1237,"Ġpoint":1238,"Ġcontro":1239,"Ġcharacter":1240,"ĠMe":1241,"ged":1242,"Ġlife":1243,"Ġsouth":1244,"Ġstr":1245,"Ġ14":1246,"ĠJan":1247,"Ġvar":1248,"ĠPro":1249,"raph":1250,"ery":1251,"ĠBe":1252,"Ġgun":1253,"ording":1254,"eb":1255,"ales":1256,"Ġever":1257,"ended":1258,"ony":1259,"Ġ193":1260,"ately":1261,"Ġsince":1262,"Ġprom":1263,"Ġgr":1264,"ural":1265,"ax":1266,"ĠGu":1267,"ĠOct":1268,"ĠQ":1269,"med":1270,"ble":1271,"ically":1272,"avy":1273,"ĠStates":1274,"ox":1275,"aving":1276,"ling":1277,"Ġweek":1278,"ored":1279,"uary":1280,"Ġstate":1281,"Ġ$":1282,"Ġmajor":1283,"ĠFran":1284,"ont":1285,"Ġtook":1286,"ĠOctober":1287,"ified":1288,"ĠNov":1289,"ting":1290,"ys":1291,"ection":1292,"ĠEu":1293,"ected":1294,"Ġwill":1295,"empt":1296,"ĠII":1297,"iving":1298,"Ġreceived":1299,"lish":1300,"ball":1301,"Ġpartic":1302,"Ġpublic":1303,"ility":1304,"ĠJuly":1305,"raft":1306,"Ġclass":1307,"ae":1308,"Ġrest":1309,"ission":1310,"Ġcare":1311,"ague":1312,"Ġtit":1313,"Ġplayed":1314,"Ġline":1315,"Ġhel":1316,"ĠDec":1317,"Ġwhat":1318,"Ġbook":1319,"Ġdet":1320,"ĠHer":1321,"ional":1322,"Ġsystem":1323,"ple":1324,"by":1325,"Ġname":1326,"ops":1327,"ants":1328,"Ġlast":1329,"Ġnow":1330,"Ġ25":1331,"Ġprot":1332,"Ġport":1333,"Ġbuild":1334,"ĠJanuary":1335,"Ġ[":1336,"Ġ]":1337,"Ġincre":1338,"aim":1339,"ĠCan":1340,"esp":1341,"Ġstorm":1342,"ĠChrist":1343,"omet":1344,"Ġserv":1345,"Ġref":1346,"ively":1347,"Ġ30":1348,"ĠMc":1349,"hel":1350,"Ġlate":1351,"Ġincluded":1352,"ĠPh":1353,"Ġconf":1354,"Ġdue":1355,"ages":1356,"Ġmar":1357,"Ġtri":1358,"ĠYork":1359,"Ġdescribed":1360,"ret":1361,"dom":1362,"ĠDuring":1363,"aur":1364,"Ġwon":1365,"ĠKing":1366,"anc":1367,"Ġjust":1368,"ham":1369,"Ġmuch":1370,"app":1371,"Ġsingle":1372,"ĠApr":1373,"apan":1374,"ĠApril":1375,"Ġgovernment":1376,"gin":1377,"Ġallow":1378,"ner":1379,"ody":1380,"..":1381,"Ġsl":1382,"iod":1383,"ideo":1384,"Ġworld":1385,"ĠJapan":1386,"get":1387,"Ġdeath":1388,"oad":1389,"Ġappro":1390,"sion":1391,"Ġattempt":1392,"ital":1393,"Ġcommand":1394,"ĠNovember":1395,"Ġkill":1396,"rote":1397,"Ġanother":1398,"itions":1399,"Ġleft":1400,"Ġcamp":1401,"Ġmen":1402,"Ġ...":1403,"ently":1404,"Ġalthough":1405,"ai":1406,"Ġwithin":1407,"Ġshort":1408,"Ġposs":1409,"ger":1410,"Ġold":1411,"ĠPar":1412,"orp":1413,"Ġnamed":1414,"ech":1415,"Ġwrote":1416,"ĠEurop":1417,"ene":1418,"ĠMus":1419,"Ġeven":1420,"Ġbuilt":1421,"urther":1422,"Ġorgan":1423,"rand":1424,"ched":1425,"Ġturn":1426,"Ġtop":1427,"omin":1428,"ption":1429,"ract":1430,"Ġbased":1431,"idge":1432,"Ġtrack":1433,"ays":1434,"Ġplace":1435,"ĠMarch":1436,"itary":1437,"ĠBatt":1438,"Ġprog":1439,"Ġchild":1440,"rench":1441,"Ġpower":1442,"Ġthird":1443,"ĠGe":1444,"ĠDecember":1445,"Ġprevious":1446,"ness":1447,"Ġevent":1448,"Ġpar":1449,"Ġstar":1450,"Ġspecies":1451,"ulation":1452,"ĠNational":1453,"Ġif":1454,"Ġcap":1455,"Ġestab":1456,"Ġvis":1457,"Ġdiffer":1458,"ards":1459,"ipp":1460,"Ġschool":1461,"ached":1462,"Ġbelie":1463,"ĠBy":1464,"Ġvery":1465,"ĠAnd":1466,"Ġbre":1467,"ung":1468,"Ġperson":1469,"Ġhome":1470,"ilar":1471,"Ġdr":1472,"osp":1473,"Ġexpl":1474,"Ġperiod":1475,"ler":1476,"Ġwater":1477,"ances":1478,"Ġlist":1479,"Ġrequ":1480,"ĠThere":1481,"Ġgames":1482,"Ġhal":1483,"ms":1484,"Ġtem":1485,"ves":1486,"amb":1487,"Ġhand":1488,"Ġreview":1489,"iversity":1490,"ĠCity":1491,"ĠRiver":1492,"ĠFrench":1493,"Ġ192":1494,"que":1495,"Ġeng":1496,"ison":1497,"oint":1498,"eder":1499,"Ġbest":1500,"Ġsent":1501,"aged":1502,"Ġrepl":1503,"Ġthose":1504,"iven":1505,"Ġhum":1506,"ides":1507,"ĠEurope":1508,"Ġwind":1509,"Ġ100":1510,"Ġmonth":1511,"ese":1512,"ense":1513,"ĠHis":1514,"ĠWhen":1515,"oci":1516,"ĠEngland":1517,"Ġmed":1518,"side":1519,"Ġdest":1520,"ruction":1521,"hest":1522,"ature":1523,"Ġled":1524,"ĠNo":1525,"Ġcour":1526,"elt":1527,"Ġ2010":1528,"Ġbo":1529,"Ġgreat":1530,"Ġcapt":1531,"ences":1532,"aken":1533,"let":1534,"ĠFl":1535,"Ġfamily":1536,"aster":1537,"ience":1538,"ĠÂ":1539,"Ġbas":1540,"Ġmake":1541,"ĠSte":1542,"mp":1543,"Ġvideo":1544,"Ġoriginal":1545,"Ġopp":1546,"Ġ2008":1547,"Ġnext":1548,"Ġcame":1549,"inc":1550,"Ġdem":1551,"akes":1552,"Ġtyp":1553,"urric":1554,"ention":1555,"Ġstill":1556,"ĠComp":1557,"Ġterm":1558,"Ġside":1559,"Ġmark":1560,"Ġmoved":1561,"Ġrole":1562,"Ġleg":1563,"Ġcontinued":1564,"ented":1565,"Ġstory":1566,"ĠOr":1567,"alk":1568,"Ġfew":1569,"Ġlocal":1570,"Ġway":1571,"Ġ2009":1572,"Ġsold":1573,"Ġcaus":1574,"ĠDivision":1575,"Ġwest":1576,"Ġhistory":1577,"Ġmid":1578,"ott":1579,"ĠChurch":1580,"gy":1581,"atter":1582,"ior":1583,"ĠTe":1584,"Ġview":1585,"line":1586,"bs":1587,"oon":1588,"Ġheld":1589,"rew":1590,"uted":1591,"Ġforces":1592,"aining":1593,"ival":1594,"embers":1595,"Ġsug":1596,"Ġauth":1597,"Ġformer":1598,"ĠPr":1599,"Ġiss":1600,"Ġaddition":1601,"read":1602,"Ġroad":1603,"uss":1604,"ĠAm":1605,"riend":1606,"lev":1607,"ĠBro":1608,"eng":1609,"lu":1610,"Ġant":1611,"Ġcover":1612,"Ġoften":1613,"ne":1614,"ĠChar":1615,"sh":1616,"Ġeast":1617,"Ġfurther":1618,"astern":1619,"ograph":1620,"Ġconsidered":1621,"Ġcareer":1622,"Ġeffect":1623,"ĠEd":1624,"ĠWe":1625,"Ġstand":1626,"ining":1627,"arn":1628,"Ġtown":1629,"ĠWill":1630,"Ġclaim":1631,"Ġright":1632,"Ġcr":1633,"ront":1634,"Ġinit":1635,"Ġdeb":1636,"ampions":1637,"ches":1638,"eter":1639,"Ġ21":1640,"Ġtot":1641,"Ġ2007":1642,"ĠOne":1643,"Ġposition":1644,"self":1645,"ories":1646,"Ġexper":1647,"Ġdel":1648,"Ġarch":1649,"Ġnort":1650,"ĠState":1651,"Ġmilitary":1652,"Ġmatch":1653,"Ġ23":1654,"ĠWith":1655,"enc":1656,"Ġdra":1657,"ĠAb":1658,"Ġhalf":1659,"Ġtropical":1660,"ĠAcc":1661,"ternational":1662,"Ġsimilar":1663,"Ġhelp":1664,"Ġsuggest":1665,"par":1666,"roy":1667,"Ġstrong":1668,"Ġ24":1669,"Ġdefe":1670,"Ġfire":1671,"Ġconv":1672,"ister":1673,"Ġband":1674,"ĠCount":1675,"ĠRec":1676,"Ġimport":1677,"Ġplayer":1678,"Ġrefer":1679,"Ġwithout":1680,"ĠGener":1681,"Ġcur":1682,"Ġreal":1683,"Ġpolit":1684,"alion":1685,"Ġdays":1686,"Ġtrad":1687,"urricane":1688,"Ġplan":1689,"Ġcommun":1690,"estern":1691,"Ġmembers":1692,"Ġ2011":1693,"Ġtake":1694,"ĠTr":1695,"Ġspe":1696,"ebru":1697,"ead":1698,"ĠX":1699,"Ġtw":1700,"Ġmy":1701,"ried":1702,"Ġcompany":1703,"Ġclub":1704,"iment":1705,"ĠPer":1706,"Ġcommon":1707,"Ġav":1708,"Ġamong":1709,"Ġ22":1710,"Ġlevel":1711,"ensive":1712,"Ġdifferent":1713,"ones":1714,"Ġyou":1715,"Ġevery":1716,"Ġpost":1717,"Ġrecorded":1718,"Ġprop":1719,"ots":1720,"Ġel":1721,"itar":1722,"Ġhowever":1723,"ĠFebru":1724,"ĠEar":1725,"ĠAlthough":1726,"ĠFebruary":1727,"Ġelect":1728,"Ġbeh":1729,"Ġinvol":1730,"augh":1731,"Ġfore":1732,"Ġ2012":1733,"ĠAustralian":1734,"iter":1735,"ĠPort":1736,"Ġrepres":1737,"eal":1738,"Ġ2006":1739,"ĠEnglish":1740,"Ġarr":1741,"yn":1742,"arr":1743,"Ġpublished":1744,"ĠAf":1745,"Ġ26":1746,"Ġlow":1747,"ize":1748,"ression":1749,"reen":1750,"yle":1751,"hern":1752,"ĠAccording":1753,"Ġfind":1754,"Ġships":1755,"Ġorder":1756,"lear":1757,"Ġwritten":1758,"ering":1759,"ittle":1760,"outher":1761,"Ġmag":1762,"Ġtro":1763,"atic":1764,"be":1765,"Ġvict":1766,"Ġtotal":1767,"isc":1768,"ices":1769,"ploy":1770,"Ġfre":1771,"Ġpat":1772,"rodu":1773,"Ġrelease":1774,"Ġorigin":1775,"outhern":1776,"ĠSu":1777,"ĠAustralia":1778,"Ġfield":1779,"Ġparticular":1780,"Ġsongs":1781,"Ġtitle":1782,"Ġbecome":1783,"Ġfoot":1784,"ĠAir":1785,"Ġcompet":1786,"Ġer":1787,"ĠAng":1788,"ising":1789,"ĠPark":1790,"Ġreported":1791,"Ġcontrol":1792,"ĠGeneral":1793,"Ġlost":1794,"ĠMich":1795,"rick":1796,"Ġprof":1797,"Ġord":1798,"Ġproject":1799,"reet":1800,"ush":1801,"Ġcomb":1802,"ĠCanad":1803,"Ġtimes":1804,"Ġhaving":1805,"aces":1806,"sequ":1807,"Ġsurv":1808,"Ġft":1809,"Ġgave":1810,"Ġter":1811,"aying":1812,"ĠCent":1813,"Ġproduced":1814,"Ġstat":1815,"Ġversion":1816,"ĠLeague":1817,"Ġsk":1818,"Ġcy":1819,"urs":1820,"esc":1821,"ĠEl":1822,"ampionship":1823,"ĠAss":1824,"rest":1825,"ĠWest":1826,"ĠUniversity":1827,"Ġ!":1828,"Ġequ":1829,"rent":1830,"Ġlight":1831,"ĠMin":1832,"ĠBar":1833,"Ġ28":1834,"Ġproduction":1835,"iety":1836,"oung":1837,"Ġsignific":1838,"Ġless":1839,"Ġchang":1840,"Ġauthor":1841,"iron":1842,"ĠGeor":1843,"ream":1844,"ably":1845,"ours":1846,"ailed":1847,"ĠReg":1848,"levision":1849,"Ġhistor":1850,"ges":1851,"Ġjo":1852,"ĠThese":1853,"Ġnever":1854,"Ġinflu":1855,"ĠRich":1856,"ille":1857,"Ġcountry":1858,"quad":1859,"ald":1860,"Ã¡":1861,"Ġgiven":1862,"ĠRoman":1863,"Ġarm":1864,"Ġaff":1865,"Ġsite":1866,"Ġmaking":1867,"Ġforce":1868,"Ġ&":1869,"Ġwant":1870,"used":1871,"Ġ27":1872,"Ġinclude":1873,"Ġreturned":1874,"echn":1875,"Ġpopular":1876,"ĠAfric":1877,"aul":1878,"work":1879,"Ġsol":1880,"Ġ50":1881,"Ġground":1882,"na":1883,"ither":1884,"Ġobs":1885,"Ġpress":1886,"Ġeight":1887,"ĠMiss":1888,"vers":1889,"oard":1890,"Ġsit":1891,"ĠRoad":1892,"Ġ2013":1893,"Ġdestroy":1894,"ades":1895,"ivil":1896,"Ġisland":1897,"antry":1898,"Ġcritic":1899,"ator":1900,"Ġnight":1901,"Ġstated":1902,"ĠLes":1903,"ization":1904,"Ġacross":1905,"ĠPol":1906,"ination":1907,"ask":1908,"Ġstruct":1909,"me":1910,"Ġreached":1911,"Ġchurch":1912,"ĠWilliam":1913,"Ġfar":1914,"Ġdeveloped":1915,"Ġseen":1916,"ring":1917,"ffic":1918,"aun":1919,"fic":1920,"ford":1921,"ape":1922,"ĠAmerica":1923,"Ġpopulation":1924,"ĠWhile":1925,"ĠJapanese":1926,"Ġcult":1927,"aff":1928,"Ġlim":1929,"Ġpresent":1930,"Ġmiles":1931,"Ġprogram":1932,"Ġannoun":1933,"ration":1934,"reek":1935,"ĠSim":1936,"ĠSong":1937,"ius":1938,"Ġfact":1939,"Ġcross":1940,"ument":1941,"Ġsignificant":1942,"sp":1943,"Ġ29":1944,"Ġshould":1945,"Ġestabl":1946,"Ġearl":1947,"Ġ190":1948,"ĠJack":1949,"omb":1950,"Ġusing":1951,"oyal":1952,"Ġchildren":1953,"cess":1954,"Ġread":1955,"omen":1956,"Ġaway":1957,"iness":1958,"Ġnov":1959,"ground":1960,"ĠLond":1961,"Ġfriend":1962,"Ġrad":1963,"Ġguns":1964,"aign":1965,"ĠOld":1966,"ological":1967,"reg":1968,"Ġdiv":1969,"Ġhimself":1970,"ĠCounty":1971,"Ġhow":1972,"Ġmanag":1973,"craft":1974,"Ġpit":1975,"alth":1976,"ĠMount":1977,"ĠDav":1978,"Ġdevelopment":1979,"Ġestablished":1980,"ĠLondon":1981,"imately":1982,"Ġmodern":1983,"Ġbody":1984,"Ġbattle":1985,"Ġmm":1986,"Ġformed":1987,"Ġthought":1988,"eared":1989,"Ġbar":1990,"Ġpra":1991,"Ġsound":1992,"Ġperformance":1993,"igade":1994,"isted":1995,"ope":1996,"Ġcast":1997,"Ġhig":1998,"Ġgen":1999,"Ġthroughout":2000,"iers":2001,"Ġwent":2002,"Ġfelt":2003,"Ġpain":2004,"Ġareas":2005,"aren":2006,"arch":2007,"most":2008,"Ġcat":2009,"ĠIm":2010,"rie":2011,"Ġkilled":2012,"Ġwat":2013,"Ġtour":2014,"ĠHigh":2015,"ĠScient":2016,"ero":2017,"Ġlaw":2018,"utes":2019,"Ġprim":2020,"ĠBlack":2021,"Ġsomet":2022,"Ġfight":2023,"Ġgood":2024,"ĠNe":2025,"Ġsuccessful":2026,"ĠCal":2027,"Ġintrodu":2028,"ylan":2029,"iec":2030,"Ġdied":2031,"Ġgl":2032,"ements":2033,"Ġseven":2034,"ĠDylan":2035,"Ġnoted":2036,"ords":2037,"Ġcou":2038,"acy":2039,"oll":2040,"ript":2041,"Ġrange":2042,"ublic":2043,"field":2044,"itive":2045,"Ġdiscover":2046,"Ġfull":2047,"Ġtoo":2048,"Ġste":2049,"Ġimportant":2050,"af":2051,"Ġsoc":2052,"Ġmount":2053,"irc":2054,"Ġadm":2055,"Ġlocated":2056,"Ġten":2057,"Ġfront":2058,"ĠEx":2059,"ĠArmy":2060,"Ġblack":2061,"Ġstarted":2062,"Ġput":2063,"Ġdecl":2064,"Ġbuilding":2065,"ĠEv":2066,"ief":2067,"Ġneed":2068,"ĠHa":2069,"Ġchart":2070,"ĠPhil":2071,"Ġide":2072,"Ġhuman":2073,"ico":2074,"ĠGl":2075,"Ġ31":2076,"Ġactiv":2077,"Ġperformed":2078,"Ġvarious":2079,"epend":2080,"ĠCompany":2081,"eth":2082,"osaur":2083,"Ġremained":2084,"Ġwriting":2085,"Ġcas":2086,"Ġlook":2087,"Ġtelevision":2088,"Ġfeet":2089,"fall":2090,"Ġsee":2091,"Ġtroops":2092,"ĠOl":2093,"ways":2094,"Ġofficial":2095,"con":2096,"reland":2097,"Ġfem":2098,"Ġfather":2099,"ĠFeder":2100,"Ġcaused":2101,"itted":2102,"Ġfun":2103,"Ġnational":2104,"ĠIreland":2105,"Ġpoem":2106,"com":2107,"Ġwid":2108,"Ġwhite":2109,"ogn":2110,"Ġhouse":2111,"ĠTo":2112,"ĠJames":2113,"ries":2114,"Äģ":2115,"Ġtechn":2116,"Ġheavy":2117,"Ġinterest":2118,"ĠSec":2119,"idence":2120,"ĠHar":2121,"Ġconstruction":2122,"Ġage":2123,"Ġred":2124,"Ġsum":2125,"hem":2126,"ara":2127,"Ġget":2128,"Ġ2005":2129,"iting":2130,"ĠMon":2131,"ĠHist":2132,"Ġplayers":2133,"uck":2134,"gr":2135,"Ġstri":2136,"Ġstyle":2137,"ĠPal":2138,"ump":2139,"ael":2140,"Ġentire":2141,"Ġsw":2142,"Ġke":2143,"idd":2144,"ino":2145,"ĠKe":2146,"Ġevents":2147,"Ġdoes":2148,"Ġsett":2149,"ĠIsland":2150,"ĠRober":2151,"ourn":2152,"Ġmix":2153,"Ġrev":2154,"Ġbegin":2155,"Ġvill":2156,"Ġable":2157,"Ġrelig":2158,"quadron":2159,"ressed":2160,"Ġcoast":2161,"Ġserved":2162,"Ġpeak":2163,"asing":2164,"Ġcampaign":2165,"Ġfav":2166,"ĠBut":2167,"Ġpolitical":2168,"Ġlik":2169,"ĠYou":2170,"enced":2171,"Ġ40":2172,"Ġregion":2173,"lected":2174,"Ġcreated":2175,"Ġtre":2176,"ened":2177,"ĠCo":2178,"mar":2179,"leet":2180,"Ġonce":2181,"Ġgod":2182,"por":2183,"ids":2184,"duct":2185,"Ġfig":2186,"enth":2187,"ĠCare":2188,"ĠMag":2189,"Ġfollowed":2190,"ĠBattalion":2191,"antic":2192,"Ġ189":2193,"Ġothers":2194,"ĠAtl":2195,"Ġpromot":2196,"Ġpri":2197,"Ġagre":2198,"Ġworks":2199,"ÃŃ":2200,"Ġson":2201,"ster":2202,"abor":2203,"ĠâĢĻ":2204,"Ġroute":2205,"Ġestim":2206,"less":2207,"Ġcompleted":2208,"ficult":2209,"Ġcond":2210,"elling":2211,"Ġannounced":2212,"ĠCro":2213,"Ġ2004":2214,"here":2215,"Ġbecom":2216,"day":2217,"ĠSy":2218,"Ġrank":2219,"Ġleast":2220,"Ġmeet":2221,"Ġdifficult":2222,"Ġcoun":2223,"Ġhold":2224,"ĠDu":2225,"Ġadded":2226,"Ġball":2227,"ivid":2228,"rab":2229,"Ġoriginally":2230,"Ġval":2231,"rought":2232,"ample":2233,"ique":2234,"ana":2235,"ĠSw":2236,"play":2237,"ought":2238,"rict":2239,"Ġrelations":2240,"Ġcharacters":2241,"Ġoccur":2242,"Ġfac":2243,"Ġbus":2244,"Ġappeared":2245,"Ġrock":2246,"Ġmonths":2247,"Ġcert":2248,"ĠHam":2249,"Ġspecial":2250,"br":2251,"Ġident":2252,"urb":2253,"ki":2254,"Ġsouthern":2255,"rap":2256,"Ġcolle":2257,"Ġround":2258,"Ġpred":2259,"Ġloss":2260,"ament":2261,"ects":2262,"Ġbase":2263,"Ġlittle":2264,"odes":2265,"Ġcomment":2266,"Ġassoci":2267,"cher":2268,"ĠMer":2269,"ĠRoyal":2270,"Ġconn":2271,"ĠOther":2272,"Ġprocess":2273,"Ġsuper":2274,"Ġbroad":2275,"Ġmi":2276,"ĠAct":2277,"ĠSom":2278,"Ġinstead":2279,"Ġdamage":2280,"Ġborn":2281,"emy":2282,"ality":2283,"Ġtradition":2284,"Ġ2015":2285,"Ġaircraft":2286,"cer":2287,"aly":2288,"ett":2289,"ĠKingdom":2290,"ying":2291,"ĠRout":2292,"pped":2293,"Ġfeatures":2294,"Ġ2003":2295,"Ġaud":2296,"orse":2297,"ĠTown":2298,"unk":2299,"Ġdecided":2300,"Ġbehind":2301,"Ġcycl":2302,"oice":2303,"Ġlack":2304,"Ġenc":2305,"Ġaccom":2306,"ency":2307,"cil":2308,"Ġeastern":2309,"Ġknow":2310,"Ġservice":2311,"Ġredu":2312,"ĠRep":2313,"Ġlet":2314,"ĠTwo":2315,"Ġgrow":2316,"Ġnovel":2317,"oo":2318,"ĠSan":2319,"ĠMad":2320,"Ġnon":2321,"umb":2322,"Ġvol":2323,"Ġsuff":2324,"igned":2325,"Ġ188":2326,"Ġhighway":2327,"ray":2328,"Ġaward":2329,"Ġriver":2330,"Ġcritics":2331,"heast":2332,"Ġcirc":2333,"ĠEast":2334,"Ġsaw":2335,"ĠScientology":2336,"Ġtaken":2337,"Ġoperations":2338,"ĠMex":2339,"ĠRoute":2340,"Ġfif":2341,"Ġmass":2342,"ĠMor":2343,"ĠBra":2344,"Ġrecogn":2345,"ĠMcC":2346,"ming":2347,"Ġwife":2348,"Ġtowards":2349,"Ġclose":2350,"angu":2351,"Ġfourth":2352,"ault":2353,"ned":2354,"Ġaver":2355,"Ġaction":2356,"ĠSome":2357,"ĠBill":2358,"gg":2359,"Ġvoc":2360,"Ġeither":2361,"ĠPres":2362,"Ġanim":2363,"oph":2364,"ĠStreet":2365,"ĠChampionship":2366,"off":2367,"Ġeventually":2368,"Ġtest":2369,"ata":2370,"ators":2371,"ecut":2372,"istic":2373,"aching":2374,"ĠDavid":2375,"Ġclos":2376,"Ġreb":2377,"ĠSer":2378,"ĠFrance":2379,"Ġrepresent":2380,"Ġhurricane":2381,"urg":2382,"olution":2383,"illa":2384,"Ġsepar":2385,"Ġscored":2386,"Ġappoint":2387,"Ġsubsequ":2388,"alt":2389,"Ġlive":2390,"Ġimpro":2391,"cast":2392,"Ġz":2393,"ica":2394,"Ġmother":2395,"Ġfort":2396,"Ġalmost":2397,"Ġproble":2398,"Ġcoll":2399,"Ġbird":2400,"ĠWales":2401,"Ġindivid":2402,"Ġprofess":2403,"Ġstage":2404,"iff":2405,"Ġ185":2406,"azine":2407,"Ġnorthern":2408,"Ġstars":2409,"Ġcommer":2410,"ude":2411,"Ġyoung":2412,"ĠMusic":2413,"Ġcut":2414,"Ġmiss":2415,"Ġsex":2416,"Ġce":2417,"Ġfall":2418,"ĠFollow":2419,"Ġ35":2420,"iber":2421,"Ġwall":2422,"Ġren":2423,"Ġask":2424,"aval":2425,"ĠEm":2426,"Ġcentral":2427,"ĠIndian":2428,"Ġfeatured":2429,"Ġcor":2430,"Ġlaun":2431,"aper":2432,"ĠCup":2433,"ĠBo":2434,"ĠHill":2435,"ĠNY":2436,"Ġcrew":2437,"ography":2438,"ores":2439,"Ġdou":2440,"ceed":2441,"ĠGrand":2442,"Ġhon":2443,"orts":2444,"Ġunits":2445,"medi":2446,"ĠRock":2447,"ĠInf":2448,"Ġexample":2449,"iol":2450,"Ġhost":2451,"ota":2452,"Ġrul":2453,"Ġplaying":2454,"Ġaccept":2455,"Ġmove":2456,"Ġwomen":2457,"ston":2458,"stit":2459,"ully":2460,"Ġarg":2461,"Ġrespons":2462,"Ġgeneral":2463,"Ġbelieved":2464,"ĠFollowing":2465,"west":2466,"ĠAg":2467,"ending":2468,"Ġgoal":2469,"Ġiron":2470,"Ġbrought":2471,"ama":2472,"emor":2473,"chie":2474,"Ġ500":2475,"Ġmot":2476,"lement":2477,"Ġking":2478,"ĠRobert":2479,"ĠCarey":2480,"Ġcase":2481,"Ġtoget":2482,"aves":2483,"ĠInternational":2484,"Ġtogether":2485,"men":2486,"uation":2487,"arter":2488,"Ġmater":2489,"ĠGod":2490,"Ġexc":2491,"Ġwinds":2492,"aut":2493,"ĠSl":2494,"ĠBer":2495,"cial":2496,"eum":2497,"Ġnuc":2498,"Ġdev":2499,"Ġplaced":2500,"Ġlargest":2501,"Ġdirected":2502,"Ġrelationship":2503,"Ġmph":2504,"ĠMed":2505,"Ġstru":2506,"ĠPart":2507,"reng":2508,"Ġleading":2509,"Ġfinished":2510,"iation":2511,"Ġlangu":2512,"Ġintens":2513,"wood":2514,"Ġ186":2515,"Ġupon":2516,"Ġinsp":2517,"Ġcourt":2518,"Ġsour":2519,"Ġmember":2520,"ĠJew":2521,"Ġcontract":2522,"Ġindust":2523,"Ġprovided":2524,"board":2525,"co":2526,"ential":2527,"ĠPaul":2528,"Ġrather":2529,"ĠBrigade":2530,"Ġweeks":2531,"head":2532,"Ġshot":2533,"Ġflood":2534,"Ġcurrent":2535,"ving":2536,"ĠFrom":2537,"Ġopened":2538,"oring":2539,"ĠDay":2540,"ĠGame":2541,"Ġsequ":2542,"Ġemploy":2543,"uel":2544,"ville":2545,"Ġcreat":2546,"Ġhy":2547,"ĠPe":2548,"artment":2549,"ĠThom":2550,"val":2551,"icated":2552,"ishing":2553,"Ġappearance":2554,"Ġcivil":2555,"Ġey":2556,"bert":2557,"ights":2558,"cing":2559,"Ġprob":2560,"Ġve":2561,"Ġinvest":2562,"ĠCommand":2563,"Ġopening":2564,"Ġelements":2565,"go":2566,"ule":2567,"Ġ-":2568,"ĠHen":2569,"Ġstreng":2570,"AF":2571,"ĠPre":2572,"Ġregular":2573,"ih":2574,"atin":2575,"Ġinform":2576,"asion":2577,"ĠFirst":2578,"Ġdirector":2579,"Ġdesigned":2580,"Ġpoints":2581,"Ġinvolved":2582,"Ġearlier":2583,"Ġcost":2584,"Ġcell":2585,"Ġhours":2586,"ida":2587,"iding":2588,"Ġyards":2589,"Ġemb":2590,"Ġrespect":2591,"Ġgenerally":2592,"Ġallowed":2593,"hing":2594,"Ġreve":2595,"iction":2596,"Ġmeas":2597,"ĠWhite":2598,"ĠGeorge":2599,"Ġfoc":2600,"Ġconduct":2601,"ĠEuropean":2602,"Ġsaying":2603,"Ġoutside":2604,"Ġpossible":2605,"erous":2606,"Ġbeg":2607,"ĠNavy":2608,"Ġmean":2609,"Ġquick":2610,"Ġbi":2611,"Ġburn":2612,"ĠSm":2613,"ĠMy":2614,"ĠViet":2615,"enes":2616,"Ġengine":2617,"Ġreplaced":2618,"Ġwanted":2619,"cent":2620,"now":2621,"ĠMark":2622,"Ġgra":2623,"conom":2624,"ls":2625,"uk":2626,"Ġmer":2627,"Ġreact":2628,"ĠDep":2629,"aps":2630,"ellow":2631,"nar":2632,"ĠAc":2633,"ĠBest":2634,"Ġdesp":2635,"Ġvictory":2636,"Ġwood":2637,"ington":2638,"eck":2639,"Ġhom":2640,"Ġexist":2641,"Ġpreviously":2642,"liam":2643,"tar":2644,"Ġfund":2645,"ĠCr":2646,"Ġleng":2647,"ĠRh":2648,"Ġworking":2649,"Ġparticularly":2650,"Ġestimated":2651,"Ġabove":2652,"Ġ187":2653,"Ġ2014":2654,"Ġjoined":2655,"to":2656,"etwork":2657,"Ġpract":2658,"Ġmetres":2659,"ĠQu":2660,"ĠChristian":2661,"ĠAngel":2662,"Ġbusiness":2663,"Ġill":2664,"Ġesc":2665,"ĠMost":2666,"ĠIr":2667,"ĠPac":2668,"ĠRed":2669,"ze":2670,"Ġclear":2671,"ĠDesp":2672,"ĠKore":2673,"Ġ2001":2674,"inese":2675,"ĠLove":2676,"Ġseem":2677,"Ġ2000":2678,"Ġneg":2679,"Ġtravel":2680,"anned":2681,"ĠFlor":2682,"for":2683,"osition":2684,"ĠChinese":2685,"Ġremov":2686,"Ġ1970":2687,"sel":2688,"uter":2689,"Ġachie":2690,"ita":2691,"Ġhit":2692,"Ġforced":2693,"ula":2694,"Ġdraw":2695,"ĠDespite":2696,"bor":2697,"ma":2698,"Ġcop":2699,"ĠHouse":2700,"pper":2701,"Ġdiss":2702,"liament":2703,"Ġly":2704,"Ġworked":2705,"Ġtransport":2706,"Ġavail":2707,"Ġpraised":2708,"Ġmach":2709,"ĠCorp":2710,"ĠMo":2711,"urt":2712,"Ġprote":2713,"onst":2714,"Ġpers":2715,"Ġpast":2716,"Ġwithd":2717,"Ġtransfer":2718,"Ġlength":2719,"Ġbur":2720,"Ġinj":2721,"Ġmult":2722,"Ġscene":2723,"Ġpoet":2724,"rated":2725,"Ġreason":2726,"ecess":2727,"aint":2728,"elled":2729,"ĠZeal":2730,"Ġstudy":2731,"ĠZealand":2732,"nel":2733,"Ġslow":2734,"atural":2735,"itz":2736,"Ġfr":2737,"Ġfree":2738,"Ġthreat":2739,"ĠMac":2740,"ĠLa":2741,"osing":2742,"ĠVal":2743,"Ġrain":2744,"Ġmaint":2745,"ĠPlay":2746,"Ġincreased":2747,"ps":2748,"ties":2749,"Ġcondom":2750,"ĠOper":2751,"ĠKh":2752,"Ġresear":2753,"ĠBritain":2754,"Ġordered":2755,"ste":2756,"Ġconstruct":2757,"ĠBattle":2758,"ee":2759,"Ġthink":2760,"Ġstation":2761,"opp":2762,"ĠMichael":2763,"Ġmaterial":2764,"mb":2765,"ĠRuss":2766,"ago":2767,"ĠÂ°":2768,"ĠSuper":2769,"Ġ1990":2770,"Ġregard":2771,"Ġobject":2772,"ĠLesnar":2773,"ĠMexico":2774,"ĠCreek":2775,"ĠBay":2776,"ĠWal":2777,"ĠWil":2778,"aker":2779,"Ġevidence":2780,"ĠAtlantic":2781,"nes":2782,"rd":2783,"acing":2784,"ĠLater":2785,"ĠGal":2786,"Ġ45":2787,"ibility":2788,"Ġaccount":2789,"Ġfootball":2790,"Ġtrib":2791,"ĠGreat":2792,"Ġviol":2793,"Ġremains":2794,"Ġrap":2795,"Ġsyn":2796,"Ġmanager":2797,"Ġnomin":2798,"ĠMary":2799,"irth":2800,"Ġwhom":2801,"anding":2802,"Ġpoor":2803,"Ġsoon":2804,"Ġhous":2805,"ĠHall":2806,"Ġwestern":2807,"ania":2808,"ĠTor":2809,"Ġlines":2810,"ĠDon":2811,"Ġrace":2812,"Ġ60":2813,"Ġcenter":2814,"ification":2815,"ĠPacific":2816,"Ġface":2817,"ching":2818,"ĠGovern":2819,"ĠEarly":2820,"ĠRepublic":2821,"uz":2822,"ĠOs":2823,"ributed":2824,"ready":2825,"Ġhighest":2826,"ĠFederer":2827,"ĠÃ":2828,"ites":2829,"leg":2830,"oms":2831,"Ġarmy":2832,"ĠFlorida":2833,"wh":2834,"Ġtreat":2835,"ulf":2836,"Ġrail":2837,"ĠQue":2838,"vest":2839,"aries":2840,"anish":2841,"Ġdon":2842,"Ġgre":2843,"ĠPo":2844,"ĠGold":2845,"Ġchange":2846,"Ġ2002":2847,"Ġparticip":2848,"Ġturned":2849,"ĠÂ£":2850,"ship":2851,"Ġnine":2852,"Ġsurf":2853,"Ġfemale":2854,"Ġaverage":2855,"lict":2856,"Ġpen":2857,"ĠSchool":2858,"ession":2859,"ordan":2860,"Ġinterview":2861,"Ġarrived":2862,"ĠRichard":2863,"porary":2864,"Ġyard":2865,"Ġsigned":2866,"Ġbreak":2867,"Ġterrit":2868,"BC":2869,"Ġtaking":2870,"Ġpur":2871,"ĠSch":2872,"clus":2873,"Ġitself":2874,"Ġsubject":2875,"Ġpriv":2876,"anks":2877,"Ġblock":2878,"Ġclaimed":2879,"ĠInfantry":2880,"ĠOp":2881,"Ġdamaged":2882,"ĠHero":2883,"Ġstructure":2884,"ecutive":2885,"Ġavailable":2886,"erved":2887,"Ġlove":2888,"eler":2889,"Ġheav":2890,"ĠGr":2891,"Ġcontr":2892,"Ġsurround":2893,"Ġcommercial":2894,"ĠThomas":2895,"oul":2896,"ĠJordan":2897,"Ġimmedi":2898,"Ġstudio":2899,"Ġoccup":2900,"Ġdefeated":2901,"Ġpiec":2902,"ouri":2903,"ĠApp":2904,"Ġinitially":2905,"Ġcommunity":2906,"Ġdro":2907,"Ġhard":2908,"ĠHol":2909,"abit":2910,"ĠUnion":2911,"Ġtraining":2912,"Ġbrother":2913,"ĠRegiment":2914,"chest":2915,"hib":2916,"ky":2917,"Ġsection":2918,"arily":2919,"Ġbill":2920,"vert":2921,"ĠOliv":2922,"Ġdespite":2923,"band":2924,"Ġcal":2925,"Ġnames":2926,"ulated":2927,"ĠOd":2928,"Ġdisp":2929,"Ġdepression":2930,"gypt":2931,"ĠPresident":2932,"ximately":2933,"ĠAward":2934,"ĠMet":2935,"Ġgold":2936,"ĠDr":2937,"rian":2938,"Ġ36":2939,"ĠVir":2940,"Ġtru":2941,"ĠEgypt":2942,"Ġpassed":2943,"ĠCanada":2944,"Ġvillage":2945,"Ġesp":2946,"Ġinternational":2947,"Ġtold":2948,"Ġeconom":2949,"Ġwhose":2950,"Ġexcept":2951,"ference":2952,"Ġquarter":2953,"Ġhar":2954,"Ġalready":2955,"ateg":2956,"ĠUnder":2957,"Ġ75":2958,"Ġincreasing":2959,"oor":2960,"Ġcru":2961,"arters":2962,"ila":2963,"Ġlatter":2964,"ĠMa":2965,"ĠBel":2966,"ĠYear":2967,"Ġ1960":2968,"ĠCarol":2969,"Ġrequired":2970,"Ġprobably":2971,"Ġwide":2972,"ases":2973,"ĠTom":2974,"ĠBus":2975,"ĠThat":2976,"Ġparts":2977,"Ġappointed":2978,"Ġstates":2979,"ription":2980,"Ġkey":2981,"Ġ38":2982,"Ġ183":2983,"Ġestablish":2984,"stein":2985,"ari":2986,"urity":2987,"rag":2988,"ume":2989,"ĠScott":2990,"Ġdebut":2991,"Ġreligious":2992,"ĠVietn":2993,"down":2994,"inist":2995,"oration":2996,"Ġfly":2997,"ĠTimes":2998,"Ġproper":2999,"Ġpolice":3000,"Ġcomplet":3001,"Ġgrad":3002,"Ġsoldiers":3003,"ĠArt":3004,"Ġcapital":3005,"ĠMissouri":3006,"ĠHenry":3007,"AS":3008,"ney":3009,"Ġliter":3010,"Ġforward":3011,"thlet":3012,"ranch":3013,"Ġbetter":3014,"Ġassist":3015,"oid":3016,"áĥ":3017,"Ġmust":3018,"ĠTem":3019,"Ġabs":3020,"Ġcolon":3021,"Ġden":3022,"Ġdate":3023,"ilities":3024,"ĠNot":3025,"Ġcome":3026,"Ġdead":3027,"Ġremaining":3028,"Ġsuggested":3029,"Ġbeginning":3030,"Ġsize":3031,"atory":3032,"Ġgive":3033,"Ġanc":3034,"Ġenough":3035,"Ġgoing":3036,"Ġwinning":3037,"Ġanti":3038,"Ġap":3039,"Ġpot":3040,"ĠTra":3041,"ĠFort":3042,"aby":3043,"ability":3044,"Ġdecision":3045,"Ġended":3046,"hens":3047,"Ġdeterm":3048,"gu":3049,"itor":3050,"Ġfailed":3051,"ĠSun":3052,"ĠHel":3053,"Ġwriter":3054,"Ġaccording":3055,"Ġindepend":3056,"Ġnearly":3057,"rang":3058,"atives":3059,"Ġtouch":3060,"ĠTech":3061,"ĠCong":3062,"ĠMal":3063,"olic":3064,"ĠFe":3065,"ĠNero":3066,"ĠAfrica":3067,"gl":3068,"ks":3069,"Ġsect":3070,"ecially":3071,"ĠFilm":3072,"ĠIndia":3073,"Ġgoals":3074,"Ġshows":3075,"Ġcomplete":3076,"Ġphys":3077,"Ġlanguage":3078,"Ġaut":3079,"Ġmight":3080,"ĠSquadron":3081,"Ġlower":3082,"Ġscore":3083,"ĠCharles":3084,"Ġintroduced":3085,"Ã³":3086,"onse":3087,"Ġfut":3088,"ĠPet":3089,"uments":3090,"Ġremain":3091,"Ġfeel":3092,"ĠAssoci":3093,"of":3094,"Ġtow":3095,"illery":3096,"Ġrecording":3097,"Ġdepict":3098,"Ġrunning":3099,"Ġcaptured":3100,"den":3101,"Ġ?":3102,"ĠCard":3103,"ĠCamp":3104,"ĠMont":3105,"ĠPeter":3106,"ĠOt":3107,"Ġspent":3108,"Ġleague":3109,"ĠVict":3110,"rics":3111,"Ġ80":3112,"ronic":3113,"Ġminor":3114,"ĠSpanish":3115,"ĠGermany":3116,"Ġeduc":3117,"ĠBrown":3118,"aughter":3119,"Ġprior":3120,"Ġespecially":3121,"iest":3122,"lor":3123,"ĠMany":3124,"idents":3125,"ĠPat":3126,"ests":3127,"Ġsupported":3128,"Ġapproximately":3129,"Ġdestroyed":3130,"Ġlimited":3131,"ĠIrish":3132,"ga":3133,"aring":3134,"ĠSing":3135,"Ġchap":3136,"ĠVar":3137,"Ġintended":3138,"Ġgroups":3139,"Ġissue":3140,"ĠHistory":3141,"ĠWhe":3142,"Ġ1980":3143,"Ġmur":3144,"Ġdivision":3145,"Ġnetwork":3146,"ĠMil":3147,"odies":3148,"Ġdeal":3149,"quare":3150,"Ġimm":3151,"Ġreviews":3152,"Ġdiscovered":3153,"Ġfleet":3154,"ĠMos":3155,"raw":3156,"Ġkil":3157,"rying":3158,"Ġresponse":3159,"Ġreveal":3160,"Ġsat":3161,"Ġdoc":3162,"ĠAwards":3163,"Ġstaff":3164,"Ġincludes":3165,"Ġsometimes":3166,"inct":3167,"reak":3168,"Ġscreen":3169,"Ġoffice":3170,"inent":3171,"Ġfood":3172,"ils":3173,"ĠNort":3174,"ĠStud":3175,"Ġ184":3176,"Ġpositive":3177,"Ġlarger":3178,"Ġruns":3179,"Ġarchae":3180,"ĠCanadian":3181,"Ġchanges":3182,"rief":3183,"Ġcertain":3184,"ises":3185,"Ġinn":3186,"ĠTur":3187,"ĠWestern":3188,"ĠAnother":3189,"orning":3190,"Ġadditional":3191,"Ġmagazine":3192,"Ġagreed":3193,"fect":3194,"Ġri":3195,"Ġmale":3196,"Ġhapp":3197,"ĠCoun":3198,"order":3199,"ĠColle":3200,"Ġmixed":3201,"back":3202,"ha":3203,"uing":3204,"Ġsch":3205,"ĠCour":3206,"ishop":3207,"ples":3208,"Ġscript":3209,"Ġprovide":3210,"ĠOldham":3211,"Ġfighting":3212,"Ġche":3213,"anies":3214,"ĠSoc":3215,"ĠPri":3216,"Ġexam":3217,"quarters":3218,"Ġjourn":3219,"Ġsocial":3220,"Ġsem":3221,"Ġfail":3222,"ication":3223,"Ġdomin":3224,"ads":3225,"ĠJe":3226,"Ġmostly":3227,"ires":3228,"lymp":3229,"Ġfeature":3230,"ĠFrank":3231,"edy":3232,"lex":3233,"ĠBur":3234,"ĠHurricane":3235,"Ġdeep":3236,"hedral":3237,"Ġusually":3238,"Ġpositions":3239,"anna":3240,"Ġforest":3241,"Ġfrequ":3242,"Ġpressure":3243,"ĠOlymp":3244,"Ġuns":3245,"Ġpair":3246,"Ġmention":3247,"change":3248,"Ġcompl":3249,"Ġamount":3250,"ĠIII":3251,"Ġtype":3252,"iser":3253,"Ġbomb":3254,"irt":3255,"igan":3256,"ĠHot":3257,"ĠRad":3258,"ĠLaw":3259,"ĠInter":3260,"oke":3261,"Ġadop":3262,"Ġminutes":3263,"Ġguitar":3264,"fact":3265,"Ġens":3266,"atively":3267,"ĠServ":3268,"stant":3269,"iring":3270,"ĠOver":3271,"ĠUK":3272,"Ġ1999":3273,"Ġcarried":3274,"Ġradio":3275,"osaurus":3276,"Ġbecoming":3277,"Ġfuture":3278,"Ġsil":3279,"umn":3280,"Ġshown":3281,"ĠChina":3282,"Ġunc":3283,"teen":3284,"Ġ70":3285,"Ġsmaller":3286,"Ġdefeat":3287,"Ġsubsequently":3288,"isions":3289,"ĠVer":3290,"ospital":3291,"ĠOlivier":3292,"bers":3293,"Ġword":3294,"ĠTV":3295,"ĠTer":3296,"ĠSince":3297,"Ġconclud":3298,"ills":3299,"Ġcontem":3300,"Ġpresident":3301,"Ġfavor":3302,"Ġlikely":3303,"mon":3304,"mond":3305,"under":3306,"asy":3307,"enty":3308,"ĠJin":3309,"ĠEver":3310,"ĠStar":3311,"Ġadapt":3312,"Ġ1995":3313,"Ġteams":3314,"Ġcounter":3315,"NA":3316,"het":3317,"itte":3318,"ĠMart":3319,"Ġvot":3320,"Ġpercent":3321,"ĠAnt":3322,"oys":3323,"Ġreferred":3324,"ĠJewish":3325,"Ġquickly":3326,"uals":3327,"Ġtons":3328,"Ġwoman":3329,"ady":3330,"aded":3331,"ĠBack":3332,"Ġstay":3333,"ĠRes":3334,"ĠDan":3335,"Ġ32":3336,"Ġund":3337,"Ġquest":3338,"Ġentered":3339,"Ġlocation":3340,"Ġproblems":3341,"ror":3342,"onna":3343,"Ġwound":3344,"oud":3345,"ĠCath":3346,"omm":3347,"ĠBen":3348,"ĠRac":3349,"cean":3350,"ands":3351,"ĠOff":3352,"peror":3353,"ĠGuitar":3354,"ĠVictor":3355,"ios":3356,"Ġinters":3357,"Ġder":3358,"Ġlo":3359,"ĠPenn":3360,"Ġnotes":3361,"Ġtemper":3362,"Ġranked":3363,"Ġfifth":3364,"ĠBillboard":3365,"ĠAssociation":3366,"Ġbirth":3367,"imum":3368,"unt":3369,"Ġ400":3370,"Ġappl":3371,"Ġprofessional":3372,"gen":3373,"gely":3374,"Ġflow":3375,"Ġbrief":3376,"Ġstra":3377,"rael":3378,"Ġrelated":3379,"ĠSecond":3380,"Ġkeep":3381,"Ġsurface":3382,"dle":3383,"Ġdi":3384,"ĠTropical":3385,"imate":3386,"iforn":3387,"Ġsea":3388,"Ġleaving":3389,"Ġunit":3390,"Ġmoving":3391,"Ġindic":3392,"Ġconcern":3393,"ĠForce":3394,"Ġmedia":3395,"well":3396,"Ġself":3397,"usp":3398,"Ġ33":3399,"Ġ90":3400,"Ġamb":3401,"Ġofficers":3402,"ĠManila":3403,"Ġmajority":3404,"Ġconstructed":3405,"ny":3406,"Ġthick":3407,"Ġenv":3408,"Ġconsist":3409,"Ġstudents":3410,"Ġminute":3411,"Ġcomplex":3412,"Ġconcert":3413,"Ġvisit":3414,"Ġidea":3415,"Ġsuffered":3416,"Ġlaunched":3417,"gar":3418,"hy":3419,"rat":3420,"ses":3421,"anced":3422,"andon":3423,"Ġattacked":3424,"Ġrapid":3425,"ĠTour":3426,"ĠSur":3427,"Ġshoot":3428,"ĠItal":3429,"Ġthemsel":3430,"Ġassigned":3431,"Ġ1950":3432,"Ġprimary":3433,"ĠVirgin":3434,"Ġthemselves":3435,"Ġmakes":3436,"Ġalways":3437,"ĠLight":3438,"ĠLatin":3439,"Ġoverall":3440,"Ġlargely":3441,"Ġartillery":3442,"Ġdiscuss":3443,"Ġeffects":3444,"ĠCaliforn":3445,"ners":3446,"Ġult":3447,"era":3448,"ĠHead":3449,"ĠIsrael":3450,"Ġspeed":3451,"Ġsummer":3452,"ĠJer":3453,"Ġlearn":3454,"Ġfilms":3455,"Ġcreate":3456,"ĠCentral":3457,"Ġoccurred":3458,"Ġcele":3459,"ĠCouncil":3460,"Ġcm":3461,"ĠTre":3462,"Ġrein":3463,"ĠSam":3464,"Ġlink":3465,"ĠMr":3466,"ĠHow":3467,"Ġran":3468,"Ġcontains":3469,"Ġ1998":3470,"Ġcann":3471,"Ġconsider":3472,"arent":3473,"Ġlyrics":3474,"Ġcer":3475,"alled":3476,"Ġattract":3477,"Ġproduct":3478,"Ġlonger":3479,"Ġcritical":3480,"Ġattacks":3481,"hou":3482,"vens":3483,"Ġcred":3484,"Ġdark":3485,"Ġemer":3486,"aches":3487,"thing":3488,"ulpt":3489,"ĠWood":3490,"ĠJose":3491,"Ġ300":3492,"ĠArch":3493,"Ġtraffic":3494,"ĠBrad":3495,"Ġinvestig":3496,"ĠWheeler":3497,"Ġfans":3498,"ĠUp":3499,"ĠStorm":3500,"Ġimage":3501,"Ġmeth":3502,"Ġslight":3503,"Ġbroadcast":3504,"rown":3505,"Ġlived":3506,"ĠMajor":3507,"Ġdeg":3508,"lands":3509,"Ġmovement":3510,"Ġmusical":3511,"Ġ1940":3512,"Ġappears":3513,"Ġcontroll":3514,"Ġincrease":3515,"Ġstatus":3516,"ĠCroat":3517,"Ġkilomet":3518,"Ġschol":3519,"Ġlab":3520,"ĠDem":3521,"Ġabandon":3522,"Ġjob":3523,"Ġ2016":3524,"Ġprem":3525,"Ġcommission":3526,"undred":3527,"Ġconflict":3528,"Ġexperience":3529,"Ġproposed":3530,"Ġcasual":3531,"Ġasked":3532,"ĠCalifornia":3533,"RA":3534,"Ġpurch":3535,"Ġdoll":3536,"Ġscenes":3537,"Ġsculpt":3538,"Ġaccess":3539,"Ġmoney":3540,"itting":3541,"lin":3542,"Ġtar":3543,"ani":3544,"imb":3545,"ĠHaw":3546,"Ġvoice":3547,"Ġjud":3548,"ĠSever":3549,"Ġforms":3550,"Ġelection":3551,"Ġgrant":3552,"Ġlisted":3553,"ex":3554,"zy":3555,"inated":3556,"Ġbow":3557,"ĠFore":3558,"riage":3559,"arts":3560,"Ġbelow":3561,"Ġcommander":3562,"Ġrequest":3563,"incip":3564,"Ġinfluence":3565,"Ġobserv":3566,"Ġremoved":3567,"mas":3568,"ĠCamb":3569,"ĠRoss":3570,"cend":3571,"eway":3572,"ously":3573,"Ġparty":3574,"Ġcentre":3575,"ĠCommission":3576,"Ġbring":3577,"Ġ1930":3578,"ĠStevens":3579,"Ġassociated":3580,"ken":3581,"erve":3582,"ergy":3583,"eding":3584,"Ġcle":3585,"Ġdram":3586,"Ġreach":3587,"ĠSov":3588,"Ġnature":3589,"ĠRA":3590,"ĠDist":3591,"Ġconcept":3592,"Ġending":3593,"Ġmeant":3594,"Ġnumbers":3595,"Ġacqu":3596,"Ġdaughter":3597,"ĠRob":3598,"ander":3599,"Ġplanned":3600,"Ġserious":3601,"Ġcyclone":3602,"ĠNorthern":3603,"Ġbound":3604,"Ġmom":3605,"Ġded":3606,"ĠFI":3607,"ulu":3608,"Ġleave":3609,"ruit":3610,"Ġdism":3611,"Ġearth":3612,"Ġterms":3613,"ĠEarth":3614,"ĠMichigan":3615,"Ġchanged":3616,"ĠAfrican":3617,"Ġprivate":3618,"ĠRachel":3619,"awn":3620,"ging":3621,"Ġthus":3622,"Ġlif":3623,"ĠBu":3624,"ĠLake":3625,"umed":3626,"Ġunderst":3627,"ĠAtt":3628,"Ġsusp":3629,"Ġbad":3630,"Ġmorning":3631,"ĠArab":3632,"Ġstone":3633,"ĠLou":3634,"Ġplat":3635,"Ġplot":3636,"Ġupper":3637,"ylv":3638,"Ġperformances":3639,"Ġpersonal":3640,"Ġawarded":3641,"Ġbirds":3642,"ĠCourt":3643,"II":3644,"lo":3645,"itation":3646,"itect":3647,"ĠSal":3648,"Ġgot":3649,"Ġplans":3650,"Ġunable":3651,"Ġwhether":3652,"Ġtrade":3653,"Ġrare":3654,"Ġbuildings":3655,"ĠTex":3656,"Ġdouble":3657,"atre":3658,"Ġlay":3659,"ĠBC":3660,"ĠIf":3661,"ĠRose":3662,"Ġconver":3663,"ria":3664,"ify":3665,"Ġchall":3666,"Ġflight":3667,"Ġoperation":3668,"Ġfinally":3669,"Ġculture":3670,"Ġresearch":3671,"tr":3672,"Ġtell":3673,"Ġnatural":3674,"irl":3675,"ĠDo":3676,"ĠDel":3677,"aven":3678,"iano":3679,"ellig":3680,"Ġweap":3681,"hips":3682,"Ġrecords":3683,"Ġinfantry":3684,"ĠCenter":3685,"Ġfocus":3686,"Ġconducted":3687,"ittee":3688,"ĠHu":3689,"Ġasp":3690,"ĠJim":3691,"ortun":3692,"Ġcompared":3693,"ĠThree":3694,"Ġsched":3695,"ails":3696,"Ġcollect":3697,"ĠClub":3698,"Ġissued":3699,"Ġcompetition":3700,"Ġcommented":3701,"Ġstrength":3702,"Ġmeaning":3703,"Ġtakes":3704,"Ġfell":3705,"ĠSen":3706,"Ġliving":3707,"ĠNic":3708,"ĠJane":3709,"ective":3710,"Ġyet":3711,"ĠChic":3712,"ĠIts":3713,"aily":3714,"aught":3715,"Ġaccomp":3716,"iant":3717,"Ġdig":3718,"ĠThrough":3719,"Ġtheme":3720,"Ġcovered":3721,"Ġmethod":3722,"iqu":3723,"ĠTay":3724,"Ġcoach":3725,"Ġpresence":3726,"venue":3727,"Ġpolic":3728,"Ġprevent":3729,"Ġlog":3730,"ĠBow":3731,"ĠForm":3732,"ifa":3733,"Ġ37":3734,"Ġ42":3735,"Ġnewsp":3736,"Ġraised":3737,"Ġepisodes":3738,"Ġadvance":3739,"Ġbattles":3740,"Ġattempted":3741,"Ġfigure":3742,"Ġindustry":3743,"bury":3744,"sen":3745,"Ġtalk":3746,"ening":3747,"Ġbatter":3748,"ĠTrans":3749,"ili":3750,"usband":3751,"Ġhealth":3752,"Ġoffered":3753,"ologist":3754,"ĠMuseum":3755,"Ġnortheast":3756,"Ġresponsible":3757,"car":3758,"enon":3759,"Ġdone":3760,"ĠTw":3761,"ado":3762,"ĠBob":3763,"istics":3764,"rial":3765,"ĠEmp":3766,"Ġcompanies":3767,"Ġwhole":3768,"Ġearned":3769,"Ġ1993":3770,"ĠEnter":3771,"Ġmarked":3772,"Ġexperi":3773,"ĠPortug":3774,"Ġimmediately":3775,"ĠCollege":3776,"oir":3777,"tain":3778,"Ġour":3779,"Ġbig":3780,"Ġtourn":3781,"Ġgiving":3782,"ĠHo":3783,"ĠGo":3784,"Ġvia":3785,"ocr":3786,"Ġweaken":3787,"Ġmatches":3788,"ĠParliament":3789,"Ġschools":3790,"Ġera":3791,"ĠPhilipp":3792,"emorial":3793,"Ġmurder":3794,"ĠTexas":3795,"ras":3796,"itude":3797,"Ġpark":3798,"ĠBoth":3799,"Ġstories":3800,"ĠJust":3801,"Ġselected":3802,"Ġ39":3803,"Ġprep":3804,"Ġdirectly":3805,"ipped":3806,"Ġhelped":3807,"Ġ+":3808,"Ġsal":3809,"alys":3810,"Ġpurs":3811,"Ġ47":3812,"Ġ1996":3813,"Ġstarting":3814,"Ġphot":3815,"ĠHaifa":3816,"Ġbegins":3817,"ĠCorps":3818,"ĠChicago":3819,"bar":3820,"Ġhundred":3821,"ĠSar":3822,"Ġcomposed":3823,"Ġ1997":3824,"embly":3825,"onym":3826,"Ġmarried":3827,"Ġindividual":3828,"ĠAcad":3829,"Ġmachine":3830,"ĠTaylor":3831,"kan":3832,"vement":3833,"Ġpay":3834,"ĠCross":3835,"ĠBey":3836,"etic":3837,"olk":3838,"ows":3839,"ĠNor":3840,"Ġuses":3841,"Ġnearby":3842,"ĠAdm":3843,"Ġtraditional":3844,"ĠDepartment":3845,"Ġgreater":3846,"ĠCatholic":3847,"ĠSeveral":3848,"CA":3849,"Ġcause":3850,"Ġhop":3851,"Ġrear":3852,"Ġreally":3853,"ada":3854,"etr":3855,"ĠFoot":3856,"rain":3857,"Ġkind":3858,"ports":3859,"ĠSea":3860,"Ġbattalion":3861,"ĠChristmas":3862,"Ġwaters":3863,"Ġbox":3864,"Ġreject":3865,"Ġnecess":3866,"ĠBig":3867,"Ġclosed":3868,"Ġevac":3869,"Ġcontinue":3870,"Ã¡n":3871,"ĠOperation":3872,"Ġox":3873,"isl":3874,"Ġhour":3875,"Ġhighly":3876,"Ġannual":3877,"Ġmarket":3878,"MS":3879,"can":3880,"isation":3881,"Ġmor":3882,"ĠSol":3883,"Ġthrow":3884,"Ġnorm":3885,"berg":3886,"Ġrecover":3887,"Ġshell":3888,"rowd":3889,"Ġleaders":3890,"ype":3891,"Ġinside":3892,"Ġfinanc":3893,"Ġinitial":3894,"ĠSeries":3895,"stitute":3896,"Ġcasualties":3897,"ev":3898,"Ġtax":3899,"hew":3900,"ĠCer":3901,"Ġgraph":3902,"iva":3903,"agon":3904,"ĠOut":3905,"ondyl":3906,"ibly":3907,"Ġassault":3908,"ĠScot":3909,"Ġartist":3910,"Ġimpact":3911,"Ġresulted":3912,"orpor":3913,"Ġgreatest":3914,"Ġnucle":3915,"ĠGalvest":3916,"ĠGalveston":3917,"onc":3918,"ican":3919,"ĠTurn":3920,"ether":3921,"Ġ1991":3922,"Ġ150":3923,"Ġcourse":3924,"Ġsituation":3925,"ĠService":3926,"ĠItalian":3927,"ien":3928,"edo":3929,"Ġdom":3930,"Ġdyn":3931,"ĠIll":3932,"olf":3933,"ĠLos":3934,"aped":3935,"Ġdefend":3936,"Ġspecific":3937,"Ġmetal":3938,"Ġdrum":3939,"Ġmiddle":3940,"ĠGeorg":3941,"ares":3942,"like":3943,"Ġess":3944,"Ġsout":3945,"Ġpil":3946,"Ġhot":3947,"ĠSaint":3948,"uries":3949,"Ġdeploy":3950,"Ġsecret":3951,"Ġcontrovers":3952,"Ġbooks":3953,"Ġattempts":3954,"ospondyl":3955,"Ġgods":3956,"Ġfigures":3957,"Ġinspired":3958,"Ġinformation":3959,"Ġtouchdown":3960,"Ã³n":3961,"TV":3962,"pool":3963,"Ġsides":3964,"atops":3965,"isk":3966,"icle":3967,"ĠTenn":3968,"ĠSix":3969,"Ġthings":3970,"ĠHum":3971,"Ġsev":3972,"anta":3973,"Ġactive":3974,"Ġheadquarters":3975,"Ġextended":3976,"Ġservices":3977,"Ġallowing":3978,"Ġtracks":3979,"Ġboats":3980,"ĠCharl":3981,"Ġstandard":3982,"Ġsomething":3983,"lers":3984,"Ġx":3985,"Ġfeder":3986,"Ġpick":3987,"ĠAI":3988,"ĠAre":3989,"Ġnaval":3990,"ctor":3991,"ĠJam":3992,"Ġadvant":3993,"Ġpowerful":3994,"Ġaudience":3995,"ĠParty":3996,"light":3997,"rey":3998,"Ġpath":3999,"adium":4000,"ims":4001,"Ġstating":4002,"ĠLong":4003,"Ġsearch":4004,"ĠVilla":4005,"rane":4006,"Ġenj":4007,"Ġ65":4008,"Ġ1994":4009,"Ġnumerous":4010,"Ġvers":4011,"Ġrefused":4012,"Ġapproach":4013,"ĠJackson":4014,"Ġneeded":4015,"Ġvocals":4016,"Ġstruck":4017,"ĠCarolina":4018,"uit":4019,"Ġast":4020,"Ġwalk":4021,"itch":4022,"Ġmax":4023,"ĠLady":4024,"agan":4025,"aging":4026,"Ġheads":4027,"Ġlands":4028,"Ġconfir":4029,"Ġheavily":4030,"ĠSoviet":4031,"een":4032,"rid":4033,"vin":4034,"ĠCrit":4035,"ĠMill":4036,"ĠBec":4037,"Ġrate":4038,"Ġrule":4039,"Ġroom":4040,"Ġ180":4041,"izing":4042,"ĠAlice":4043,"Ġblood":4044,"Ġintensity":4045,"Ġmultip":4046,"ĠOtt":4047,"Ġcontemporary":4048,"ĠEmpire":4049,"Ġbodies":4050,"roll":4051,"ĠTheir":4052,"ĠLive":4053,"ĠGroup":4054,"ĠEr":4055,"Ġ51":4056,"Ġvariety":4057,"Ġcombat":4058,"Ġgenus":4059,"Ġconditions":4060,"Ġmeeting":4061,"Ġseparate":4062,"ĠSmith":4063,"Ġpurp":4064,"ĠJoseph":4065,"Ġtask":4066,"eds":4067,"ĠAlex":4068,"ams":4069,"Ġpeace":4070,"Ġtransl":4071,"ĠConf":4072,"ĠSpec":4073,"chester":4074,"house":4075,"Ġcrowd":4076,"Ġhusband":4077,"iles":4078,"ĠFin":4079,"ĠNix":4080,"Ġplant":4081,"ecting":4082,"Ġ76":4083,"ĠPolish":4084,"Ġhigher":4085,"ĠHighway":4086,"Ġdeclared":4087,"Ġpeaked":4088,"Ġsource":4089,"Ġhouses":4090,"Ġeducation":4091,"Ġslightly":4092,"ylvania":4093,"ees":4094,"ĠMey":4095,"ĠMidd":4096,"ols":4097,"ushed":4098,"ĠFour":4099,"ĠLo":4100,"perial":4101,"Ġproducer":4102,"Ġpresented":4103,"Ġhands":4104,"Ġreduced":4105,"Ġrespectively":4106,"uated":4107,"yph":4108,"Ġple":4109,"icip":4110,"ĠCivil":4111,"omer":4112,"Ġnative":4113,"ĠPost":4114,"ĠDj":4115,"ĠNations":4116,"ĠLiver":4117,"odon":4118,"ĠKn":4119,"Ġresidents":4120,"Ġ44":4121,"ribution":4122,"Ġsecurity":4123,"Ġ1992":4124,"Ġstudies":4125,"Ġextre":4126,"Ġofficer":4127,"Ġsixth":4128,"Ġcollection":4129,"ĠPenns":4130,"Ġcelebr":4131,"ka":4132,"iny":4133,"anas":4134,"Ġthr":4135,"Ġhero":4136,"ĠLittle":4137,"ĠCont":4138,"Ġconstit":4139,"Ġfriends":4140,"arrow":4141,"rol":4142,"ĠSir":4143,"ĠCast":4144,"ĠCapt":4145,"ĠBurn":4146,"ĠFinal":4147,"ĠWash":4148,"Ġchampionship":4149,"Ġspace":4150,"rance":4151,"irection":4152,"ension":4153,"ĠYoung":4154,"Ġprec":4155,"Ġprincip":4156,"Ġnorthwest":4157,"arents":4158,"Ġcompletely":4159,"Ġwounded":4160,"bon":4161,"Åį":4162,"Ġsaf":4163,"ĠTime":4164,"Ġgrand":4165,"iral":4166,"Ġbeat":4167,"estival":4168,"pted":4169,"ĠAlkan":4170,"Ġtext":4171,"athan":4172,"Ġmeans":4173,"Ġwriters":4174,"ĠRev":4175,"ĠCommon":4176,"ĠChris":4177,"Ġbridge":4178,"Ġcombined":4179,"Ġactivity":4180,"ĠSomers":4181,"Ġeye":4182,"Ġintern":4183,"ĠFam":4184,"ĠLand":4185,"oses":4186,"andid":4187,"illed":4188,"Ġ34":4189,"Ġdisplay":4190,"Ġsinger":4191,"Ġcontinues":4192,"Ġrespond":4193,"Ġdistance":4194,"Ġcountries":4195,"ĠDef":4196,"Ġmarriage":4197,"Ġarchitect":4198,"Ġadminist":4199,"Ġcopies":4200,"Ġcontrast":4201,"ĠLiverpool":4202,"ket":4203,"Ġir":4204,"alist":4205,"oura":4206,"ĠBet":4207,"tered":4208,"ĠGames":4209,"ift":4210,"ogue":4211,"Ġ48":4212,"Ġdisapp":4213,"Ġsymb":4214,"Ġexpected":4215,"ĠParis":4216,"orpedo":4217,"ĠSomal":4218,"Ġveh":4219,"ĠVirginia":4220,"Ġreinfor":4221,"ĠFootball":4222,"ĠNixon":4223,"ĠWashington":4224,"Ġcam":4225,"Ġborder":4226,"Ġdraft":4227,"stone":4228,"emic":4229,"Ġsust":4230,"Ġdispl":4231,"Ġinteract":4232,"Ġinches":4233,"ĠIndepend":4234,"Ġissues":4235,"Ġlevels":4236,"Ġwidely":4237,"ĠHistor":4238,"Ġtransferred":4239,"ĠBusch":4240,"Ġconcluded":4241,"track":4242,"ĠSomerset":4243,"ware":4244,"inth":4245,"Ġpow":4246,"ĠSouthern":4247,"ĠCor":4248,"ĠCons":4249,"ĠBre":4250,"ĠBook":4251,"ĠWater":4252,"ĠJul":4253,"Ġang":4254,"Ġrelief":4255,"Ġactually":4256,"ĠAustralians":4257,"Ġcathedral":4258,"Ġactivities":4259,"Ġstrike":4260,"Ġterritory":4261,"ĠPennsylvania":4262,"iated":4263,"Ġbene":4264,"ems":4265,"ĠFow":4266,"ĠLock":4267,"umber":4268,"ĠSpain":4269,"Ġefforts":4270,"Ġboard":4271,"while":4272,"ĠQueen":4273,"ĠMosley":4274,"Ġenjoy":4275,"lam":4276,"Ã¼":4277,"Ġtoward":4278,"iled":4279,"ĠCat":4280,"ĠDes":4281,"ulations":4282,"ĠGreen":4283,"ĠJos":4284,"ĠEs":4285,"asty":4286,"Ġactions":4287,"Ġsuppl":4288,"annel":4289,"Ġdescribes":4290,"ĠColon":4291,"Ġeffort":4292,"Ġelev":4293,"ĠFranc":4294,"Ġsexual":4295,"Ġwithdraw":4296,"Ġancient":4297,"ĠLouis":4298,"bour":4299,"ij":4300,"ufact":4301,"Ġrough":4302,"Ġtorpedo":4303,"inus":4304,"onic":4305,"isher":4306,"anz":4307,"anes":4308,"Ġinh":4309,"Ġpun":4310,"Ġreign":4311,"ĠDam":4312,"ĠNaz":4313,"ĠLi":4314,"ĠLike":4315,"anded":4316,"bery":4317,"Ġexhib":4318,"Ġadult":4319,"ibr":4320,"Ġmanaged":4321,"Ġoffensive":4322,"Ġattention":4323,"ocks":4324,"Ġqual":4325,"Ġbackground":4326,"Ġ1942":4327,"Ġironcl":4328,"Ġrainfall":4329,"Ġrevealed":4330,"mark":4331,"Ġtur":4332,"Ġtoday":4333,"Ġmission":4334,"oured":4335,"irit":4336,"utch":4337,"ĠDer":4338,"ersh":4339,"ĠInn":4340,"Ġ49":4341,"Ġ52":4342,"Ġ182":4343,"ĠArm":4344,"Ġdefense":4345,"Ġblue":4346,"iami":4347,"Ġdistinct":4348,"Ġcounty":4349,"Ġresulting":4350,"Ġrights":4351,"Ġprimarily":4352,"Ġbecomes":4353,"Ġaccepted":4354,"Ġsequence":4355,"ĠVietnam":4356,"hood":4357,"tation":4358,"yr":4359,"Ġsays":4360,"Ġmel":4361,"Ġhabit":4362,"ĠTri":4363,"idian":4364,"imony":4365,"Ġmainly":4366,"Ġalongside":4367,"Ġdesignated":4368,"Ġopportun":4369,"Ġmountain":4370,"ĠGovernment":4371,"ĠBecause":4372,"Ġsquadron":4373,"Ġsquare":4374,"Ġfaced":4375,"ĠBon":4376,"usion":4377,"Ġkick":4378,"Ġrecent":4379,"Ġ181":4380,"Ġdise":4381,"ampion":4382,"ĠClass":4383,"Ġconcent":4384,"Ġdemonst":4385,"Ġpattern":4386,"Ġtrees":4387,"ĠKorean":4388,"ĠFowler":4389,"cy":4390,"Ġwear":4391,"Ġpound":4392,"room":4393,"ĠMiami":4394,"ĠFer":4395,"ĠWW":4396,"Ġprint":4397,"ledge":4398,"Ġfeaturing":4399,"Ġappearances":4400,"ĠAdd":4401,"Ġprogress":4402,"ĠMinnes":4403,"ĠAngeles":4404,"Ġquestion":4405,"ĠMinnesota":4406,"kin":4407,"enant":4408,"ingu":4409,"Ġpiano":4410,"Ġonto":4411,"ĠBol":4412,"use":4413,"ĠPen":4414,"Ġability":4415,"Ġroles":4416,"Ġjump":4417,"Ġ64":4418,"echan":4419,"Ġtrue":4420,"hold":4421,"itness":4422,"Ġcorn":4423,"Ġpaper":4424,"ĠTod":4425,"ela":4426,"acher":4427,"ĠKent":4428,"apo":4429,"Ġcompos":4430,"Ġ46":4431,"Ġplays":4432,"Ġdepart":4433,"Ġorganization":4434,"Ġcondoms":4435,"Ġfederal":4436,"bed":4437,"cle":4438,"Ġsense":4439,"ena":4440,"Ġbott":4441,"Ġparents":4442,"adm":4443,"Ġaltern":4444,"ĠOf":4445,"Ġcoming":4446,"Ġvess":4447,"Ġyoun":4448,"Ġresc":4449,"Ġroy":4450,"Ġ55":4451,"Ġrecomm":4452,"Ġscoring":4453,"Ġseasons":4454,"Ġquality":4455,"Ġcalling":4456,"Ġshowed":4457,"ĠManchester":4458,"Ġportion":4459,"shire":4460,"Ġobserved":4461,"ceeded":4462,"Ġpractice":4463,"ĠAcademy":4464,"ĠScotland":4465,"BA":4466,"ãĥ":4467,"Ġhol":4468,"Ġlot":4469,"ĠBint":4470,"Ġrhy":4471,"ĠAnn":4472,"Ġrelatively":4473,"airs":4474,"Ġinstit":4475,"ĠMean":4476,"Ġelected":4477,"ironment":4478,"Ġhistorical":4479,"yphoon":4480,"ĠBintulu":4481,"mun":4482,"Ġwords":4483,"Ġlosing":4484,"ĠRam":4485,"essa":4486,"Ġuniversity":4487,"Ġremark":4488,"ologists":4489,"ĠNews":4490,"Ġinvasion":4491,"Ġreception":4492,"Ġbrown":4493,"ervation":4494,"Ġowned":4495,"Ġ1920":4496,"Ġencoun":4497,"Ġstrugg":4498,"Ġultimately":4499,"cript":4500,"kn":4501,"ĠMog":4502,"ĠField":4503,"estic":4504,"Ġrang":4505,"Ġsuc":4506,"Ġarmed":4507,"Ġscale":4508,"Ġapparent":4509,"Ġ1941":4510,"Ġedge":4511,"ĠRussian":4512,"ĠSociety":4513,"ĠMeyer":4514,"ĠCaptain":4515,"gal":4516,"pole":4517,"Ġathlet":4518,"Ġfast":4519,"icles":4520,"ĠCap":4521,"Ġnation":4522,"ĠMat":4523,"ĠMass":4524,"ĠMatt":4525,"Ġheart":4526,"osen":4527,"ĠGar":4528,"udd":4529,"essions":4530,"Ġenemy":4531,"Ġdefence":4532,"Ġlegal":4533,"Ġtwenty":4534,"Ġinfluenced":4535,"ĠMeridian":4536,"Ġexcav":4537,"elligence":4538,"ĠBeyonc":4539,"ĠBeyoncÃ©":4540,"che":4541,"Ġfully":4542,"ications":4543,"Ġmile":4544,"ĠTik":4545,"Ġthous":4546,"ĠChe":4547,"Ġnarr":4548,"ĠDou":4549,"ĠUl":4550,"Ġspl":4551,"ĠThough":4552,"Ġagg":4553,"Ġoffer":4554,"Ġprepar":4555,"Ġexpressed":4556,"Ġinstr":4557,"ĠColumb":4558,"ĠAnderson":4559,"Ġtypically":4560,"ricket":4561,"Ġproteins":4562,"Ġsurrounding":4563,"Ġcannot":4564,"ĠHawai":4565,"town":4566,"onents":4567,"Ġchem":4568,"Ġmem":4569,"Ġmole":4570,"ĠSum":4571,"Ġnarrow":4572,"utions":4573,"Ġstep":4574,"ĠPit":4575,"oper":4576,"pping":4577,"Ġspread":4578,"Ġproduce":4579,"Ġprison":4580,"Ġsets":4581,"Ġemph":4582,"Ġportray":4583,"ĠChurchill":4584,"Ġrepresented":4585,"Ġmagn":4586,"Ġhomes":4587,"Ġdissip":4588,"uzz":4589,"Ġadopted":4590,"alysis":4591,"eption":4592,"the":4593,"Ġwing":4594,"ala":4595,"asc":4596,"road":4597,"acement":4598,"ĠPop":4599,"ĠFar":4600,"ĠWels":4601,"Ġcontact":4602,"orship":4603,"Ġemot":4604,"Ġ1986":4605,"Ġorganized":4606,"Ġlegisl":4607,"ĠRichmond":4608,"Ġreaction":4609,"ĠTemple":4610,"Ġadvantage":4611,"Ġmaximum":4612,"burg":4613,"gs":4614,"mes":4615,"ona":4616,"Ġsen":4617,"Ġinch":4618,"Ġdu":4619,"ĠHal":4620,"ends":4621,"Ġwebs":4622,"Ġneigh":4623,"ugby":4624,"Ġfloor":4625,"Ġartists":4626,"Ġextra":4627,"Ġbroken":4628,"Ġtried":4629,"ĠPrince":4630,"Ġofficials":4631,"Ġnuclear":4632,"admium":4633,"ĠWelsh":4634,"rical":4635,"Ġaid":4636,"Ġpal":4637,"ĠSil":4638,"ĠDirect":4639,"ĠGall":4640,"ĠOx":4641,"ĠOcean":4642,"Ġvo":4643,"astic":4644,"Ġmanufact":4645,"Ġthemes":4646,"ĠCommun":4647,"Ġedition":4648,"Ġreports":4649,"ĠAndrew":4650,"Ġpersonnel":4651,"Ġtypes":4652,"ĠWeek":4653,"Ġearliest":4654,"Ġpaint":4655,"mitted":4656,"ply":4657,"rong":4658,"enge":4659,"Ġmis":4660,"ĠHome":4661,"ĠRo":4662,"ĠKa":4663,"ĠThunder":4664,"ĠMarine":4665,"ĠBlue":4666,"Ġcapture":4667,"ĠOrig":4668,"Ġdivided":4669,"Ġsources":4670,"Ġhyd":4671,"ĠOpen":4672,"Ġtower":4673,"Ġabandoned":4674,"ĠDistrict":4675,"Ġfinancial":4676,"aen":4677,"lim":4678,"pre":4679,"rate":4680,"ux":4681,"writ":4682,"Ġsister":4683,"Ġwa":4684,"Ġmouth":4685,"Ġhorse":4686,"ĠAv":4687,"etts":4688,"Ġalone":4689,"issipp":4690,"Ġacting":4691,"Ġ1988":4692,"Ġmodel":4693,"ĠProt":4694,"Ġtitled":4695,"ĠMississipp":4696,"Ġsoundtrack":4697,"Ġachieved":4698,"ĠIllino":4699,"ĠTikal":4700,"Ġemphas":4701,"nospondyl":4702,"Ġsn":4703,"Ġdirection":4704,"ĠBoy":4705,"ĠBalt":4706,"Ġstopp":4707,"unction":4708,"ĠLie":4709,"izes":4710,"Ġactor":4711,"Ġspecim":4712,"Ġrepe":4713,"Ġprominent":4714,"Ġshortly":4715,"Ġviewers":4716,"ĠEdward":4717,"Ġaffected":4718,"ĠSecret":4719,"ĠTurk":4720,"ĠMiddle":4721,"Ġroyal":4722,"ĠMogad":4723,"wen":4724,"Ġthir":4725,"ĠFred":4726,"ĠFleet":4727,"acks":4728,"send":4729,"Ġdefensive":4730,"Ġmovie":4731,"Ġwrite":4732,"Ġfounded":4733,"Ġbasis":4734,"ĠRecords":4735,"ĠRhodes":4736,"Ġnewspaper":4737,"ĠMississippi":4738,"Ġcities":4739,"Ġcandid":4740,"alions":4741,"Ġmind":4742,"ĠAvenue":4743,"ura":4744,"ĠBall":4745,"Ġgirl":4746,"ĠNes":4747,"ĠKir":4748,"ograp":4749,"Ġ41":4750,"Ġattended":4751,"Ġweak":4752,"ĠArg":4753,"ĠReview":4754,"Ġdoing":4755,"ĠJohnson":4756,"Ġoperated":4757,"Ġstructures":4758,"ĠBraat":4759,"Ġflooding":4760,"Ġmentioned":4761,"Ġsac":4762,"Ġfruit":4763,"Ġpaid":4764,"Ġhospital":4765,"ette":4766,"ĠGib":4767,"ipment":4768,"claim":4769,"Ġofficially":4770,"Ġcouple":4771,"Ġpotential":4772,"Ġdedicated":4773,"Ġtournament":4774,"Ġxenon":4775,"known":4776,"bit":4777,"hu":4778,"uous":4779,"wide":4780,"orus":4781,"Ġmechan":4782,"irm":4783,"ĠWild":4784,"Ġcomedy":4785,"Ġplaces":4786,"Ġshape":4787,"ector":4788,"Ġyour":4789,"eller":4790,"Ġ43":4791,"anger":4792,"ĠEngine":4793,"prise":4794,"Ġauthorities":4795,"Ġcultural":4796,"ĠTurner":4797,"FA":4798,"bird":4799,"iro":4800,"ãģ":4801,"ora":4802,"Ġlives":4803,"ĠBh":4804,"ĠHMS":4805,"Ġproved":4806,"akapo":4807,"Ġarrest":4808,"Ġcompound":4809,"Ġperman":4810,"Ġscient":4811,"Ġconsisted":4812,"Ġbroke":4813,"inkel":4814,"Ġpassing":4815,"Ġtitles":4816,"Ġtrial":4817,"Ġbasket":4818,"ĠNicole":4819,"ĠMogadish":4820,"inem":4821,"Ġsens":4822,"edd":4823,"Ġmess":4824,"Ġlb":4825,"ĠMore":4826,"ĠBost":4827,"Ġrat":4828,"ĠInt":4829,"Ġroll":4830,"Ġ56":4831,"Ġappeal":4832,"athus":4833,"orney":4834,"Ġenter":4835,"fully":4836,"Ġ179":4837,"Ġoccasion":4838,"Ġcausing":4839,"Ġsociety":4840,"ĠTownsend":4841,"Ġpiece":4842,"ĠRosebery":4843,"ĠMeyerbe":4844,"VD":4845,"right":4846,"inary":4847,"rect":4848,"Ġsales":4849,"Ġoil":4850,"alle":4851,"Ġhun":4852,"lection":4853,"ĠCra":4854,"ĠBond":4855,"Ġgrew":4856,"ĠFurther":4857,"ĠWay":4858,"ĠLar":4859,"istry":4860,"ricult":4861,"Ġ93":4862,"Ġcolumn":4863,"ĠAmericans":4864,"Ġlanding":4865,"ĠClark":4866,"Ġolder":4867,"Äģd":4868,"Ġindividuals":4869,"Ġillust":4870,"ĠWalpole":4871,"Ġdetermined":4872,"Ġstraight":4873,"Ġweapons":4874,"ĠMogadishu":4875,"ĠMeyerbeer":4876,"Ġut":4877,"Ġtry":4878,"Ġcore":4879,"Ġpan":4880,"Ġdut":4881,"ĠMort":4882,"ĠRaj":4883,"ĠFinkel":4884,"resh":4885,"iana":4886,"Ġunivers":4887,"Ġimages":4888,"ĠYue":4889,"Ġincorpor":4890,"Ġseconds":4891,"aha":4892,"Ġletter":4893,"ĠApple":4894,"ĠFinkelstein":4895,"sy":4896,"inn":4897,"isters":4898,"Ġbank":4899,"ĠTessa":4900,"ĠMax":4901,"ĠHy":4902,"Ġsport":4903,"Ġunknown":4904,"Ġcontain":4905,"Ġadj":4906,"duction":4907,"Ġ97":4908,"Ġconsecutive":4909,"Ġformation":4910,"Ġmonument":4911,"ĠShort":4912,"ĠShiva":4913,"Ġ1985":4914,"Ġ1944":4915,"ancy":4916,"Ġpossibly":4917,"Ġorders":4918,"Ġprojects":4919,"Ġsites":4920,"Ġdoub":4921,"Ġphysical":4922,"Ġkilometres":4923,"Ġschedul":4924,"ĠOttoman":4925,"iti":4926,"Ġfired":4927,"Ġfiction":4928,"Ġhair":4929,"ĠSo":4930,"ĠMD":4931,"ĠHorn":4932,"Ġstop":4933,"Ġ53":4934,"Ġimag":4935,"Ġfollows":4936,"Ġleader":4937,"Ġsuggests":4938,"Ġcriticized":4939,"Ġrapidly":4940,"Ġcerem":4941,"gn":4942,"uff":4943,"Ġfrag":4944,"omy":4945,"ĠHorse":4946,"ĠDVD":4947,"ĠWat":4948,"abama":4949,"ĠAlabama":4950,"Ġworkers":4951,"Ġpoly":4952,"Ġflank":4953,"Ġ120":4954,"Ġclaims":4955,"Ġforeign":4956,"Ġkept":4957,"Ġidentified":4958,"Ġhonor":4959,"ĠPortugues":4960,"ĠMeanwhile":4961,"ĠIllinois":4962,"aith":4963,"uan":4964,"win":4965,"orter":4966,"Ġlaid":4967,"Ġgained":4968,"ĠDue":4969,"unte":4970,"ĠWrit":4971,"aine":4972,"ĠEastern":4973,"ĠOm":4974,"Ġseek":4975,"Ġchief":4976,"Ġrow":4977,"Ġsupply":4978,"Ġkilling":4979,"Ġrequire":4980,"Ġequipment":4981,"Ġmanagement":4982,"Ġprotein":4983,"ĠPhilippines":4984,"ĠBraathens":4985,"ĠPortuguese":4986,"uct":4987,"ãĤ":4988,"Ġahead":4989,"Ġwild":4990,"ĠTru":4991,"ĠBul":4992,"ĠBBC":4993,"antly":4994,"gend":4995,"Ġattend":4996,"Ġacad":4997,"Ġentrance":4998,"Ġ1964":4999,"Ġtemple":5000,"Ġbehav":5001,"fficient":5002,"ĠBackground":5003,"Ġdisease":5004,"bitt":5005,"Ġtim":5006,"Ġsought":5007,"ĠTim":5008,"Ġreaching":5009,"Ġhere":5010,"ĠRet":5011,"ĠGood":5012,"ighth":5013,"ĠStone":5014,"Ġyellow":5015,"Ġadvert":5016,"Ġenergy":5017,"ĠLeg":5018,"ĠBridge":5019,"ĠAssembly":5020,"Ġwalls":5021,"Ġsustained":5022,"born":5023,"more":5024,"Ġsand":5025,"Ġwor":5026,"Ġfought":5027,"ishes":5028,"Ġhors":5029,"ĠTint":5030,"adel":5031,"ĠDen":5032,"ĠFey":5033,"ĠGre":5034,"Ġspirit":5035,"ella":5036,"Ġ54":5037,"Ġ57":5038,"Ġ62":5039,"Ġweight":5040,"Ġnewly":5041,"Ġcharge":5042,"Ġlandfall":5043,"Ġgrass":5044,"Ġdebuted":5045,"arrison":5046,"ushing":5047,"Ġpieces":5048,"Ġenvironment":5049,"Ġtarget":5050,"Ġconfirmed":5051,"eg":5052,"Ġwars":5053,"asure":5054,"Ġmaster":5055,"ĠSat":5056,"ilies":5057,"Ġload":5058,"ĠMend":5059,"ĠFox":5060,"ĠLl":5061,"ĠLord":5062,"ĠEnd":5063,"ĠKar":5064,"Ġchosen":5065,"Ġexec":5066,"Ġspot":5067,"Ġsports":5068,"ĠVan":5069,"outs":5070,"Ġmuseum":5071,"Ġemperor":5072,"Ġ1987":5073,"Ġsimply":5074,"Ġwinter":5075,"ĠReception":5076,"Ġreference":5077,"Ġelim":5078,"Ġauthority":5079,"Ġpitched":5080,"Ġpromoted":5081,"Ġletters":5082,"Ġmeasure":5083,"ĠOlympic":5084,"Ġmoment":5085,"Ġdismiss":5086,"onymous":5087,"iate":5088,"mission":5089,"Ġrom":5090,"Ġtact":5091,"Ġmob":5092,"Ġdiam":5093,"ĠSub":5094,"ador":5095,"ĠPublic":5096,"Ġheight":5097,"Ġneut":5098,"Ġ95":5099,"Ġregions":5100,"Ġalbums":5101,"ĠUSA":5102,"Ġreturning":5103,"Ġpasses":5104,"Ġadvanced":5105,"ĠProv":5106,"Ġtwice":5107,"Ġcases":5108,"Ġfunction":5109,"Ġcondition":5110,"Ġburied":5111,"ĠValley":5112,"Ġgranted":5113,"Ġdomestic":5114,"aud":5115,"lings":5116,"uge":5117,"Ġtun":5118,"inet":5119,"Ġsay":5120,"Ġwave":5121,"ĠSarn":5122,"ĠMel":5123,"utenant":5124,"ĠEach":5125,"ĠZhou":5126,"ertain":5127,"ĠIndust":5128,"Ġbrigade":5129,"helm":5130,"heless":5131,"Ġvisited":5132,"Ġplanet":5133,"Ġfreeway":5134,"Ġseems":5135,"Ġinjury":5136,"Ġnominated":5137,"Ġdropped":5138,"Ġeconomic":5139,"Ġdocument":5140,"Ġplatform":5141,"ĠBoston":5142,"ef":5143,"iot":5144,"ya":5145,"rete":5146,"Ġsail":5147,"ĠAD":5148,"ental":5149,"ĠRos":5150,"ĠRome":5151,"ĠFre":5152,"ulate":5153,"ĠEven":5154,"Ġridge":5155,"Ġsend":5156,"ĠUN":5157,"Ġcontaining":5158,"ĠYank":5159,"Ġ600":5160,"Ġremix":5161,"Ġcolor":5162,"Ġtherefore":5163,"azz":5164,"Ġ1984":5165,"Ġstudent":5166,"Ġ1972":5167,"Ġdeliver":5168,"Ġpitcher":5169,"ĠMountain":5170,"urban":5171,"Ġgrowing":5172,"auty":5173,"Ġpoetry":5174,"Ġscholars":5175,"ĠForest":5176,"ĠTintin":5177,"Ã¨":5178,"Ġfear":5179,"Ġfix":5180,"Ġmort":5181,"ola":5182,"ĠNight":5183,"ĠLew":5184,"ĠGra":5185,"ĠGreek":5186,"ocated":5187,"Ġshare":5188,"Ġkg":5189,"ĠOnly":5190,"Ġweather":5191,"Ġactors":5192,"Ġdepth":5193,"Ġ1947":5194,"Ġresults":5195,"ĠBefore":5196,"Ġspeak":5197,"Ġmounted":5198,"Ġmaintained":5199,"Ġflying":5200,"ĠVaranas":5201,"Ġnecessary":5202,"ĠCeres":5203,"Ġmultiple":5204,"ĠAddition":5205,"ĠVaranasi":5206,"de":5207,"mosp":5208,"Ġhor":5209,"olved":5210,"ivity":5211,"ayer":5212,"resp":5213,"ovic":5214,"ipl":5215,"Ġcontent":5216,"Ġserve":5217,"ĠAsia":5218,"Ġfilmed":5219,"Ġopin":5220,"Ġstarts":5221,"Ġstanding":5222,"Ġhistorian":5223,"ĠEva":5224,"Ġlooking":5225,"Ġcouncil":5226,"Ġknowledge":5227,"Ġcurrently":5228,"ĠOdaen":5229,"Ġlabel":5230,"ĠNesbitt":5231,"ĠArgent":5232,"ao":5233,"bl":5234,"Ġbul":5235,"Ġboy":5236,"Ġpict":5237,"ĠMur":5238,"thur":5239,"Ġven":5240,"alls":5241,"ĠUs":5242,"Ġcompr":5243,"Ġ61":5244,"ĠAnth":5245,"Ġexped":5246,"Ġbelong":5247,"Ġguest":5248,"ĠDevelop":5249,"Ġphil":5250,"Ġboat":5251,"ĠTeam":5252,"ĠAmong":5253,"ĠWilliams":5254,"Ġreligion":5255,"Ġvocal":5256,"Ġproblem":5257,"Ġargued":5258,"ĠTorres":5259,"Ġindependent":5260,"Ġcontrolled":5261,"Ġversions":5262,"Ġwebsite":5263,"ĠOdaenathus":5264,"Mont":5265,"TC":5266,"Ġtank":5267,"Ġtanks":5268,"ider":5269,"ĠDream":5270,"ĠGord":5271,"ĠJup":5272,"ĠJourn":5273,"Ġspect":5274,"Ġ72":5275,"Ġassass":5276,"Ġ1989":5277,"Ġ1969":5278,"Ġsupporting":5279,"Ġelement":5280,"Ġsettlement":5281,"ĠDuMont":5282,"Ġanimal":5283,"ĠOffice":5284,"Ġrejected":5285,"ĠSarnia":5286,"ridge":5287,"iner":5288,"edar":5289,"Ġfolk":5290,"Ġham":5291,"enture":5292,"Ġnest":5293,"ĠIron":5294,"iments":5295,"ĠFant":5296,"ĠWork":5297,"ĠGulf":5298,"ĠJon":5299,"umes":5300,"agement":5301,"Ġseg":5302,"iance":5303,"ĠChild":5304,"Ġarrang":5305,"Ġnews":5306,"Ġretired":5307,"Ġwrites":5308,"ĠGuard":5309,"Ġexplained":5310,"Ġmedical":5311,"ĠPerÃ³n":5312,"Ġavoid":5313,"ĠExp":5314,"ĠPalest":5315,"Ġcollabor":5316,"ĠSlam":5317,"ĠPrem":5318,"Ġincreasingly":5319,"Ġtemperature":5320,"Ġfle":5321,"Ġbit":5322,"ĠBir":5323,"oted":5324,"ĠDest":5325,"ĠEll":5326,"Ġrival":5327,"ĠKey":5328,"Ġoverl":5329,"ĠOnce":5330,"Ġ96":5331,"insula":5332,"ĠConference":5333,"ĠConstant":5334,"ĠCarl":5335,"Ġ130":5336,"Ġreflect":5337,"ĠAirport":5338,"ĠMinister":5339,"Ġstrik":5340,"ĠEntertain":5341,"ĠOxford":5342,"ĠThunderbird":5343,"ographer":5344,"pass":5345,"ĠSR":5346,"ĠBan":5347,"Ġge":5348,"Ġrisk":5349,"Ġkakapo":5350,"Ġunique":5351,"Ġ73":5352,"Ġbattalions":5353,"Ġguard":5354,"ĠCongress":5355,"haps":5356,"Ġcadmium":5357,"arian":5358,"stream":5359,"add":5360,"ĠMod":5361,"imore":5362,"ote":5363,"ĠDar":5364,"ĠFA":5365,"Ġring":5366,"Ġresemb":5367,"Ġperfect":5368,"Ġscience":5369,"ĠAlbum":5370,"ĠItaly":5371,"awa":5372,"Ġconsp":5373,"Ġ81":5374,"Ġflag":5375,"Ġsetting":5376,"Ġsingles":5377,"ĠAllied":5378,"Ġprotest":5379,"ancing":5380,"Ġbelieve":5381,"ĠSystem":5382,"Ġconnected":5383,"Ġgrowth":5384,"Ġemployed":5385,"Ġsynt":5386,"ĠScottish":5387,"Ġfailure":5388,"Ġaccompan":5389,"Ġpolicy":5390,"ĠBowl":5391,"Ġweakened":5392,"Ġbasketball":5393,"Ġscheduled":5394,"ĠJupiter":5395,"cel":5396,"met":5397,"och":5398,"Ġáĥ":5399,"heastern":5400,"inity":5401,"Ġfung":5402,"Ġbass":5403,"ĠCa":5404,"ĠCole":5405,"ĠRog":5406,"ĠDom":5407,"ĠDutch":5408,"ĠNorm":5409,"oren":5410,"ĠVen":5411,"Ġherself":5412,"Ġcolony":5413,"Ġends":5414,"Ġsubmar":5415,"Ġincident":5416,"Ġmatter":5417,"Ġfamilies":5418,"Ġcampus":5419,"Ġideas":5420,"Ġentirely":5421,"Ġsubsequent":5422,"ĠHelms":5423,"ĠFamily":5424,"ĠOmaha":5425,"Station":5426,"bo":5427,"eed":5428,"onent":5429,"Ġcust":5430,"Ġdated":5431,"ĠSpr":5432,"ading":5433,"ĠLis":5434,"ifying":5435,"ĠInstitute":5436,"Ġunf":5437,"Ġcompar":5438,"Ġcontained":5439,"Ġcontributed":5440,"izations":5441,"Ġdescend":5442,"Ġ85":5443,"Ġsinging":5444,"Ġfamous":5445,"Ġbelief":5446,"Ġjoin":5447,"Ġsolo":5448,"Ġvalue":5449,"Ġcreating":5450,"Ġwooden":5451,"ĠPlayStation":5452,"ĠWilhelm":5453,"Ġparticipated":5454,"ĠVictoria":5455,"Ġsenior":5456,"oe":5457,"render":5458,"Ġwitness":5459,"itable":5460,"ĠAp":5461,"ĠSky":5462,"aming":5463,"ĠBas":5464,"ĠBishop":5465,"ĠDis":5466,"ĠLine":5467,"Ġanalysis":5468,"Ġrise":5469,"Ġchose":5470,"Ġchair":5471,"ĠStep":5472,"Ġ700":5473,"ocked":5474,"Ġ1981":5475,"Ġopposed":5476,"Ġsignificantly":5477,"Ġliterature":5478,"ĠJeff":5479,"Ġpremi":5480,"Ġbattery":5481,"Ġprepared":5482,"ĠAdmiral":5483,"Ġseventh":5484,"ĠInnis":5485,"Ġbottom":5486,"cers":5487,"eer":5488,"kare":5489,"load":5490,"upp":5491,"rot":5492,"ĠAst":5493,"ĠMong":5494,"ĠMike":5495,"uting":5496,"ĠPress":5497,"ĠRy":5498,"ĠGard":5499,"ĠStan":5500,"Ġunus":5501,"phia":5502,"ressive":5503,"Ġtemnospondyl":5504,"ĠImag":5505,"ĠMcCall":5506,"Ġanimals":5507,"clusion":5508,"Ġfrequently":5509,"Ġsoutheast":5510,"adelphia":5511,"ĠGordon":5512,"MA":5513,"sw":5514,"Ã¶":5515,"Ġaired":5516,"Ġawards":5517,"Ġswe":5518,"stead":5519,"ĠBart":5520,"ĠHart":5521,"ĠRif":5522,"ĠNever":5523,"Ġshaped":5524,"ips":5525,"usted":5526,"ĠChap":5527,"ĠVill":5528,"Ġroof":5529,"issance":5530,"Ġ800":5531,"Ġdefin":5532,"ashion":5533,"Ġdrive":5534,"Ġroads":5535,"Ġcommonly":5536,"Ġpopularity":5537,"ĠLester":5538,"Ġcollege":5539,"Ġlosses":5540,"Ġoccupied":5541,"ĠCardiff":5542,"Ġinnings":5543,"Ġunsu":5544,"ĠBaltimore":5545,"atus":5546,"Ġbud":5547,"Ġmist":5548,"Ġdress":5549,"ĠERA":5550,"aph":5551,"ansas":5552,"Ġtrav":5553,"ulls":5554,"ructure":5555,"Ġ1918":5556,"Ġsouthwest":5557,"Ġsystems":5558,"Ġparalle":5559,"Ġcriticism":5560,"Ġsuccessfully":5561,"ĠMorr":5562,"Ġrecognized":5563,"ĠEgyptian":5564,"Ġproperty":5565,"Ġexperienced":5566,"Ġsupplies":5567,"iable":5568,"jo":5569,"Äĩ":5570,"erts":5571,"Ġfresh":5572,"isers":5573,"Ġreform":5574,"ĠSund":5575,"ĠMov":5576,"lywood":5577,"ety":5578,"ĠRih":5579,"rait":5580,"Ġatmosp":5581,"ĠGi":5582,"ersey":5583,"Ġvirt":5584,"Ġrating":5585,"Ġspring":5586,"Ġagricult":5587,"Ġ98":5588,"Ġremn":5589,"Ġsevere":5590,"Ġminer":5591,"Ġpublication":5592,"Ġserving":5593,"Ġdeaths":5594,"Ġpainting":5595,"ĠImperial":5596,"Ġdeclined":5597,"Ġfacilities":5598,"ĠHamels":5599,"Ġbriefly":5600,"ĠDemocr":5601,"Ġpurchased":5602,"ĠRihanna":5603,"hat":5604,"rig":5605,"set":5606,"zo":5607,"Ġtheory":5608,"Ġselling":5609,"ato":5610,"Ġfict":5611,"Ġpet":5612,"Ġdim":5613,"Ġdates":5614,"ĠAM":5615,"Ġec":5616,"ĠMen":5617,"ĠMas":5618,"lys":5619,"Ġbey":5620,"unicip":5621,"ĠFive":5622,"Ġcomes":5623,"Ġchoice":5624,"Ġ59":5625,"Ġrecently":5626,"ĠAlso":5627,"aret":5628,"wealth":5629,"Ġteacher":5630,"Ġ77":5631,"Ġsecondary":5632,"Ġ1943":5633,"Ġdescription":5634,"Ġ1968":5635,"Ġextensive":5636,"Ġoccas":5637,"Ġeditor":5638,"Ġeffective":5639,"ĠMounted":5640,"Ġpoems":5641,"Ġtechnique":5642,"ĠCoast":5643,"ĠSwed":5644,"ĠPeople":5645,"Ġnegot":5646,"Ġslowly":5647,"Ġregarded":5648,"ĠMartin":5649,"ĠDaniel":5650,"ĠCroatia":5651,"ĠRAAF":5652,"ĠDjed":5653,"ĠRevolution":5654,"ĠBetween":5655,"ibrary":5656,"ĠLieutenant":5657,"ĠEntertainment":5658,"han":5659,"Ġtheat":5660,"Ġcited":5661,"Ġfan":5662,"ano":5663,"iced":5664,"Ġmic":5665,"Ġgas":5666,"Ġgives":5667,"Ġstations":5668,"Ġstages":5669,"ĠRail":5670,"ules":5671,"Ġnotable":5672,"Ġarms":5673,"ube":5674,"Ġ66":5675,"Ġ82":5676,"Ġcollected":5677,"Ġexpanded":5678,"Ġcreation":5679,"Ġ1965":5680,"espread":5681,"Ġturns":5682,"Ġarmor":5683,"Ġfarm":5684,"Ġsteel":5685,"ĠPhiladelphia":5686,"ĠMcCart":5687,"Ġdegree":5688,"Ġaspects":5689,"ĠToday":5690,"ĠSummer":5691,"Ġbeyond":5692,"ĠDjedkare":5693,"iences":5694,"rine":5695,"ycl":5696,"Ġcricket":5697,"Ġfur":5698,"Ġfox":5699,"roph":5700,"ĠHon":5701,"ĠHib":5702,"ĠDun":5703,"Ġisol":5704,"ĠNative":5705,"Ġru":5706,"Ġexecutive":5707,"Ġ71":5708,"Ġfinals":5709,"Ġsimple":5710,"Ġ1939":5711,"Ġprotection":5712,"Ġworldwide":5713,"Ġengaged":5714,"Ġcells":5715,"Ġsemi":5716,"Ġsilver":5717,"ias":5718,"uate":5719,"Ġtall":5720,"inate":5721,"Ġbid":5722,"Ġpul":5723,"Ġdaily":5724,"Ġeth":5725,"ĠBru":5726,"Ġgain":5727,"idges":5728,"ĠLuc":5729,"ager":5730,"Ġrac":5731,"Ġseat":5732,"Ġcoal":5733,"ĠDev":5734,"Ġphase":5735,"ĠAdv":5736,"Ġtrip":5737,"Ġallows":5738,"Ġoldest":5739,"Ġarrival":5740,"Ġcrossing":5741,"Ġpromotion":5742,"ĠGovernor":5743,"white":5744,"Ġtreatment":5745,"Ġbillion":5746,"Ġclean":5747,"ĠArea":5748,"Ġresponded":5749,"Ġunsuccess":5750,"ca":5751,"ez":5752,"fort":5753,"ini":5754,"reets":5755,"itan":5756,"Ġmales":5757,"Ġdrop":5758,"standing":5759,"ĠCD":5760,"ĠCre":5761,"ĠCle":5762,"ĠMic":5763,"ĠMot":5764,"ĠTheatre":5765,"ĠBand":5766,"ĠId":5767,"eton":5768,"imet":5769,"Ġheard":5770,"ĠDown":5771,"rak":5772,"ĠLiber":5773,"aved":5774,"ĠOh":5775,"illo":5776,"ogen":5777,"ieval":5778,"Ġdecades":5779,"iversary":5780,"Ġdistrict":5781,"Ġ1914":5782,"Ġprotect":5783,"Ġparliament":5784,"ĠSteve":5785,"Ġdelay":5786,"Ġfinds":5787,"graded":5788,"Ġimproved":5789,"Ġroughly":5790,"ĠWWE":5791,"Ġmolec":5792,"ĠApplewhite":5793,"Ġhorses":5794,"Ġphilos":5795,"hi":5796,"mit":5797,"Ġi":5798,"rel":5799,"itors":5800,"ĠAthlet":5801,"ĠSAF":5802,"Ġeas":5803,"lying":5804,"ivered":5805,"ĠFu":5806,"ĠFestival":5807,"ĠNBA":5808,"ĠGreg":5809,"ĠJur":5810,"ĠJud":5811,"Ġ94":5812,"Ġfilming":5813,"Ġactress":5814,"Ġaccident":5815,"Ġ1946":5816,"Ġdeveloping":5817,"Ġheaded":5818,"Ġrestaur":5819,"ĠAndy":5820,"Ġplanning":5821,"Ġfinding":5822,"Ġfocused":5823,"ĠBelg":5824,"Ġgradually":5825,"Ġconverted":5826,"ĠThroughout":5827,"ĠCommonwealth":5828,"ĠDevelopment":5829,"Ġbudget":5830,"ĠSAFE":5831,"OT":5832,"rum":5833,"tav":5834,"Ġfat":5835,"arp":5836,"rog":5837,"Ġmo":5838,"Ġdance":5839,"ĠTen":5840,"ĠHung":5841,"ĠRel":5842,"ĠRod":5843,"ĠDod":5844,"ĠDomin":5845,"ĠLu":5846,"ĠObs":5847,"aka":5848,"ĠVideo":5849,"Ġarc":5850,"Ġintelligence":5851,"assy":5852,"ĠAlf":5853,"Ġcenturies":5854,"Ġcool":5855,"Ġ110":5856,"Ġ177":5857,"Ġ1971":5858,"Ġgovernor":5859,"ĠProduction":5860,"Ġclassified":5861,"Ġturning":5862,"Ġexplos":5863,"Ġsteam":5864,"Ġwidespread":5865,"ÃŃa":5866,"Ġvolunte":5867,"Ġexisting":5868,"Ġcommissioned":5869,"Ġstopped":5870,"Le":5871,"lines":5872,"Ġtail":5873,"Ġaim":5874,"inj":5875,"eratops":5876,"Ġouter":5877,"ati":5878,"esh":5879,"ĠCold":5880,"Ġnor":5881,"urches":5882,"Ġstreet":5883,"ĠWind":5884,"anda":5885,"ava":5886,"ifically":5887,"Ġarran":5888,"phib":5889,"Ġprefer":5890,"Ġneither":5891,"icted":5892,"Ġproducers":5893,"Ġreceiving":5894,"Ġconcrete":5895,"ĠBroad":5896,"Ġdelivered":5897,"ĠBarb":5898,"Ġeyes":5899,"Ġbegun":5900,"Ġburns":5901,"Ġcolonial":5902,"SB":5903,"cop":5904,"cription":5905,"ym":5906,"Ġton":5907,"Ġsave":5908,"Ġcraft":5909,"Ġdial":5910,"Ġegg":5911,"Ġstret":5912,"rier":5913,"Ġdeities":5914,"Ġnote":5915,"Ġcontrib":5916,"Ġoverse":5917,"ropol":5918,"Ġundert":5919,"Ġsole":5920,"ifications":5921,"Ġ1975":5922,"ĠWhat":5923,"ĠBrig":5924,"Ġfinish":5925,"ĠProject":5926,"Ġcapable":5927,"Ġbreeding":5928,"ĠBarrow":5929,"Ġfemales":5930,"Ġvolume":5931,"Ġnegative":5932,"Ġdominated":5933,"ĠUpon":5934,"Ġsculpture":5935,"ĠLewis":5936,"iations":5937,"yles":5938,"Ġice":5939,"Ġfellow":5940,"ĠMu":5941,"ĠMir":5942,"Ġgreen":5943,"ĠRow":5944,"ĠNathan":5945,"ĠJac":5946,"Ġpros":5947,"Ġexclus":5948,"ĠUB":5949,"Ġresident":5950,"Ġreserv":5951,"weight":5952,"Ġsubt":5953,"Ġexpress":5954,"Ġdistingu":5955,"Ġanything":5956,"Ġlasted":5957,"Ġvisual":5958,"Ġdrawn":5959,"Ġintroduction":5960,"ĠKeats":5961,"ĠMagazine":5962,"Ġescape":5963,"Ġindependence":5964,"ĠCambod":5965,"Ġvehicles":5966,"Ġaccompanied":5967,"kins":5968,"Ã¤":5969,"Ġtend":5970,"Ġtrying":5971,"rell":5972,"ingly":5973,"iling":5974,"Ġneck":5975,"ĠBase":5976,"ĠBoard":5977,"ĠHor":5978,"ĠRon":5979,"ĠFriend":5980,"andy":5981,"Ġrit":5982,"ections":5983,"sea":5984,"Ġcomputer":5985,"rence":5986,"ropri":5987,"Ġdecre":5988,"Ġcharges":5989,"amese":5990,"Ġadding":5991,"Ġ160":5992,"ĠConst":5993,"restling":5994,"Ġagreement":5995,"Ġholding":5996,"ĠCardinal":5997,"Ġadapted":5998,"Ġnormal":5999,"ĠDougl":6000,"Ġpaintings":6001,"Ġtree":6002,"erc":6003,"Ġfuel":6004,"Ġbought":6005,"Ġmig":6006,"Ġdata":6007,"Ġhired":6008,"ĠCook":6009,"utation":6010,"ĠPers":6011,"ewhere":6012,"essed":6013,"Ġnothing":6014,"Ġrose":6015,"angers":6016,"ilding":6017,"ĠMario":6018,"Ġ1966":6019,"Ġopera":6020,"Ġstrateg":6021,"Ġserves":6022,"Ġpossibility":6023,"Ġhumans":6024,"Ġviewed":6025,"ographic":6026,"Ġcombination":6027,"Ġsurviv":6028,"Ġsurvey":6029,"Ġcrossed":6030,"Ġencoura":6031,"Ġrebu":6032,"Ġviolence":6033,"Ġtells":6034,"Ġfictional":6035,"come":6036,"Ġtrou":6037,"Ġfaith":6038,"isy":6039,"Ġlabor":6040,"ĠHan":6041,"ĠHard":6042,"ĠWall":6043,"ĠLy":6044,"ĠLow":6045,"istan":6046,"ighter":6047,"ĠChart":6048,"Ġcomposition":6049,"Ġ69":6050,"Ġ87":6051,"icks":6052,"Ġunderground":6053,"Ġacres":6054,"Ġtrain":6055,"Ġ164":6056,"Ġ1945":6057,"Ġdisturb":6058,"ĠColor":6059,"ĠJuan":6060,"Ġ1916":6061,"Ġcaptain":6062,"ĠAbu":6063,"Ġimportance":6064,"Ġsurvived":6065,"Ġglob":6066,"ĠCrown":6067,"Ġclosely":6068,"Ġexistence":6069,"borough":6070,"Ġreasons":6071,"Ġcalc":6072,"ĠVietnamese":6073,"Ġrif":6074,"Ġlearned":6075,"ĠColonel":6076,"respond":6077,"aver":6078,"aire":6079,"then":6080,"Ġcem":6081,"ĠSus":6082,"Ġthing":6083,"Ġstream":6084,"ĠNH":6085,"ĠLate":6086,"opher":6087,"abil":6088,"rupt":6089,"Ġresist":6090,"Ġperhaps":6091,"Ġconsists":6092,"Ġdecline":6093,"ĠMarc":6094,"Ġsubstant":6095,"Ġ1973":6096,"Ġ1967":6097,"Ġcarry":6098,"Ġinstruct":6099,"Ġprovides":6100,"Ġowners":6101,"Ġ1915":6102,"Ġinvolvement":6103,"ĠSongs":6104,"Ġcastle":6105,"ĠIslands":6106,"ĠWalter":6107,"Ġsections":6108,"Ġintersection":6109,"Ġ#":6110,"Ġaer":6111,"erted":6112,"Ġwins":6113,"Ġopt":6114,"ĠAri":6115,"ĠSound":6116,"ĠCub":6117,"ĠBor":6118,"ĠIG":6119,"iration":6120,"irls":6121,"ĠDet":6122,"uli":6123,"illing":6124,"ĠInstead":6125,"ĠKersh":6126,"Ġchorus":6127,"ĠUTC":6128,"Ġroutes":6129,"Ġagent":6130,"Ġdecor":6131,"ĠArthur":6132,"Ġdefined":6133,"Ġsubs":6134,"ĠLee":6135,"Ġmush":6136,"ĠJoe":6137,"Ġdoor":6138,"Ġemp":6139,"Ġperforming":6140,"Ġ1974":6141,"Ġdidn":6142,"Ġairport":6143,"ĠCommittee":6144,"Ġdetails":6145,"ĠPho":6146,"Ġcommanded":6147,"Ġstoryline":6148,"Ġprograms":6149,"Ġcougar":6150,"Ġhousehold":6151,"Ġaccompl":6152,"Ġmissing":6153,"ĠCommander":6154,"ĠStudios":6155,"Ġshooting":6156,"Ġnucleus":6157,"Ġenjoyed":6158,"sych":6159,"chen":6160,"hm":6161,"Ġster":6162,"arm":6163,"Ġbats":6164,"Ġhill":6165,"ĠType":6166,"ĠRay":6167,"eman":6168,"Ġwhy":6169,"ĠNap":6170,"Ġitems":6171,"sey":6172,"Ġenl":6173,"Ġ63":6174,"ooking":6175,"Ġtransform":6176,"Ġlongest":6177,"Ġ1978":6178,"Ġlanded":6179,"Ġ1952":6180,"Ġ1919":6181,"Ġevening":6182,"Ġsurviving":6183,"Ġlaws":6184,"Ġmassive":6185,"ĠBraz":6186,"Ġruled":6187,"Ġarchaeological":6188,"hetic":6189,"onnaissance":6190,"Ġconsisting":6191,"Ġdrama":6192,"Ġpurpose":6193,"ĠFrancisc":6194,"Ġathletes":6195,"Ġrepeated":6196,"ĠMendes":6197,"Ġtemnospondyls":6198,"ĠDouglas":6199,"ĠKershaw":6200,"AA":6201,"war":6202,"Å¡":6203,"Ġsle":6204,"Ġsom":6205,"Ġways":6206,"itiz":6207,"Ġcaught":6208,"Ġfirm":6209,"Ġfashion":6210,"ĠSnow":6211,"acity":6212,"ĠHaven":6213,"ĠRidge":6214,"ĠWin":6215,"ĠKenn":6216,"ĠStadium":6217,"Ġleaves":6218,"Ġattached":6219,"Ġdecade":6220,"ĠMarines":6221,"Ġinterior":6222,"Ġinterchange":6223,"Ġcalls":6224,"Ġ1976":6225,"Ġ250":6226,"Ġviews":6227,"Ġpropos":6228,"Ġislands":6229,"Ġcorrespond":6230,"Ġearthqu":6231,"Ġdeployed":6232,"Ġsynthes":6233,"gers":6234,"vis":6235,"Ġtomb":6236,"Ġmemorial":6237,"Ġdrew":6238,"ĠAer":6239,"entially":6240,"Ġlane":6241,"ĠBaby":6242,"imeter":6243,"Ġbeach":6244,"ĠRol":6245,"ĠRick":6246,"uma":6247,"iful":6248,"Ġcontest":6249,"Ġassemb":6250,"Ġ175":6251,"Ġmoder":6252,"Ġsentence":6253,"Ġmyth":6254,"Ġsettlers":6255,"Ġrenamed":6256,"Ġpenal":6257,"Ġsector":6258,"ĠSurv":6259,"Ġpilot":6260,"ĠSpecial":6261,"Ġopportunity":6262,"Ġdissipated":6263,"ĠTurkish":6264,"Ġpermanent":6265,"Äģda":6266,"ĠShortly":6267,"ĠThunderbirds":6268,"lik":6269,"à¸":6270,"Ġcateg":6271,"icop":6272,"ĠChel":6273,"amin":6274,"etery":6275,"iminal":6276,"ĠFree":6277,"ĠNick":6278,"iston":6279,"Ġrural":6280,"Ġselect":6281,"apes":6282,"iege":6283,"Ġreconst":6284,"achus":6285,"Ġ68":6286,"Ġsecure":6287,"ĠMarsh":6288,"ĠArts":6289,"Ġmoves":6290,"hess":6291,"Ġpopulations":6292,"Ġ1979":6293,"ĠConn":6294,"ĠSpace":6295,"Ġ1917":6296,"Ġ1936":6297,"Ġopposition":6298,"Ġtowns":6299,"ĠBoise":6300,"Ġdigital":6301,"Ġsymbol":6302,"edding":6303,"ĠPremier":6304,"Ġconspir":6305,"ii":6306,"la":6307,"yson":6308,"eda":6309,"Ġfilled":6310,"Ġha":6311,"Ġones":6312,"ĠBern":6313,"otes":6314,"Ġstore":6315,"ĠRox":6316,"ĠLife":6317,"osa":6318,"Ġsufficient":6319,"Ġcho":6320,"Ġchurches":6321,"elli":6322,"ĠChief":6323,"ĠAlbert":6324,"Ġimpr":6325,"Ġcommittee":6326,"iously":6327,"Ġknew":6328,"ĠLeon":6329,"Ġsupposed":6330,"Ġlocations":6331,"Ġinvited":6332,"Ġexpans":6333,"Ġproviding":6334,"Ġprotagon":6335,"Ġconvection":6336,"Ġskin":6337,"Ġassociation":6338,"Ġmissions":6339,"ĠEmperor":6340,"ĠGolden":6341,"Ġestablishment":6342,"Ġjourney":6343,"Ġderived":6344,"Ġadministration":6345,"Ġbenef":6346,"ĠCrazy":6347,"ĠAdditionally":6348,"RE":6349,"rist":6350,"Ġsun":6351,"Ġsort":6352,"Ġbranch":6353,"Ġdry":6354,"elve":6355,"uration":6356,"ĠBly":6357,"ĠBeck":6358,"iders":6359,"usal":6360,"Ġconference":6361,"ĠGab":6362,"Ġshared":6363,"Ġyouth":6364,"okes":6365,"ĠYe":6366,"ĠAnton":6367,"Ġknots":6368,"ublin":6369,"ĠScience":6370,"Ġsurrender":6371,"Ġ1982":6372,"Ġ1948":6373,"Ġarticle":6374,"Ġobt":6375,"ĠIsab":6376,"Ġfinishing":6377,"ipping":6378,"Ġreplace":6379,"Ġreplacement":6380,"Ġgreatly":6381,"ĠWithin":6382,"ĠAbout":6383,"Ġspeaking":6384,"Ġclubs":6385,"idden":6386,"Ġcoastal":6387,"Ġregarding":6388,"ĠHollywood":6389,"Ġeconomy":6390,"Ġdepicted":6391,"Ġapplied":6392,"Ġdynasty":6393,"ĠBono":6394,"Ġsucceeded":6395,"ĠDirector":6396,"Ġhydro":6397,"Ġign":6398,"Ġtied":6399,"Ġtable":6400,"err":6401,"Ġsan":6402,"Ġfer":6403,"Ġfil":6404,"Ġbat":6405,"Ġdating":6406,"ĠAge":6407,"ĠSor":6408,"ĠSanta":6409,"ilton":6410,"stances":6411,"Ġla":6412,"acon":6413,"ĠMid":6414,"ĠMTV":6415,"ĠJay":6416,"ĠJones":6417,"ĠOffic":6418,"Ġspons":6419,"apers":6420,"Ġjoint":6421,"aws":6422,"Ġdeck":6423,"Ġvert":6424,"Ġproducing":6425,"Ġsoft":6426,"Ġsuccessor":6427,"Ġantimony":6428,"Ġhistoric":6429,"regon":6430,"Ġglass":6431,"Ġcertified":6432,"chers":6433,"Ġzone":6434,"Ġmotion":6435,"Ġremainder":6436,"ĠMilitary":6437,"ĠRadio":6438,"Ġconsiderable":6439,"Ġacquired":6440,"ĠAttorney":6441,"ĠDoctor":6442,"ĠColorado":6443,"ĠBrazil":6444,"AG":6445,"ture":6446,"Ġurban":6447,"Ġcrop":6448,"Ġhyp":6449,"ĠSi":6450,"eld":6451,"omp":6452,"ĠIra":6453,"ĠDublin":6454,"ĠJain":6455,"agre":6456,"ĠOregon":6457,"ĠKang":6458,"Ġchampion":6459,"Ġexact":6460,"pty":6461,"ĠVol":6462,"assador":6463,"mann":6464,"ĠMaria":6465,"Ġunderw":6466,"Ġflu":6467,"Ġentering":6468,"anny":6469,"Ġreceive":6470,"Ġ1963":6471,"Ġhelicop":6472,"Ġcourts":6473,"engers":6474,"Ġhistorians":6475,"ĠSimilar":6476,"Ġfavour":6477,"ĠButler":6478,"Ġbaseball":6479,"Ġassistance":6480,"Ġchapel":6481,"Ġconcerns":6482,"Ã¡nh":6483,"ĠCharlie":6484,"ĠAnthony":6485,"ĠSunday":6486,"ĠIGN":6487,"ĠBlythe":6488,"SA":6489,"eor":6490,"host":6491,"Ġaware":6492,"Ġmut":6493,"ĠCop":6494,"ĠML":6495,"ĠBert":6496,"ĠBrian":6497,"ĠIgu":6498,"idae":6499,"ĠHin":6500,"Ġstem":6501,"ĠFire":6502,"opes":6503,"ichol":6504,"Ġchance":6505,"Ġunp":6506,"Ġarts":6507,"Ġ58":6508,"Ġcommit":6509,"Ġ78":6510,"Ġshel":6511,"attle":6512,"Ġtruth":6513,"Ġprotected":6514,"Ġiniti":6515,"Ġspeech":6516,"imental":6517,"sequently":6518,"ĠEvita":6519,"Ġtechnical":6520,"Ġtechnology":6521,"Ġgetting":6522,"Ġ1890":6523,"Ġfunding":6524,"ĠHoward":6525,"ĠCroatian":6526,"ranean":6527,"ba":6528,"break":6529,"die":6530,"theless":6531,"rets":6532,"Ġod":6533,"itled":6534,"Ġcold":6535,"Ġdru":6536,"ĠHell":6537,"ĠLenn":6538,"ĠGram":6539,"ĠJes":6540,"Ġcomic":6541,"Ġvon":6542,"Ġrub":6543,"Ġplum":6544,"Ġlegend":6545,"Ġcloud":6546,"Ġreserve":6547,"Ġrob":6548,"Ġteeth":6549,"Ġ74":6550,"ribed":6551,"Ġflights":6552,"Ġcolour":6553,"Ġverte":6554,"Ġacid":6555,"Ġtransit":6556,"Ġgoes":6557,"Ġattacking":6558,"Ġtries":6559,"Ġauthors":6560,"ĠMacLe":6561,"ĠKhÃ¡nh":6562,"ĠTransport":6563,"ĠJamal":6564,"Ġarranged":6565,"rant":6566,"ĠÎ":6567,"edom":6568,"Ġdog":6569,"entions":6570,"ĠCorn":6571,"Ġlob":6572,"eless":6573,"ĠHit":6574,"ĠPoint":6575,"Ġaltar":6576,"Ġvic":6577,"Ġsud":6578,"pton":6579,"ells":6580,"ĠHeavy":6581,"Ġresour":6582,"ĠAlan":6583,"ibbe":6584,"aware":6585,"Ġ91":6586,"Ġ89":6587,"Ġmeets":6588,"ĠSha":6589,"Ġfoundation":6590,"Ġdowntown":6591,"Ġdownload":6592,"Ġ1953":6593,"Ġcharacteristics":6594,"ĠPhill":6595,"encies":6596,"Ġwatched":6597,"Ġcorrect":6598,"Ġliterary":6599,"Ġdenied":6600,"Ġancest":6601,"Ġcontroversy":6602,"ĠTennyson":6603,"ĠAlexander":6604,"ĠLiu":6605,"ĠFreder":6606,"Ġoccasionally":6607,"Ġopinion":6608,"ĠStephen":6609,"pson":6610,"Ġtyphoon":6611,"Ġcab":6612,"Ġfair":6613,"Ġfiring":6614,"Ġdub":6615,"Ġhat":6616,"ĠTop":6617,"amy":6618,"ĠIV":6619,"ĠHomer":6620,"ĠRun":6621,"Ġcong":6622,"rake":6623,"ĠGA":6624,"agle":6625,"Ġrich":6626,"Ġchannel":6627,"ears":6628,"ĠAli":6629,"ĠMarl":6630,"Ġshowing":6631,"Ġ1913":6632,"Ġcapacity":6633,"Ġtypical":6634,"Ġterminus":6635,"ivalent":6636,"Ġpolitics":6637,"Ġpitch":6638,"Ġvalley":6639,"Ġstrengthen":6640,"Ġchapter":6641,"Ġimmig":6642,"Ġexamples":6643,"Ġdollar":6644,"Ġpowers":6645,"Ġsplit":6646,"borne":6647,"ĠIraq":6648,"nest":6649,"Ġtal":6650,"Ġmine":6651,"ĠAk":6652,"state":6653,"adow":6654,"ĠBi":6655,"ĠWars":6656,"ĠWalk":6657,"osis":6658,"Ġ1900":6659,"agn":6660,"ĠIng":6661,"Ġexerc":6662,"onder":6663,"Ġjack":6664,"Ġcommemor":6665,"Ġdepartment":6666,"Ġreputation":6667,"Ġgeneration":6668,"Ġreferences":6669,"Ġeverything":6670,"Ġfields":6671,"ĠSimon":6672,"ĠSimone":6673,"iece":6674,"Ġfacing":6675,"Ġ1880":6676,"Ġcircum":6677,"Ġlaunch":6678,"Ġresponsibility":6679,"Ġmotor":6680,"Ġmaintain":6681,"Ġextrem":6682,"Ġsafety":6683,"Ġinhabit":6684,"Ġhabitat":6685,"ĠColumbia":6686,"Ġportrayed":6687,"ĠSpring":6688,"ĠIguan":6689,"ban":6690,"min":6691,"oly":6692,"ta":6693,"Ġcorp":6694,"Ġpy":6695,"Ġdin":6696,"Ġhits":6697,"ĠTam":6698,"adal":6699,"ĠRem":6700,"ĠRoy":6701,"ĠLoren":6702,"Ġvary":6703,"ĠInc":6704,"ardo":6705,"Ġnoting":6706,"Ġoffers":6707,"Ġattributed":6708,"Ġgameplay":6709,"Ġretreat":6710,"Ġsomeone":6711,"Ġquite":6712,"Ġspecifically":6713,"Ġaddress":6714,"Ġ176":6715,"ĠCaribbe":6716,"Ġdetail":6717,"Ġcrime":6718,"Ġsolid":6719,"Ġdestroyers":6720,"Ġdiscovery":6721,"Ġrevolution":6722,"Ġindustrial":6723,"Ġembassy":6724,"Ġmeasures":6725,"ĠDepression":6726,"Ġcredited":6727,"Ġrecovered":6728,"Ġthousands":6729,"Ġinstrument":6730,"ĠModern":6731,"ĠMacLeod":6732,"eenth":6733,"iÄĩ":6734,"mod":6735,"Ġsquad":6736,"Ġworth":6737,"Ġcrown":6738,"ĠTs":6739,"ĠTetr":6740,"ĠSav":6741,"ĠSquare":6742,"ĠCas":6743,"Ġlov":6744,"ĠBat":6745,"Ġgross":6746,"ĠHun":6747,"ĠHere":6748,"ussion":6749,"ĠNether":6750,"ĠGil":6751,"estone":6752,"allow":6753,"Ġplants":6754,"ĠUlys":6755,"Ġshut":6756,"ĠStew":6757,"ĠChains":6758,"Ġju":6759,"intend":6760,"Ġwealth":6761,"raltar":6762,"Ġflo":6763,"Ġaccur":6764,"aza":6765,"Ġ1949":6766,"Ġcontinuing":6767,"Ġleads":6768,"Ġcarrying":6769,"Ġoccurs":6770,"Ġ1951":6771,"Ġ1956":6772,"Ġwindow":6773,"ĠBrook":6774,"ĠPerry":6775,"Ġpatron":6776,"Ġcompetitions":6777,"Äģn":6778,"Ġrecognition":6779,"Ġseparated":6780,"going":6781,"Ġdiscussed":6782,"ĠHoly":6783,"Ġvessels":6784,"Ġyounger":6785,"ĠSecretary":6786,"ĠGibraltar":6787,"Ġworst":6788,"unicipal":6789,"ĠCaribbean":6790,"ĠUlysses":6791,"eper":6792,"ients":6793,"know":6794,"ns":6795,"tty":6796,"Ġcard":6797,"Ġfranch":6798,"Ġbal":6799,"Ġinner":6800,"Ġpsych":6801,"ĠAy":6802,"Ġlit":6803,"amber":6804,"ĠMaster":6805,"ĠHospital":6806,"ĠDaily":6807,"ceived":6808,"ĠJersey":6809,"agu":6810,"agues":6811,"avia":6812,"ĠEdu":6813,"Ġshore":6814,"Ġcommitted":6815,"Ġ79":6816,"Ġpool":6817,"Ġflat":6818,"Ġ123":6819,"Ġstudied":6820,"Ġdescribing":6821,"Ġapproached":6822,"Ġopponents":6823,"Ġerected":6824,"Ġdifficulty":6825,"ĠDuke":6826,"Ġpredecess":6827,"iffe":6828,"Ġrules":6829,"Ġveget":6830,"ĠMoz":6831,"Ġindicate":6832,"ĠArchae":6833,"ĠSenate":6834,"ĠCritical":6835,"Ġconstitution":6836,"ĠHistoric":6837,"Ġdismissed":6838,"Ġearthquake":6839,"Ġpenalty":6840,"oh":6841,"rations":6842,"ÅĤ":6843,"Ġfit":6844,"ician":6845,"ĠAround":6846,"ĠAston":6847,"Ġthin":6848,"Ġeighth":6849,"ĠMah":6850,"ĠImp":6851,"ivals":6852,"ĠPerson":6853,"ĠPagan":6854,"ĠRio":6855,"aked":6856,"ĠStory":6857,"ĠStarr":6858,"ĠChan":6859,"ountain":6860,"Ġaftern":6861,"Ġ67":6862,"ĠAnonymous":6863,"Ġ88":6864,"Ġamphib":6865,"Ġaccused":6866,"ĠShow":6867,"Ġ1983":6868,"Ġdesignation":6869,"ossible":6870,"inking":6871,"erva":6872,"Ġwinner":6873,"ĠForces":6874,"Ġattempting":6875,"Ġorganizations":6876,"Ġbasin":6877,"Ġbasic":6878,"Ġdemol":6879,"Ġconvoy":6880,"ĠRecording":6881,"Ġcrosses":6882,"Ġhosted":6883,"Ġcreator":6884,"Ġbrothers":6885,"ĠOde":6886,"Ġapart":6887,"ĠCampb":6888,"ĠOlympics":6889,"Ġmethods":6890,"ĠGeorgian":6891,"Ġpicked":6892,"Ġastron":6893,"Ġrecommended":6894,"Ġrhyth":6895,"Ġduties":6896,"ĠHornung":6897,"Ġceremony":6898,"Ġacademic":6899,"Ġsudden":6900,"var":6901,"zz":6902,"rec":6903,"orer":6904,"Ġfant":6905,"Ġhang":6906,"Ġlic":6907,"aments":6908,"ĠMemorial":6909,"othes":6910,"ĠWy":6911,"ĠLess":6912,"aga":6913,"istol":6914,"Ġvan":6915,"Ġunn":6916,"ender":6917,"Ġdesire":6918,"Ġmanner":6919,"Ġsecured":6920,"oba":6921,"Ġretained":6922,"Ġregime":6923,"Ġ112":6924,"Ġ1961":6925,"Ġappearing":6926,"Ġcamps":6927,"Ġstarred":6928,"Ġbelieves":6929,"ĠTelevision":6930,"Ġstrongly":6931,"Ġreality":6932,"Ġstatement":6933,"ĠSimps":6934,"Ġdivisions":6935,"Ġcharts":6936,"Ġinterested":6937,"ĠTownship":6938,"Ġmissed":6939,"stitution":6940,"Ġfrig":6941,"Ġblocks":6942,"Ġexception":6943,"Ġfavorite":6944,"Ġemerged":6945,"Ġdollars":6946,"Ġchallenge":6947,"Ġbattleships":6948,"Ġleadership":6949,"ĠFantasy":6950,"Ġatmosphere":6951,"ĠAML":6952,"Ġisolated":6953,"Ġphilosoph":6954,"ĠFrancisco":6955,"ĠChelsea":6956,"Ġextremely":6957,"ĠSimpsons":6958,"gÃ©":6959,"key":6960,"nic":6961,"nell":6962,"ooth":6963,"Ġwedding":6964,"aton":6965,"orters":6966,"Ġinland":6967,"inger":6968,"ĠCru":6969,"Ġgal":6970,"igation":6971,"Ġstones":6972,"ĠDota":6973,"ĠFame":6974,"Ġalleg":6975,"Ġconqu":6976,"ĠGore":6977,"rif":6978,"oca":6979,"ĠKurt":6980,"ensus":6981,"Ġoutf":6982,"Ġpregn":6983,"Ġhighlight":6984,"Ġoperating":6985,"Ġprovince":6986,"Ġadvis":6987,"Ġbreaking":6988,"ĠOrgan":6989,"ĠOrder":6990,"ĠAmb":6991,"Ġstands":6992,"Ġconvin":6993,"Ġequipped":6994,"Ġholds":6995,"Ġsuperior":6996,"Ġintensified":6997,"Ġaccounts":6998,"Ġtribes":6999,"Ġassistant":7000,"ĠPatrick":7001,"ĠCambridge":7002,"Ġrarely":7003,"Ġprincipal":7004,"Ġironclads":7005,"Ġthirty":7006,"Ġdiameter":7007,"Ġunusual":7008,"Ġparallel":7009,"ĠPhoen":7010,"ĠTetrarch":7011,"Ġafternoon":7012,"VN":7013,"aft":7014,"cement":7015,"pret":7016,"zen":7017,"ĪĴ":7018,"organ":7019,"Ġfal":7020,"Ġfish":7021,"Ġbes":7022,"Ġble":7023,"ĠAld":7024,"elly":7025,"Ġeu":7026,"uri":7027,"aya":7028,"ĠPatt":7029,"ĠDi":7030,"ĠDisc":7031,"ĠDesc":7032,"ĠJenn":7033,"ĠEc":7034,"ĠElect":7035,"ĠKat":7036,"ĠKil":7037,"ĠâĪĴ":7038,"Ġshif":7039,"Ġshots":7040,"ĠStation":7041,"Ġintention":7042,"Ġoverw":7043,"Ġprey":7044,"Ġteaching":7045,"Ġdefended":7046,"Ġregional":7047,"Ġdoct":7048,"Ġcarved":7049,"Ġpassage":7050,"ĠPlot":7051,"Ġanniversary":7052,"Ġ1910":7053,"Ġreviewer":7054,"ĠPrime":7055,"Ġcovers":7056,"Ġcriminal":7057,"ĠTrack":7058,"Ġvictims":7059,"ĠRomani":7060,"ĠMountains":7061,"ĠHaiti":7062,"ĠHamilton":7063,"ĠMadonna":7064,"Ġnomination":7065,"ĠMaeda":7066,"Ġforests":7067,"ĠEngineer":7068,"ĠWriting":7069,"iplom":7070,"Ġexpedition":7071,"ĠConstantine":7072,"ĠHibari":7073,"Ġobtained":7074,"ĠHindu":7075,"LI":7076,"gie":7077,"ois":7078,"ruli":7079,"wise":7080,"yard":7081,"Ġtheatre":7082,"real":7083,"atures":7084,"ori":7085,"anth":7086,"Ġbond":7087,"Ġbaby":7088,"Ġpushed":7089,"Ġpuzz":7090,"Ġdie":7091,"ĠSports":7092,"ĠCam":7093,"oming":7094,"Ġnob":7095,"acent":7096,"Ġgall":7097,"ĠRÃ©":7098,"ĠRangers":7099,"ĠNC":7100,"ĠGang":7101,"Ġvision":7102,"ateur":7103,"ables":7104,"abled":7105,"earch":7106,"Ġspacing":7107,"oked":7108,"Ġpartly":7109,"Ġ99":7110,"ockey":7111,"Ġretire":7112,"Ġverse":7113,"Ġentry":7114,"Ġsym":7115,"Ġtransition":7116,"Ġpassengers":7117,"ception":7118,"ĠBeach":7119,"ĠQedar":7120,"Ġclasses":7121,"Ġapproved":7122,"Ġvisible":7123,"Ġmedieval":7124,"attered":7125,"istered":7126,"Ġwatch":7127,"Ġseeing":7128,"Ġsettle":7129,"Ġimprove":7130,"ĠQueens":7131,"Ġimmediate":7132,"glades":7133,"Ġattracted":7134,"senal":7135,"evo":7136,"ĠPeninsula":7137,"ĠMassachus":7138,"ĠIndustry":7139,"ĠVenus":7140,"Ġremnants":7141,"ĠFriends":7142,"ĠMassachusetts":7143,"body":7144,"cape":7145,"ext":7146,"point":7147,"Ġic":7148,"Ġsession":7149,"Ġwick":7150,"Ġfitted":7151,"Ġmart":7152,"lete":7153,"ĠTrib":7154,"ĠCape":7155,"ĠPot":7156,"ĠFront":7157,"osure":7158,"Ġproceed":7159,"ĠChronic":7160,"ogether":7161,"Ġreconnaissance":7162,"ultane":7163,"Ġparties":7164,"ĠUnlike":7165,"Ġdefences":7166,"Ġwhereas":7167,"Ġincome":7168,"Ġindig":7169,"Ġ1977":7170,"Ã©t":7171,"quez":7172,"ĠAbb":7173,"Ġtwelve":7174,"Ġelectric":7175,"ĠEliz":7176,"Ġequal":7177,"Ġadmitted":7178,"ucky":7179,"ĠRepublican":7180,"ĠOslo":7181,"ĠSingles":7182,"Ġhotel":7183,"ĠIndependent":7184,"Ġironclad":7185,"ĠWeekly":7186,"ĠRoger":7187,"Ġsurvivors":7188,"ĠIguanodon":7189,"FC":7190,"aug":7191,"fare":7192,"lan":7193,"math":7194,"pective":7195,"worth":7196,"Ġsed":7197,"isis":7198,"ĠTu":7199,"ĠCB":7200,"ĠChen":7201,"amar":7202,"Ġnav":7203,"Ġnone":7204,"Ġgather":7205,"ima":7206,"imal":7207,"Ġconvers":7208,"ewhat":7209,"anti":7210,"ocal":7211,"Ġplain":7212,"acked":7213,"cles":7214,"cliffe":7215,"Ġoffense":7216,"Ġupd":7217,"ĠAsh":7218,"Ġacknow":7219,"Ġ05":7220,"Ġ06":7221,"Ġpublisher":7222,"Ġdistribution":7223,"Ġreturns":7224,"Ġ1955":7225,"Ġ1937":7226,"aurus":7227,"Ġdriving":7228,"Ġcommunities":7229,"iterranean":7230,"Ġpainted":7231,"Ġpromote":7232,"Ġconnection":7233,"Ġsuffering":7234,"Ġfalling":7235,"ĠMediterranean":7236,"Ġcivilian":7237,"Ġseemed":7238,"Ġwithdrew":7239,"Ġcompletion":7240,"ASA":7241,"Ġfeeling":7242,"ĠHotel":7243,"ĠSamuel":7244,"ĠBradford":7245,"Ġrescue":7246,"Ġarrested":7247,"Ġutil":7248,"Ġarrangement":7249,"ĠMongol":7250,"ĠRolling":7251,"Ġexpansion":7252,"ĠFrederick":7253,"OC":7254,"bur":7255,"rast":7256,"va":7257,"wa":7258,"onica":7259,"Ġcul":7260,"Ġcart":7261,"Ġcinem":7262,"Ġbrick":7263,"eline":7264,"Ġninth":7265,"ĠMain":7266,"urrent":7267,"ĠHug":7268,"uses":7269,"ĠPict":7270,"verse":7271,"ĠDNA":7272,"ĠFish":7273,"ĠGully":7274,"Ġvac":7275,"Ġvide":7276,"Ġraces":7277,"Ġrugby":7278,"ĠInit":7279,"abeth":7280,"angerous":7281,"Ġpreced":7282,"ĠAnc":7283,"Ġshear":7284,"Ġcharter":7285,"Ġfollowers":7286,"Ġindicated":7287,"Ġ07":7288,"Ġdepos":7289,"Ġsigning":7290,"Ġcarbon":7291,"Ġwarm":7292,"Ġimplement":7293,"ĠDeath":7294,"Ġoppos":7295,"Ġlegs":7296,"Ġcloser":7297,"Ġregularly":7298,"Ġframe":7299,"Ġthreatened":7300,"ĠMaryland":7301,"ĠMontana":7302,"ĠTerrit":7303,"ĠEverglades":7304,"ĠJerusal":7305,"Ġdrums":7306,"ĠHuman":7307,"Ġemotional":7308,"Ġspecimens":7309,"ĠMorrison":7310,"Ġmushroom":7311,"ĠRoxas":7312,"ĠLorenzo":7313,"ĠJerusalem":7314,"bles":7315,"dal":7316,"Ġske":7317,"Ġwrong":7318,"Ġpup":7319,"ĠTel":7320,"ĠSher":7321,"ĠSup":7322,"ĠMul":7323,"urd":7324,"ĠBank":7325,"using":7326,"ĠPan":7327,"ĠPower":7328,"Ġhear":7329,"ĠNBC":7330,"ĠNerva":7331,"rage":7332,"ĠLab":7333,"ctions":7334,"ĠJun":7335,"Ġanth":7336,"Ġrum":7337,"Ġorn":7338,"Ġpartners":7339,"Ġimpl":7340,"amps":7341,"Ġassumed":7342,"Ġcoord":7343,"ĠLev":7344,"inson":7345,"Ġmonuments":7346,"Ġnoisy":7347,"ĠMaya":7348,"Ġ1954":7349,"ĠAdams":7350,"Ġpointed":7351,"Ġ1938":7352,"Ġ1927":7353,"iveness":7354,"ĠStef":7355,"Ġmarks":7356,"ĠEddie":7357,"Ġcirculation":7358,"Ġcollaps":7359,"Ġtreaty":7360,"Ġscholar":7361,"hews":7362,"ĠGeorgia":7363,"Ġcontroversial":7364,"ĠSomali":7365,"Ġalternative":7366,"ĠTruj":7367,"Ġeasily":7368,"Ġeggs":7369,"Ġsomewhat":7370,"30":7371,"iary":7372,"ni":7373,"Ã¸":7374,"Ġtaught":7375,"Ġworship":7376,"oral":7377,"itals":7378,"Ġbay":7379,"Ġmap":7380,"Ġhall":7381,"lease":7382,"entional":7383,"ĠCE":7384,"amic":7385,"Ġnick":7386,"oli":7387,"Ġgard":7388,"Ġforcing":7389,"igg":7390,"Ġstead":7391,"Ġstreak":7392,"ĠPope":7393,"ĠNintend":7394,"rapped":7395,"rien":7396,"Ġaged":7397,"Ġenfor":7398,"Ġsoil":7399,"Ġmonarch":7400,"Ġ178":7401,"Ġ1962":7402,"ĠProf":7403,"Ġdriven":7404,"Ġdestruction":7405,"Ġdebate":7406,"Ġposted":7407,"Ġinvolving":7408,"ĠAngle":7409,"Ġarmour":7410,"Ġnovels":7411,"Ġstrip":7412,"ĠRoberts":7413,"Ġ1870":7414,"Ġdrawing":7415,"Ġsurrounded":7416,"Ġabsor":7417,"Ġpurchase":7418,"Ġshells":7419,"Ġcamera":7420,"Ġinstitutions":7421,"Ġromantic":7422,"Ġdocumentary":7423,"Ġfranchise":7424,"ĠMozamb":7425,"ĠTrujillo":7426,"ĠNintendo":7427,"20":7428,"cements":7429,"ker":7430,"ris":7431,"rich":7432,"Ġur":7433,"Ġsnow":7434,"Ġocean":7435,"orous":7436,"itated":7437,"Ġcitiz":7438,"Ġfaces":7439,"Ġbed":7440,"Ġbones":7441,"icate":7442,"icide":7443,"Ġdivers":7444,"Ġdream":7445,"Ġdiplom":7446,"Ġhope":7447,"lets":7448,"ĠBang":7449,"ĠISB":7450,"ĠHong":7451,"uts":7452,"Ġstadium":7453,"ĠRain":7454,"emed":7455,"ĠFlow":7456,"ĠNar":7457,"ĠOwen":7458,"Ġexisted":7459,"Ġexha":7460,"range":7461,"ĠThird":7462,"Ġjazz":7463,"ĠAniston":7464,"Ġfled":7465,"ĠShak":7466,"itsune":7467,"Ġdepend":7468,"Ġestate":7469,"ĠUSS":7470,"Ġinstalled":7471,"ĠCarter":7472,"Ġconcerts":7473,"Ġ1958":7474,"Ġstorms":7475,"Ġmedium":7476,"ĠFlight":7477,"aska":7478,"Ġcatch":7479,"ĠHarry":7480,"autiful":7481,"Ġsequel":7482,"Ġrailway":7483,"Ġterritories":7484,"ĠJean":7485,"Ġvoted":7486,"Ġstayed":7487,"Ġbringing":7488,"Ġbadly":7489,"ĠCastle":7490,"munition":7491,"ĠRhodesian":7492,"Ġcandidate":7493,"ĠArgentina":7494,"Ġfungus":7495,"Ġsubmarine":7496,"Ġunsuccessful":7497,"Ġrestaurant":7498,"Ġpyram":7499,"bishop":7500,"Ã§":7501,"Ġtie":7502,"inally":7503,"rees":7504,"Ġwants":7505,"enburg":7506,"Ġfold":7507,"Ġpric":7508,"ĠTig":7509,"ĠAR":7510,"ĠSap":7511,"ĠSonic":7512,"ĠCab":7513,"amm":7514,"ĠBos":7515,"iday":7516,"otic":7517,"ĠHay":7518,"ĠRom":7519,"ĠDC":7520,"ĠDur":7521,"ĠDiv":7522,"ĠDanny":7523,"iform":7524,"Ġproport":7525,"Ġrecalled":7526,"Ġpartial":7527,"Ġpartially":7528,"Ġconsum":7529,"Ġconsult":7530,"Ġ86":7531,"Ġammunition":7532,"Ġ08":7533,"Ġ121":7534,"Ġentitled":7535,"Ġpreserved":7536,"Ġextension":7537,"Ġdistributed":7538,"ĠPlunk":7539,"Ġ140":7540,"ĠBeat":7541,"Ġclassic":7542,"Ġskull":7543,"Ġlimit":7544,"Ġsettled":7545,"ĠActivision":7546,"Ġaccommod":7547,"Ġreduce":7548,"ĠKorea":7549,"Ġtraveled":7550,"Ġmulti":7551,"ĠPrior":7552,"Ġconcerned":7553,"Ġlinked":7554,"Ġhoped":7555,"ĠDesign":7556,"claimed":7557,"Ġmessage":7558,"ĠLisa":7559,"ĠIsabella":7560,"ĠLennon":7561,"ĠISBN":7562,"kh":7563,"rative":7564,"Ġtone":7565,"Ġsulf":7566,"Ġpage":7567,"ashed":7568,"Ġdock":7569,"ĠTower":7570,"Ġlap":7571,"ĠBranch":7572,"ĠFair":7573,"ĠNaval":7574,"ĠKen":7575,"ĠKong":7576,"Ġkings":7577,"ĠâĢĳ":7578,"ĠStrand":7579,"Ġspin":7580,"apa":7581,"ĠVII":7582,"Ġcontext":7583,"Ġrecre":7584,"Ġrecru":7585,"Ġupgraded":7586,"weet":7587,"ternal":7588,"Ġsongwrit":7589,"Ġrelative":7590,"Ġ127":7591,"ĠUSD":7592,"Ġdesigns":7593,"ĠGermans":7594,"ennis":7595,"Ġbright":7596,"Ġ1959":7597,"Ġpossession":7598,"Ġcovering":7599,"Ġeffectively":7600,"ĠEarl":7601,"Ġfootage":7602,"Ġprogramme":7603,"ĠCalvert":7604,"ĠFederal":7605,"Ġtreated":7606,"offman":7607,"Ġrenew":7608,"Ġengineering":7609,"Ġgrav":7610,"Ġinjured":7611,"ĠPlayer":7612,"Ġbombard":7613,"Ġproducts":7614,"Ġinvestigation":7615,"Ġratings":7616,"ĠRyan":7617,"Ġagricultural":7618,"ĠConstruction":7619,"Ġresources":7620,"AC":7621,"bb":7622,"cation":7623,"gra":7624,"Ġels":7625,"Ġtick":7626,"onia":7627,"Ġsell":7628,"itian":7629,"arning":7630,"Ġloyal":7631,"Ġet":7632,"Ġgro":7633,"ĠHud":7634,"Ġstreets":7635,"ĠPul":7636,"Ġalle":7637,"ĠWhere":7638,"ĠLanc":7639,"Ġansw":7640,"Ġorchest":7641,"ĠKansas":7642,"Ġplane":7643,"ĠStock":7644,"Ġserial":7645,"teenth":7646,"arked":7647,"Ġacts":7648,"Ġreleg":7649,"Ġinterpret":7650,"ajevo":7651,"ĠBeauty":7652,"Ġclassical":7653,"Ġprotests":7654,"Ġrefers":7655,"ĠMuslim":7656,"Ġreviewers":7657,"Ġengines":7658,"Ġvictories":7659,"Ġmeetings":7660,"Ġidentity":7661,"Ġinspiration":7662,"Ġfunds":7663,"Ġescort":7664,"Ġcruiser":7665,"Ġcolonies":7666,"Ġhappy":7667,"ĠResearch":7668,"Ġloan":7669,"Ġdegrees":7670,"ĠSarajevo":7671,"ĠSomalia":7672,"Ġwearing":7673,"Ġapparently":7674,"Ġchemical":7675,"Ġincorporated":7676,"Ġoverseas":7677,"Ġresistance":7678,"ĠNetherlands":7679,"Ġelsewhere":7680,"iy":7681,"iour":7682,"night":7683,"oom":7684,"vention":7685,"wich":7686,"yer":7687,"Ġau":7688,"Ġfine":7689,"Ġblow":7690,"Ġbone":7691,"rose":7692,"ĠTest":7693,"ĠTreat":7694,"ĠSa":7695,"ĠSab":7696,"ĠCult":7697,"ĠBal":7698,"union":7699,"ĠFern":7700,"ĠNow":7701,"ĠGun":7702,"ĠJif":7703,"Ġprohib":7704,"Ġsees":7705,"udes":7706,"ĠKaw":7707,"Ġchronic":7708,"ĠUr":7709,"ĠUt":7710,"Ġlearning":7711,"ellite":7712,"ĠVice":7713,"ignment":7714,"Ġagree":7715,"enses":7716,"ensis":7717,"inton":7718,"Ġ900":7719,"Ġrelie":7720,"Ġ09":7721,"Ġexposed":7722,"rows":7723,"uchi":7724,"Ġbelt":7725,"ĠWho":7726,"Ġimpossible":7727,"ĠBlood":7728,"Ġgenerated":7729,"Ġmodified":7730,"Ġdetailed":7731,"Ġelabor":7732,"Ġlowest":7733,"Ġequivalent":7734,"Ġchanging":7735,"Ġarmored":7736,"Ġlooked":7737,"Ġrelationships":7738,"Ġreveals":7739,"Ġmerch":7740,"Ġabsence":7741,"Ġsatis":7742,"ĠVeronica":7743,"ĠYankovic":7744,"ĠDestiny":7745,"ĠNorman":7746,"ĠStanley":7747,"Ġoccasions":7748,"Ġrhythm":7749,"Ġeurop":7750,"Ġvideos":7751,"bra":7752,"hol":7753,"iÅ":7754,"wan":7755,"à¤":7756,"ĠÅ":7757,"Ġsight":7758,"Ġow":7759,"arth":7760,"anning":7761,"Ġdens":7762,"ĠTon":7763,"Ġrepr":7764,"Ġlies":7765,"ĠBad":7766,"otton":7767,"Ġash":7768,"ĠPass":7769,"ĠRugby":7770,"ĠDie":7771,"ĠDark":7772,"chang":7773,"ĠNak":7774,"ĠLabor":7775,"agi":7776,"agas":7777,"Ġray":7778,"Ġselection":7779,"uda":7780,"Ġexchange":7781,"ureau":7782,"Ġappropri":7783,"Ġafterwards":7784,"ĠYour":7785,"ĠComb":7786,"Ġ165":7787,"Ġminister":7788,"ĠIslam":7789,"Ġoffices":7790,"ĠAdam":7791,"Ġ1935":7792,"Ġrestored":7793,"Ġ1929":7794,"Ġwestward":7795,"Ġdivine":7796,"Ġlanguages":7797,"Ġ1860":7798,"Ġburned":7799,"Ġpractices":7800,"Ġtransportation":7801,"Ġstationed":7802,"Ġtribute":7803,"ĠDonald":7804,"ĠVictorian":7805,"Ġrequested":7806,"Ġchalleng":7807,"Ġmoral":7808,"Ġextreme":7809,"Ġadults":7810,"ĠClarkson":7811,"ĠDemocratic":7812,"Ġencouraged":7813,"Ġprotagonist":7814,"ĠBeckham":7815,"Ġcongreg":7816,"Ġinhabitants":7817,"Ġopposite":7818,"Ġalleged":7819,"Brien":7820,"rates":7821,"ugh":7822,"wick":7823,"á»":7824,"orial":7825,"Ġcry":7826,"isp":7827,"ingale":7828,"Ġpin":7829,"ĠTok":7830,"ĠAP":7831,"entures":7832,"ĠCR":7833,"ĠCory":7834,"Ġliber":7835,"Ġonline":7836,"emia":7837,"ĠDyn":7838,"ĠLords":7839,"ifer":7840,"ĠKim":7841,"Ġleuk":7842,"ĠChannel":7843,"Ġcloth":7844,"Ġmovements":7845,"Ġenters":7846,"annah":7847,"Ġoperate":7848,"Ġ1911":7849,"Ġ1932":7850,"Ġ1921":7851,"Ġstandards":7852,"Ġdeliber":7853,"Ġsuggesting":7854,"Ġ1909":7855,"Ġreading":7856,"Ġpraise":7857,"Ġgenre":7858,"Ġmountains":7859,"Ġdifficulties":7860,"ĠÃĹ":7861,"Ġhappened":7862,"ĠRadcliffe":7863,"ĠEvery":7864,"Ġemerg":7865,"Ġunderstand":7866,"Ġaccompany":7867,"iques":7868,"Ġvessel":7869,"Ġyoungest":7870,"ĠWilde":7871,"Ġpanel":7872,"Ġadjacent":7873,"Ġassassination":7874,"ĠSkye":7875,"ĠAthletic":7876,"Ġritual":7877,"ĠJifna":7878,"vements":7879,"Ġå":7880,"Ġille":7881,"hered":7882,"reme":7883,"Ġsunk":7884,"Ġsiege":7885,"aled":7886,"ilation":7887,"otype":7888,"Ġstable":7889,"Ġheat":7890,"ĠFound":7891,"ĠFras":7892,"Ġalien":7893,"ĠLower":7894,"Ġrated":7895,"aste":7896,"ĠChang":7897,"Ġconsol":7898,"Ġactual":7899,"Ġenth":7900,"ĠAustrian":7901,"Ġtrail":7902,"Ġexpensive":7903,"ĠIndones":7904,"Ġcrest":7905,"Ġinfrast":7906,"Ġbrig":7907,"Ġannually":7908,"Ġ1912":7909,"encing":7910,"Ġdefeating":7911,"spec":7912,"Ġready":7913,"ĠKevin":7914,"Ġpredomin":7915,"Ġrepresenting":7916,"avalry":7917,"Ġburial":7918,"ĠRussia":7919,"ĠWilson":7920,"Ġensure":7921,"Ġvisitors":7922,"Ġjudge":7923,"Ġhundreds":7924,"ĠConfeder":7925,"Ġthrone":7926,"Ġpreparation":7927,"Ġcustom":7928,"ĠGrammy":7929,"ĠElizabeth":7930,"Hg":7931,"uv":7932,"yo":7933,"Ġsam":7934,"Ġsqu":7935,"Ġsessions":7936,"Ġbrand":7937,"Ġpure":7938,"Ġpale":7939,"icit":7940,"leton":7941,"elle":7942,"Ġgone":7943,"terbury":7944,"usad":7945,"ĠProm":7946,"Ġcomments":7947,"Ġvul":7948,"Ġexit":7949,"Ġexcess":7950,"Ġshark":7951,"ĠStra":7952,"apse":7953,"Ġintense":7954,"Ġresumed":7955,"Ġtele":7956,"Ġraid":7957,"Ġraise":7958,"Ġforming":7959,"Ġwritings":7960,"Ġmuscar":7961,"Ġ122":7962,"ĠWarren":7963,"Ġpoll":7964,"Ġcarri":7965,"Ġowner":7966,"Ġmusicians":7967,"ĠProg":7968,"Ġ1931":7969,"ĠGuy":7970,"Ġwilling":7971,"ĠCanterbury":7972,"espe":7973,"Ġclaiming":7974,"Ġelse":7975,"itarian":7976,"Ġcycle":7977,"Ġinfluential":7978,"Ġgrounds":7979,"Ġcoup":7980,"Ġinterests":7981,"ĠPalace":7982,"ĠMexican":7983,"Ġrebels":7984,"Ġinjuries":7985,"itzer":7986,"Ġmaterials":7987,"Ġgrey":7988,"Ġabsol":7989,"ĠLawrence":7990,"Ġnormally":7991,"Ġessential":7992,"Ġpurposes":7993,"ĠBurns":7994,"Ġdisappoint":7995,"ĠClassic":7996,"Ġmemory":7997,"Ġexecuted":7998,"Ġfixed":7999,"ĠBanai":8000,"Ġchairman":8001,"Ġstere":8002,"Ġeuropium":8003,"AT":8004,"DS":8005,"aired":8006,"sch":8007,"zac":8008,"Ã±":8009,"Ġib":8010,"Ġoption":8011,"Ġfram":8012,"ĠinHg":8013,"illy":8014,"ĠMack":8015,"ĠBed":8016,"ĠBass":8017,"ĠBron":8018,"ĠBah":8019,"ira":8020,"otal":8021,"owitz":8022,"ĠPine":8023,"uls":8024,"Ġalter":8025,"Ġdeleg":8026,"ĠâĤ":8027,"Ġshipping":8028,"Ġspaces":8029,"Ġunion":8030,"Ġherd":8031,"Ġteach":8032,"formation":8033,"ĠComple":8034,"Ġsubst":8035,"Ġformally":8036,"ĠReal":8037,"Ġsurpr":8038,"Ġminimum":8039,"Ġobl":8040,"Ġcarries":8041,"Ġcargo":8042,"Ġairline":8043,"Ġtwin":8044,"ĠPoland":8045,"ombat":8046,"Ġwatching":8047,"Ġmixture":8048,"Ġrevol":8049,"Ġrecognised":8050,"Ġclearly":8051,"Ġobjective":8052,"Ġvote":8053,"ĠNorway":8054,"Ġwatershed":8055,"Ġturrets":8056,"ĠProtest":8057,"Ġspecimen":8058,"Ġlbw":8059,"Ġbulk":8060,"ĠColeman":8061,"Ġresidential":8062,"Ġinitiative":8063,"ĠJesus":8064,"Ġoverwhel":8065,"ĠShakespe":8066,"ĠShakespeare":8067,"fire":8068,"nal":8069,"rinth":8070,"Å«":8071,"Ġtack":8072,"Ġtight":8073,"heim":8074,"heme":8075,"Ġtheater":8076,"Ġsons":8077,"Ġinaug":8078,"aling":8079,"alog":8080,"ĠTechn":8081,"ĠTyphoon":8082,"ĠSem":8083,"ĠSand":8084,"ĠSweet":8085,"sta":8086,"Ġeasy":8087,"utz":8088,"ĠDick":8089,"ĠFel":8090,"ĠNL":8091,"ĠNeb":8092,"ĠWolf":8093,"rawn":8094,"ĠGoffman":8095,"ĠJoy":8096,"Ġorb":8097,"ĠChampion":8098,"ĠAlong":8099,"Ġenh":8100,"Ġevil":8101,"Ġformal":8102,"Ġ02":8103,"Ġtrained":8104,"Ġ161":8105,"ĠGerard":8106,"ĠJohnston":8107,"Ġobst":8108,"Ġinstall":8109,"Ġinstance":8110,"Ġprevented":8111,"ossal":8112,"Ġsimultane":8113,"ĠMega":8114,"Ġ1933":8115,"ĠHergÃ©":8116,"ĠGeoff":8117,"Ġtemples":8118,"Ġwindows":8119,"Ġavo":8120,"ĠSupp":8121,"ĠPolice":8122,"Ġneeds":8123,"ÃŃvar":8124,"Ġargues":8125,"ĠAgain":8126,"Ġkingdom":8127,"Ġobjects":8128,"abyrinth":8129,"Ġautom":8130,"Ġcheck":8131,"Ġjournal":8132,"ĠJaneiro":8133,"Ġreinforcements":8134,"ĠBolÃŃvar":8135,"Ġcomposer":8136,"criptions":8137,"Ġdoubt":8138,"Ġpicture":8139,"ĠJournal":8140,"Ġsegment":8141,"Ġpreferred":8142,"ĠJacob":8143,"ĠCambodia":8144,"Ġglobal":8145,"Ġcircumstances":8146,"Ġconvinced":8147,"ĠKilmer":8148,"ĠQueensland":8149,"ĠSaprang":8150,"CC":8151,"OK":8152,"after":8153,"cribed":8154,"eo":8155,"oes":8156,"Ġtip":8157,"Ġturb":8158,"erog":8159,"Ġsailed":8160,"rous":8161,"Ġmask":8162,"Ġmunicipal":8163,"ĠTro":8164,"ĠSn":8165,"urst":8166,"ĠBudd":8167,"ĠBureau":8168,"emies":8169,"ĠWard":8170,"ĠWimb":8171,"ĠLang":8172,"ĠJMA":8173,"ifies":8174,"Ġprol":8175,"Ġdeemed":8176,"Ġplate":8177,"iang":8178,"ishment":8179,"uez":8180,"ĠHearts":8181,"Ġrooms":8182,"ĠAlb":8183,"Ġdesert":8184,"Ġ84":8185,"ekÄģn":8186,"ledon":8187,"Ġextent":8188,"ĠClinton":8189,"Ġanyone":8190,"axon":8191,"ĠMcG":8192,"Ġperiods":8193,"Ġlisting":8194,"Ġcauses":8195,"Ġmyst":8196,"Ġrepresents":8197,"Ġsurvive":8198,"coming":8199,"Ġrebell":8200,"Ġrepresentative":8201,"ĠMedia":8202,"ĠKoreans":8203,"ĠMoore":8204,"ĠLawton":8205,"Ġadopt":8206,"Ġmoments":8207,"ĠBCE":8208,"oirs":8209,"ĠJustice":8210,"Ġinternal":8211,"Ġdisplays":8212,"Ġinteraction":8213,"ĠNazi":8214,"Ġdeparture":8215,"ĠGarc":8216,"Ġnarrative":8217,"ĠPalestine":8218,"uppet":8219,"Ġtravelled":8220,"Ġdialogue":8221,"Ġproposal":8222,"eorological":8223,"ĠProfess":8224,"ĠFraser":8225,"ĠWimbledon":8226,"MO":8227,"gets":8228,"mat":8229,"Ê»":8230,"Ġsoul":8231,"Ġcreek":8232,"icity":8233,"Ġhip":8234,"ilty":8235,"ĠCelt":8236,"Ġlibrary":8237,"acle":8238,"urse":8239,"ĠBark":8240,"ĠHob":8241,"ĠHarrison":8242,"Ġbearing":8243,"ĠLet":8244,"rik":8245,"rior":8246,"rift":8247,"uster":8248,"Ġago":8249,"Ġoutl":8250,"rene":8251,"Ġtex":8252,"inals":8253,"Ġfeed":8254,"ĠMarg":8255,"ĠLead":8256,"Ġextrat":8257,"Ġdiscip":8258,"Ġbridges":8259,"Ġprompted":8260,"Ġrestoration":8261,"Ġportrait":8262,"ĠChristopher":8263,"Ġstarling":8264,"Ġbases":8265,"Ġdemand":8266,"Ġformerly":8267,"ĠXe":8268,"Ġinfluences":8269,"Ġcriticised":8270,"Ġrounds":8271,"Ġdevot":8272,"Ġpersu":8273,"Ġpoorly":8274,"ĠRichardson":8275,"ĠMalays":8276,"Ġtowers":8277,"Ġobservations":8278,"Ġdramatic":8279,"ĠDelaware":8280,"ĠFormula":8281,"Ġthrowing":8282,"Ġdefenders":8283,"Ġarchitecture":8284,"Ġthousand":8285,"Ġinstruments":8286,"Ġlegislation":8287,"ĠOriginally":8288,"Ġcompounds":8289,"Ġbehaviour":8290,"Ġtactics":8291,"ĠGuardian":8292,"Ġethnic":8293,"Ġdelayed":8294,"Ġdecorated":8295,"Ġreconstruction":8296,"Ġimprison":8297,"ĠEducation":8298,"Ġacknowled":8299,"Ġextratropical":8300,"bound":8301,"burn":8302,"dess":8303,"dney":8304,"mel":8305,"zi":8306,"Ġtrick":8307,"inery":8308,"Ġciting":8309,"enous":8310,"icul":8311,"Ġdiet":8312,"ĠSb":8313,"ilst":8314,"ĠCob":8315,"ĠThen":8316,"ĠBell":8317,"olith":8318,"ĠHind":8319,"uscript":8320,"Ġstood":8321,"ĠDak":8322,"Ġconsequ":8323,"ĠNCA":8324,"ĠWing":8325,"osl":8326,"osm":8327,"ĠEp":8328,"ĠOur":8329,"ategy":8330,"ĠKy":8331,"ĠKombat":8332,"ĠUpper":8333,"oven":8334,"Ġjunction":8335,"Ġpoets":8336,"Ġ92":8337,"Ġremember":8338,"ĠSee":8339,"obile":8340,"Ġdefending":8341,"Ġregiment":8342,"roscop":8343,"ificial":8344,"Ġ03":8345,"Ġseverely":8346,"athers":8347,"Ġsmooth":8348,"ullen":8349,"ĠManagement":8350,"Ġuseful":8351,"Ġmodels":8352,"Ġphr":8353,"Ġconsiders":8354,"Ġstrategy":8355,"ĠCanal":8356,"Ġpossess":8357,"Ġorganised":8358,"Ġtemporary":8359,"Ġengage":8360,"ĠRecord":8361,"Ġelectronic":8362,"Ġarrive":8363,"Ġdivor":8364,"ĠKeamy":8365,"Ġvillages":8366,"ĠAtlanta":8367,"Ġcrews":8368,"ĠBerlin":8369,"Ġbiography":8370,"enesis":8371,"Ġthinking":8372,"Ġestablishing":8373,"Ġproperties":8374,"Ġfeelings":8375,"Ġdocuments":8376,"Ġjournalist":8377,"Ġunderstanding":8378,"Ġpursue":8379,"ĠAdminist":8380,"ĠCathedral":8381,"ĠMortal":8382,"Ġrebuilt":8383,"Ġsubstantial":8384,"ĠHitler":8385,"Ġnickn":8386,"ĠFernand":8387,"van":8388,"Ġrib":8389,"Ġtailed":8390,"inating":8391,"Ġsisters":8392,"Ġcars":8393,"Ġbon":8394,"roit":8395,"ĠSuch":8396,"Ġlie":8397,"Ġnom":8398,"ĠMach":8399,"idation":8400,"ĠHou":8401,"Ġstock":8402,"ĠRest":8403,"thosaurus":8404,"ĠNichol":8405,"ĠWright":8406,"rabs":8407,"ĠGary":8408,"ĠEle":8409,"Ġsure":8410,"ĠVi":8411,"Ġwheel":8412,"Ġresigned":8413,"Ġagents":8414,"ricted":8415,"overs":8416,"Ġattained":8417,"Ġconsc":8418,"ĠArj":8419,"Ġinterpre":8420,"Ġamateur":8421,"Ġ162":8422,"atherine":8423,"Ġartwork":8424,"Ġcounties":8425,"uthor":8426,"Ġ1957":8427,"Ġ1928":8428,"Ġtrading":8429,"Ġcompete":8430,"ĠMinor":8431,"ĠMinistry":8432,"Ġtechniques":8433,"Ġdoesn":8434,"Ġsequences":8435,"Ġengineer":8436,"Ġachieve":8437,"ĠFIA":8438,"ĠArabic":8439,"Ġcorner":8440,"Ġencountered":8441,"Ġneighbor":8442,"ĠSilver":8443,"ĠRajne":8444,"Ġwarships":8445,"Ġtunnel":8446,"ĠAlbums":8447,"ĠDetroit":8448,"Ġfalse":8449,"ĠPlunketts":8450,"ĠCorythosaurus":8451,"book":8452,"dale":8453,"fl":8454,"hl":8455,"mate":8456,"nings":8457,"pent":8458,"rim":8459,"uable":8460,"water":8461,"wald":8462,"Ġbor":8463,"Ġbom":8464,"ĠAz":8465,"ĠSoon":8466,"Ġlists":8467,"oma":8468,"ĠMand":8469,"ĠMother":8470,"Ġwasn":8471,"ĠBa":8472,"olay":8473,"ĠHed":8474,"Ġbeautiful":8475,"ĠDal":8476,"ĠFall":8477,"ĠNatives":8478,"ĠWrestling":8479,"ĠLamb":8480,"ĠJr":8481,"ĠâĢľ":8482,"ipe":8483,"Ġspr":8484,"Ġspoke":8485,"apore":8486,"Ġunlike":8487,"rupted":8488,"Ġclock":8489,"Ġclimate":8490,"Ġrecur":8491,"Ġotherwise":8492,"Ġoutbreak":8493,"inder":8494,"ĠUnivers":8495,"ĠAnzac":8496,"Ġpoison":8497,"Ġquant":8498,"Ġ125":8499,"Ġsymp":8500,"rams":8501,"Ġ166":8502,"Ġ155":8503,"Ġnorthward":8504,"Ġguilty":8505,"ĠAllah":8506,"Ġeleven":8507,"Ġprompt":8508,"Ġtriple":8509,"Ġ1926":8510,"incess":8511,"Ġcrisis":8512,"Ġoriginated":8513,"Ġarmament":8514,"Ġreaders":8515,"ĠOlm":8516,"Ġfuner":8517,"ĠPalmy":8518,"Ġcondem":8519,"Ġaudiences":8520,"ĠJews":8521,"Ġcivilians":8522,"Ġbiographer":8523,"Ġengineers":8524,"Ġfrust":8525,"Ġtribut":8526,"Ġdetermine":8527,"Ġdepicts":8528,"ĠSingapore":8529,"Ġsatellite":8530,"Ġinnov":8531,"rorist":8532,"Ġindicating":8533,"Ġschedule":8534,"Ġexperiences":8535,"Ġsafe":8536,"ĠDefence":8537,"Ġdemonstrated":8538,"Ġremarked":8539,"hua":8540,"ĠExpress":8541,"ĠMarlborough":8542,"Ġpyramid":8543,"Ġinfrastructure":8544,"erogative":8545,"pe":8546,"western":8547,"Ġsq":8548,"orph":8549,"Ġfault":8550,"Ġfestival":8551,"Ġpack":8552,"Ġrect":8553,"Ġrender":8554,"ĠSin":8555,"ĠCec":8556,"ĠCass":8557,"Ġlose":8558,"elin":8559,"ĠMes":8560,"ĠBath":8561,"ĠBorn":8562,"Ġgarrison":8563,"irid":8564,"ĠPA":8565,"ĠDave":8566,"ĠLink":8567,"Ġprove":8568,"Ġrivers":8569,"Ġorbit":8570,"Ġkitsune":8571,"Ġnotably":8572,"usts":8573,"Ġclimb":8574,"Ġscattered":8575,"Ġpartner":8576,"Ġplayoff":8577,"Ġoutp":8578,"ĠSeason":8579,"ologies":8580,"Ġassisted":8581,"Ġ101":8582,"Ġwarning":8583,"Ġimpressed":8584,"Ġdescribe":8585,"isms":8586,"ĠPlat":8587,"Ġ1934":8588,"Ġrefuge":8589,"ĠMcD":8590,"Ġdifferences":8591,"Ġsky":8592,"Ġlooks":8593,"ĠChampionships":8594,"Ġtests":8595,"Ġclosest":8596,"Ġ1850":8597,"Ġinformed":8598,"Ġburning":8599,"ĠCorporation":8600,"Ġoccupation":8601,"Ġdrove":8602,"ĠFei":8603,"Ġweapon":8604,"Ġphotograph":8605,"Ġevacuation":8606,"Ġgraphics":8607,"Ġtouchdowns":8608,"ĠMiller":8609,"Ġranging":8610,"ĠUlt":8611,"ĠPitman":8612,"ĠGallery":8613,"Ġvoiced":8614,"Ġbehavior":8615,"ĠNevertheless":8616,"ĠBaseball":8617,"ĠRicky":8618,"ĠPhillies":8619,"Ġpredecessor":8620,"ĠTerritory":8621,"ĠSupreme":8622,"ĠStefani":8623,"ĠGarcÃŃa":8624,"EC":8625,"cru":8626,"friend":8627,"har":8628,"hist":8629,"hire":8630,"lock":8631,"life":8632,"rants":8633,"vious":8634,"Ġax":8635,"Ġsad":8636,"Ġsale":8637,"Ġwine":8638,"Ġori":8639,"Ġban":8640,"Ġbord":8641,"Ġpine":8642,"Ġmoon":8643,"Ġmamm":8644,"Ġdiver":8645,"ĠTai":8646,"Ġlat":8647,"Ġlanes":8648,"ĠMuch":8649,"ĠBou":8650,"ivan":8651,"ivated":8652,"oto":8653,"ĠHom":8654,"ĠHok":8655,"ĠHaving":8656,"utt":8657,"Ġstyl":8658,"ĠRa":8659,"ĠRu":8660,"ĠRace":8661,"ĠDig":8662,"Ġconclusion":8663,"ĠNetwork":8664,"ĠWic":8665,"ĠWeb":8666,"Ġvast":8667,"Ġrates":8668,"oceratops":8669,"iped":8670,"Ġuniform":8671,"oko":8672,"ĠHend":8673,"Ġresidence":8674,"ricts":8675,"Ġjun":8676,"Ġmanuscript":8677,"Ġcanc":8678,"Ġcharged":8679,"Ġcooper":8680,"Ġsupporters":8681,"ĠShik":8682,"Ġsurg":8683,"Ġreprodu":8684,"ĠShel":8685,"Ġgenerals":8686,"Ġmusician":8687,"Ġconsidering":8688,"Ġtrials":8689,"apped":8690,"Ġparish":8691,"Ġtempor":8692,"Ġopponent":8693,"alky":8694,"Ġelections":8695,"Ġterrain":8696,"Ġfactors":8697,"ĠEvent":8698,"ĠGlob":8699,"ĠMonument":8700,"Ġliked":8701,"Ġgoddess":8702,"ĠSydney":8703,"Ġranking":8704,"Ġrailroad":8705,"ĠOverall":8706,"Ġcleared":8707,"ĠFIFA":8708,"Ġsuspended":8709,"ĠEnterprise":8710,"Ġprepare":8711,"Ġdisplayed":8712,"Ġvehicle":8713,"Ġranges":8714,"Ġscientific":8715,"Ġbatsman":8716,"Ġmoderate":8717,"Ġmartial":8718,"ĠInitially":8719,"Ġcollapsed":8720,"ĠTreaty":8721,"species":8722,"SP":8723,"boy":8724,"gam":8725,"ji":8726,"xual":8727,"za":8728,"Ġsaved":8729,"Ġwrest":8730,"Ġfoss":8731,"Ġfishing":8732,"alf":8733,"Ġdangerous":8734,"acter":8735,"ĠMoon":8736,"ĠBush":8737,"ĠBaker":8738,"Ġgar":8739,"usic":8740,"ĠRaff":8741,"ĠFurt":8742,"Ġalt":8743,"ĠNob":8744,"ĠWomen":8745,"ĠLinc":8746,"osh":8747,"ĠJT":8748,"ĠEight":8749,"Ġprosp":8750,"ocy":8751,"ĠKann":8752,"Ġspur":8753,"Ġresign":8754,"Ġabund":8755,"Ġscheme":8756,"ensions":8757,"Ġimperial":8758,"Ġteen":8759,"ĠUntil":8760,"rible":8761,"away":8762,"Ġearning":8763,"Ġamino":8764,"Ġ105":8765,"Ġexposure":8766,"Ġmainland":8767,"Ġoperates":8768,"Ġlandings":8769,"ĠGuide":8770,"Ġrestrict":8771,"Ġdeter":8772,"apping":8773,"Ġ1000":8774,"Ġdemands":8775,"Ġbands":8776,"Ã¡r":8777,"Ġsituated":8778,"Ġsteep":8779,"ĠCooper":8780,"Ġhousing":8781,"Ġlayer":8782,"Ġhunting":8783,"ĠLegacy":8784,"Ġspiritual":8785,"ĠCaes":8786,"Ġpremiere":8787,"ĠMcCarty":8788,"ĠOhio":8789,"ĠAlfred":8790,"Ġexclusively":8791,"ĠPersian":8792,"ĠAerith":8793,"ĠGilbert":8794,"ĠCBS":8795,"Ġpupils":8796,"ĠHudson":8797,"ĠOlmec":8798,"WC":8799,"lie":8800,"ng":8801,"no":8802,"rating":8803,"inian":8804,"inations":8805,"reck":8806,"Ġsaves":8807,"Ġfill":8808,"Ġbell":8809,"Ġmode":8810,"Ġrevers":8811,"ĠSid":8812,"ĠSull":8813,"Ġninet":8814,"acles":8815,"urday":8816,"Ġgiant":8817,"ĠHope":8818,"uty":8819,"Ġstyles":8820,"ĠNear":8821,"ĠLast":8822,"Ġanaly":8823,"agogue":8824,"odore":8825,"ĠEy":8826,"Ġrig":8827,"Ġsuit":8828,"Ġsuitable":8829,"ĠKrak":8830,"ruz":8831,"Ġcontribution":8832,"Ġdisaster":8833,"ĠYug":8834,"Ġcancer":8835,"ĠRelease":8836,"Ġ01":8837,"Ġfounder":8838,"Ġexpect":8839,"azines":8840,"Ġconstant":8841,"Ġorganisation":8842,"Ġexplo":8843,"Ġcrash":8844,"Ġstatistics":8845,"Ġinteresting":8846,"rapy":8847,"Ġcollapse":8848,"Ġruling":8849,"Ġcosts":8850,"Ġrespective":8851,"ĠMarkgra":8852,"Ġperspective":8853,"Ġsubjects":8854,"ĠGrade":8855,"Ġdispat":8856,"ĠCampaign":8857,"ĠPortugal":8858,"Ġbiggest":8859,"Ġsoutheastern":8860,"Ġcelebrated":8861,"Ġopportunities":8862,"Ġstruggle":8863,"ĠFurthermore":8864,"ĠSaturday":8865,"Ġneutral":8866,"Ġstriking":8867,"Ġpremiered":8868,"ĠSwedish":8869,"ĠDominican":8870,"inje":8871,"Ġtrouble":8872,"Ġrifle":8873,"Ġcrops":8874,"Ġunderwent":8875,"Ġtemporarily":8876,"ĠRaffles":8877,"ĠFurtado":8878,"ĠJTWC":8879,"ĠMarkgraf":8880,"NL":8881,"power":8882,"piece":8883,"ti":8884,"time":8885,"zing":8886,"Ġtrough":8887,"Ġtenth":8888,"Ġfert":8889,"arant":8890,"Ġbanned":8891,"asters":8892,"Ġhull":8893,"Ġhuge":8894,"ĠTan":8895,"ĠTal":8896,"ĠCO":8897,"ĠCome":8898,"Ġlake":8899,"Ġnit":8900,"Ġnations":8901,"ecraft":8902,"Ġgets":8903,"Ġgrown":8904,"ĠPow":8905,"ĠPier":8906,"ĠRen":8907,"ĠDAG":8908,"ulating":8909,"ĠLith":8910,"ĠGa":8911,"ĠGen":8912,"ersed":8913,"oda":8914,"ewise":8915,"udo":8916,"Ġchamber":8917,"ĠUsta":8918,"ĠâĢĿ":8919,"ĠStu":8920,"ĠValky":8921,"Ġattrib":8922,"ĠArk":8923,"Ġcharity":8924,"Ġprerogative":8925,"Ġformat":8926,"Ġhighways":8927,"ĠSholay":8928,"tenance":8929,"Ġdepending":8930,"Ġ115":8931,"Ġrepair":8932,"ervative":8933,"ĠAllen":8934,"onto":8935,"Ġrefere":8936,"Ġparas":8937,"Ġdifference":8938,"Ġlisten":8939,"shore":8940,"Ġrealized":8941,"Ġelectron":8942,"Ġmagazines":8943,"Ġerr":8944,"ĠSimpson":8945,"osaurs":8946,"Ġrenov":8947,"Ġmeasured":8948,"Ġresearchers":8949,"Ġviolent":8950,"Ġtruck":8951,"ĠYears":8952,"ĠSocial":8953,"Ġdominant":8954,"Ġamounts":8955,"ĠInterstate":8956,"Ġfavorable":8957,"ĠHeadquarters":8958,"Ġproductions":8959,"iliar":8960,"Ġoxy":8961,"ĠCorb":8962,"Ġelevation":8963,"Ġwithdrawal":8964,"Ġencounter":8965,"Ġsucceed":8966,"ĠHawaii":8967,"Ġseeking":8968,"Ġadvertising":8969,"Ġeliminated":8970,"ĠNHL":8971,"Ġconspiracy":8972,"ĠStewart":8973,"ĠCampbell":8974,"Ġretirement":8975,"ĠMozambique":8976,"Ġmuscaria":8977,"ĠNCAA":8978,"ĠArjona":8979,"ĠUstaÅ¡":8980,"DH":8981,"box":8982,"don":8983,"ean":8984,"egr":8985,"mouth":8986,"vati":8987,"Ľni":8988,"Ġtiss":8989,"Ġwings":8990,"orious":8991,"Ġtoll":8992,"icus":8993,"Ġmbar":8994,"Ġdwar":8995,"ĠCy":8996,"omic":8997,"Ġeat":8998,"ĠMun":8999,"ĠBoys":9000,"Ġgam":9001,"idel":9002,"ĠHamp":9003,"ĠHans":9004,"owiec":9005,"Ġbear":9006,"Ġhem":9007,"ĠNiel":9008,"ĠNash":9009,"ĠWander":9010,"ĠWiÅ":9011,"Ġanch":9012,"ĠEst":9013,"ĠExt":9014,"Ġvice":9015,"ongs":9016,"Ġexists":9017,"ryce":9018,"Ġclim":9019,"ĠThus":9020,"pled":9021,"Ġmanga":9022,"Ġpref":9023,"ints":9024,"inds":9025,"Ġweigh":9026,"Ġsubspecies":9027,"Ġprime":9028,"Ġreleases":9029,"ĠAustria":9030,"Ġnumbered":9031,"Ġ113":9032,"Ġdirectors":9033,"Ġdesigner":9034,"Ġadvancing":9035,"ĠDean":9036,"Ġcharacterized":9037,"Ġpromised":9038,"Ġpublications":9039,"Ġclassification":9040,"ĠMcL":9041,"ĠMcM":9042,"Ġchildhood":9043,"Ġdriver":9044,"Ġexplains":9045,"Ġcommunications":9046,"Ġeveryone":9047,"Ġelder":9048,"Ġfreedom":9049,"Ġprofile":9050,"ĠBarry":9051,"Ġ1908":9052,"Ġputting":9053,"ĠPhilip":9054,"ĠMaggie":9055,"Ġcyclones":9056,"Ġemployees":9057,"Ġwithdrawn":9058,"Ġnominations":9059,"ĠToronto":9060,"ĠSchm":9061,"Ġharbour":9062,"Ġcruisers":9063,"Ġfrequent":9064,"ĠIsraeli":9065,"Ġaspect":9066,"Ġinstitution":9067,"ĠCommunist":9068,"Ġcolumns":9069,"ĠWatson":9070,"ĠGraves":9071,"ĠBelgium":9072,"Ġfatal":9073,"ĠHungarian":9074,"Ġdistinguished":9075,"Ġstrategic":9076,"ĠNapole":9077,"Ġdrug":9078,"ĠHeavyweight":9079,"Ġjackrab":9080,"ĠLabour":9081,"Ġcitizens":9082,"ĠProtestant":9083,"ĠBarker":9084,"ĠLincol":9085,"ĠSullivan":9086,"ĠYugosl":9087,"Ġdwarf":9088,"Pa":9089,"itively":9090,"Ġchess":9091,"enic":9092,"Ġbod":9093,"ĠAT":9094,"ĠSans":9095,"ellect":9096,"ecution":9097,"ĠBab":9098,"ĠBoss":9099,"ĠBenn":9100,"olis":9101,"Ġbears":9102,"Ġbeauty":9103,"ĠRaw":9104,"unes":9105,"ĠWag":9106,"ĠGate":9107,"ĠEagle":9108,"aks":9109,"aku":9110,"ĠUFC":9111,"Ġshaft":9112,"geon":9113,"Ġspac":9114,"Ġspend":9115,"Ġspores":9116,"ishn":9117,"Ġenemies":9118,"Ġcenters":9119,"eping":9120,"Ġfeud":9121,"ĠArsenal":9122,"Ġsubmitted":9123,"Ġpeaking":9124,"Ġcoins":9125,"Ġthereafter":9126,"arsh":9127,"Ġ163":9128,"Ġmetre":9129,"Ġ117":9130,"ĠConc":9131,"Ġairfield":9132,"ashi":9133,"Ġguerr":9134,"Ġrestricted":9135,"Ġslide":9136,"ĠParaly":9137,"ĠParvati":9138,"Ġ1923":9139,"urricanes":9140,"Ġinitiated":9141,"Ġdrain":9142,"Ġstrongest":9143,"ĠTracy":9144,"ĠPerform":9145,"Ġskills":9146,"ĠPolit":9147,"Ġ1905":9148,"Ġsounds":9149,"ĠGlad":9150,"oof":9151,"Ġfalls":9152,"ĠHills":9153,"ĠRocky":9154,"Ġbusinesses":9155,"ĠBusiness":9156,"ĠTurks":9157,"ĠMrs":9158,"Ġtargets":9159,"ĠBuilding":9160,"Ġbatteries":9161,"ĠDerry":9162,"Ġconcentrated":9163,"Ġholiday":9164,"Ġexcavation":9165,"Ġaggressive":9166,"Ġemphasis":9167,"ĠBulgar":9168,"Ã¶n":9169,"Ġcemetery":9170,"Ġassembled":9171,"Ġbenefit":9172,"Ġstrengthened":9173,"ĠOrganization":9174,"ĠPhoenix":9175,"ĠRÃ©union":9176,"ĠAncient":9177,"ekÄģntav":9178,"Ġtexts":9179,"Ľniowiec":9180,"ĠWiÅĽniowiec":9181,"ĠParalymp":9182,"cour":9183,"gov":9184,"mont":9185,"nie":9186,"yc":9187,"heera":9188,"atur":9189,"isler":9190,"asm":9191,"Ġtopped":9192,"Ġmines":9193,"Ġhorn":9194,"ĠAA":9195,"ĠAce":9196,"ĠSk":9197,"adier":9198,"urance":9199,"ĠBrand":9200,"Ġstrict":9201,"Ġhearing":9202,"ĠRoth":9203,"Ġalive":9204,"Ġaltered":9205,"ĠWisc":9206,"ĠGro":9207,"ĠGwen":9208,"ĠJason":9209,"aints":9210,"ĠEaton":9211,"Ġcomed":9212,"aki":9213,"ĠKelly":9214,"essee":9215,"ĠStaff":9216,"asts":9217,"Ġyield":9218,"oster":9219,"Ġunlik":9220,"Ġjury":9221,"Ġfeels":9222,"ĠAsian":9223,"Ġdecides":9224,"onsin":9225,"Ġartificial":9226,"Ġdistricts":9227,"Ġinscription":9228,"Ġinscriptions":9229,"ĠPlan":9230,"Ã©e":9231,"Ġvariation":9232,"Ġgray":9233,"Ġlatex":9234,"raction":9235,"Ġstarlings":9236,"Ġbelieving":9237,"Ġcommunication":9238,"Ġamongst":9239,"Ġpatrol":9240,"ĠAnglo":9241,"Ġjoining":9242,"Ġarmoured":9243,"Ġradiation":9244,"ĠSym":9245,"Ġfifty":9246,"Ġfifteen":9247,"Ġtesting":9248,"Ġfallen":9249,"Ġasks":9250,"Ġhonour":9251,"ĠSlayer":9252,"Ġmerely":9253,"Ġfundament":9254,"Ġremoval":9255,"ĠKhand":9256,"ĠPoly":9257,"ĠTrail":9258,"Ġadaptation":9259,"Ġvotes":9260,"Ġboundary":9261,"Ġconversion":9262,"ĠTennessee":9263,"ĠCritics":9264,"Ġarchitectural":9265,"ĠRhodesia":9266,"ĠKirk":9267,"Ġdelivery":9268,"ĠMurray":9269,"ĠJonathan":9270,"Ġaimed":9271,"ropolitan":9272,"ĠKannada":9273,"ĠUstaÅ¡e":9274,"ekÄģntavÄģda":9275,"ĠWisconsin":9276,"jan":9277,"pan":9278,"taker":9279,"zed":9280,"rep":9281,"Ġsung":9282,"Ġwet":9283,"itia":9284,"Ġfate":9285,"Ġfasc":9286,"Ġfountain":9287,"Ġped":9288,"Ġdies":9289,"ĠCateg":9290,"amount":9291,"Ġnurse":9292,"ĠMidge":9293,"ĠMÃ¡r":9294,"ĠBulls":9295,"olen":9296,"otten":9297,"Ġstores":9298,"ĠDum":9299,"ĠFle":9300,"ĠFalls":9301,"char":9302,"ĠLost":9303,"ĠGray":9304,"Ġvault":9305,"Ġsuicide":9306,"ĠKam":9307,"Ġnotice":9308,"ĠVI":9309,"ĠVul":9310,"Ġintellect":9311,"Ġusage":9312,"achute":9313,"Ġapprec":9314,"ensively":9315,"Ġupset":9316,"inding":9317,"oyage":9318,"Ġconservation":9319,"Ġflash":9320,"Ġsubstitute":9321,"Ġentertain":9322,"Ġsurprise":9323,"Ġimpression":9324,"ennium":9325,"Ġgenera":9326,"Ġhelmet":9327,"Ġapproval":9328,"Ġ1925":9329,"Ġengagement":9330,"neath":9331,"Ġexpert":9332,"ĠPerfect":9333,"Ġarriving":9334,"ĠDavis":9335,"ĠNext":9336,"Ġpredators":9337,"atinum":9338,"Ġharm":9339,"Ġantiqu":9340,"Ġpotentially":9341,"Ġuncertain":9342,"Ġapplication":9343,"ĠHowe":9344,"Ġconflicts":9345,"Ġtalking":9346,"Ġdistinctive":9347,"Ġpounder":9348,"Ġdeparted":9349,"Ġsteps":9350,"Ġmagnitude":9351,"Ġenvironmental":9352,"Ġcomparison":9353,"ĠMasters":9354,"Ġtheatrical":9355,"ĠRailway":9356,"Ġpulled":9357,"Ġempire":9358,"Ġdemolished":9359,"Ġillegal":9360,"ĠFoundation":9361,"ĠRajneesh":9362,"ĠEventually":9363,"ĠStuart":9364,"ĠKhandoba":9365,"ĠCategory":9366,"ĠMÃ¡rquez":9367,"dress":9368,"jamin":9369,"ua":9370,"vor":9371,"yll":9372,"Ã£":9373,"Ġtub":9374,"nda":9375,"ester":9376,"ashes":9377,"Ġtoured":9378,"Ġtoler":9379,"Ġmir":9380,"Ġdense":9381,"Ġhills":9382,"Ġrend":9383,"ĠSM":9384,"ĠSS":9385,"ĠSle":9386,"Ġthrew":9387,"ĠCirc":9388,"omura":9389,"ami":9390,"Ġnet":9391,"Ġnavy":9392,"ĠMk":9393,"Ġongoing":9394,"ĠBacon":9395,"imer":9396,"Ġforty":9397,"ige":9398,"Ġhen":9399,"ĠRaid":9400,"unc":9401,"unch":9402,"ĠFRE":9403,"ĠNon":9404,"ĠGirls":9405,"ods":9406,"ĠEric":9407,"opl":9408,"Ġvs":9409,"illas":9410,"akers":9411,"arte":9412,"Ġchoir":9413,"ĠStories":9414,"iao":9415,"ĠVik":9416,"Ġrot":9417,"Ġpermission":9418,"Ġrecon":9419,"Ġdisagre":9420,"Ġencl":9421,"Ġevident":9422,"Ġpole":9423,"Ġ83":9424,"Ġtrust":9425,"Ġrelation":9426,"Ġcoinc":9427,"Ġcoaching":9428,"Ġmaintenance":9429,"Ġ114":9430,"Ġcompleting":9431,"Ġinflict":9432,"Ġeffic":9433,"Ġadvice":9434,"Ġadventure":9435,"Ġedges":9436,"ĠBeh":9437,"Ġconfront":9438,"Ġmarch":9439,"echism":9440,"Ġvisiting":9441,"Ġbreed":9442,"Ġhandled":9443,"Ġreferring":9444,"Ġarmies":9445,"Ġ1901":9446,"Ġfriendly":9447,"Ġwider":9448,"ĠHarv":9449,"Ġswim":9450,"ĠKeith":9451,"ĠSwiss":9452,"Ġreducing":9453,"ĠMadison":9454,"Ġcircle":9455,"Ġ1861":9456,"Ġsynagogue":9457,"Ġ1830":9458,"ĠPeters":9459,"ĠStudio":9460,"ĠBenjamin":9461,"ĠFrancis":9462,"chell":9463,"Ġ978":9464,"ĠReturn":9465,"ĠJourney":9466,"ĠVillage":9467,"ĠMcCartney":9468,"imetres":9469,"ĠJurchen":9470,"Ġhelicopters":9471,"ĠSimilarly":9472,"LIMO":9473,"Ġsettlements":9474,"ĠMulder":9475,"Ġemergency":9476,"Ġenthus":9477,"ĠProgram":9478,"ĠCeltic":9479,"ĠHouston":9480,"Ġunlikely":9481,"ĠFRELIMO":9482,"IA":9483,"PA":9484,"father":9485,"iac":9486,"mn":9487,"nels":9488,"vant":9489,"Ġid":9490,"Ġsang":9491,"Ġwel":9492,"atically":9493,"orage":9494,"Ġcaves":9495,"Ġcotton":9496,"Ġbanks":9497,"Ġinning":9498,"Ġpap":9499,"icia":9500,"Ġmac":9501,"Ġhook":9502,"ĠTree":9503,"ĠAuthor":9504,"ĠSour":9505,"ĠSout":9506,"ĠSAS":9507,"ĠCP":9508,"Ġgap":9509,"owa":9510,"ĠPC":9511,"Ġbeating":9512,"ĠDa":9513,"ĠNav":9514,"ĠLud":9515,"ĠEsh":9516,"oples":9517,"Ġrushing":9518,"Ġplus":9519,"Ġkit":9520,"ĠStal":9521,"Ġspending":9522,"ellar":9523,"ĠHealth":9524,"ĠThose":9525,"Ġoffs":9526,"angel":9527,"ĠOntar":9528,"osexual":9529,"Ġfeathers":9530,"Ġassess":9531,"Ġrecordings":9532,"anyon":9533,"ĠScully":9534,"yline":9535,"ieth":9536,"ieties":9537,"Ġ170":9538,"ernon":9539,"ĠSheff":9540,"Ġheaddress":9541,"Ġobtain":9542,"ĠColl":9543,"ĠGuine":9544,"Ġweekend":9545,"Ġstarring":9546,"Ġ1924":9547,"Ġcapturing":9548,"Ġnortheastern":9549,"Ġsimilarly":9550,"Ġpropag":9551,"Ġcontrols":9552,"ĠLeslie":9553,"Ġstructural":9554,"Ġ1907":9555,"ĠNev":9556,"Ġsumm":9557,"ĠMagn":9558,"Ġpriest":9559,"Ġcreative":9560,"ĠOscar":9561,"Ġnetworks":9562,"Ġkeeping":9563,"Ġdiagn":9564,"Ġbattleship":9565,"ĠOutstanding":9566,"Ġsecretary":9567,"ĠErnest":9568,"Ġpowered":9569,"Ġstrikeouts":9570,"ĠLouisiana":9571,"Ġmelody":9572,"ĠOriginal":9573,"Ġsacred":9574,"Ġceremon":9575,"Ġmobile":9576,"Ġvenues":9577,"Ġcollaboration":9578,"ĠRifles":9579,"Ġdefinition":9580,"Ġnegotiations":9581,"ĠObser":9582,"ĠMLB":9583,"Ġphilosophy":9584,"Ġelaborate":9585,"Ġsatisf":9586,"Ġsimultaneously":9587,"ĠCaesar":9588,"ĠLincoln":9589,"ĠWagner":9590,"Ġspacecraft":9591,"ĠWiÅĽniowiecki":9592,"ĠOntario":9593,"Ch":9594,"bre":9595,"fe":9596,"hang":9597,"nik":9598,"po":9599,"raska":9600,"tong":9601,"zhou":9602,"Ġtelling":9603,"itage":9604,"Ġcup":9605,"Ġcrake":9606,"Ġfro":9607,"Ġbran":9608,"Ġbare":9609,"alley":9610,"rols":9611,"Ġhidden":9612,"oux":9613,"ĠTit":9614,"ĠTogether":9615,"ĠSon":9616,"ĠSign":9617,"sters":9618,"ĠMem":9619,"ĠMall":9620,"ĠMaur":9621,"ĠBeth":9622,"iger":9623,"otyp":9624,"otilla":9625,"Ġbeats":9626,"ĠRap":9627,"ĠDD":9628,"cho":9629,"ĠNatural":9630,"estyle":9631,"Ġride":9632,"Ġsharp":9633,"iper":9634,"ogy":9635,"ĠVand":9636,"oken":9637,"endar":9638,"Ġperimeter":9639,"Ġremove":9640,"Ġ04":9641,"ĠAustro":9642,"Ġtrapped":9643,"Ġmeters":9644,"Ġpromin":9645,"Ġpersonality":9646,"Ġhanded":9647,"Ġanticip":9648,"Ġhelping":9649,"Ġbattlecru":9650,"umps":9651,"ĠMagdal":9652,"Ġvalues":9653,"ĠSwitzer":9654,"Ġfacility":9655,"Ġrocks":9656,"Ġlacked":9657,"Ġprofessor":9658,"Ġruler":9659,"ĠKhan":9660,"Ġdonated":9661,"Ġparticipate":9662,"ĠMeteorological":9663,"Ġ1840":9664,"Ġbombing":9665,"Ġpercentage":9666,"Ġbirthday":9667,"ĠTrek":9668,"Ġcredit":9669,"Ġjobs":9670,"Ġsculptures":9671,"Ġplatoon":9672,"ĠHugh":9673,"Ġnewspapers":9674,"Ġtasked":9675,"Ġturret":9676,"Ġstruggled":9677,"ĠMathews":9678,"ĠMatthew":9679,"Ġexcavations":9680,"Ġmanufactur":9681,"Ġwaiting":9682,"Ġscientists":9683,"Ġduty":9684,"ĠChapel":9685,"ĠBroadway":9686,"ĠSurvey":9687,"Ġvertical":9688,"ĠWalker":9689,"minster":9690,"Ġvegetation":9691,"Ġastronom":9692,"ocaust":9693,"ĠNaktong":9694,"ĠNebraska":9695,"olithic":9696,"ĠHokies":9697,"Ġsurgery":9698,"ES":9699,"Malley":9700,"eign":9701,"gas":9702,"rad":9703,"ski":9704,"uki":9705,"inction":9706,"Ġcake":9707,"Ġbrain":9708,"Ġinclusion":9709,"Ġtooth":9710,"Ġmemb":9711,"Ġmemor":9712,"oust":9713,"ĠTa":9714,"ĠTony":9715,"Ġreass":9716,"ĠAut":9717,"ĠABC":9718,"ĠSony":9719,"ĠCall":9720,"ĠCanyon":9721,"amer":9722,"aman":9723,"acre":9724,"ĠMit":9725,"ĠBible":9726,"ĠBarn":9727,"ĠBanks":9728,"ĠIan":9729,"etime":9730,"Ġgates":9731,"imented":9732,"iri":9733,"ĠHop":9734,"ayan":9735,"ĠPur":9736,"ĠFil":9737,"ĠFem":9738,"Ġconj":9739,"ĠGhost":9740,"Ġanime":9741,"umin":9742,"oded":9743,"Ġrid":9744,"ĠInvest":9745,"Ġshares":9746,"ĠChagas":9747,"Ġabol":9748,"active":9749,"overeign":9750,"phy":9751,"ĠAnne":9752,"Ġassembly":9753,"Ġcoin":9754,"Ġmonit":9755,"Ġexpression":9756,"Ġreceives":9757,"Ġextensively":9758,"Ġwarfare":9759,"Ġoperational":9760,"Ġmayor":9761,"Ġdiscussion":9762,"Ġsimpl":9763,"Ġrestore":9764,"ĠHerze":9765,"ĠChristians":9766,"Ġreflected":9767,"Ġcommandment":9768,"Ġparody":9769,"ĠWithout":9770,"ĠAbby":9771,"Ġconventional":9772,"ĠTrust":9773,"arris":9774,"Ġprofit":9775,"Ġcyt":9776,"ĠRegister":9777,"Ġprogramming":9778,"Ġshoulder":9779,"Ġgoods":9780,"ĠHarold":9781,"Ġrevised":9782,"ĠMagad":9783,"Ġcolleagues":9784,"Ġsupern":9785,"Ġsuperv":9786,"ĠActor":9787,"Ġ350":9788,"ĠEmmy":9789,"ĠAgency":9790,"Ġexcell":9791,"Ġgrave":9792,"ĠAngela":9793,"Ġdispute":9794,"Ġquarterback":9795,"Ġbowl":9796,"Ġtalks":9797,"Ġtournaments":9798,"Ġevacuated":9799,"Ġwalking":9800,"Ġtranslation":9801,"ĠFinals":9802,"ĠIndependence":9803,"Ġexhibition":9804,"Ġpounds":9805,"ĠKentucky":9806,"Ġneighb":9807,"Ġimagery":9808,"Ġexecution":9809,"ĠYankees":9810,"ĠChildren":9811,"ĠGiants":9812,"Ġvirtually":9813,"ĠMichel":9814,"Ġundertaken":9815,"ĠTransportation":9816,"Ġaccurate":9817,"ĠBrooks":9818,"amaru":9819,"ĠDakota":9820,"ĠShikamaru":9821,"ĠValkyria":9822,"ĠNielsen":9823,"ĠWanderers":9824,"govina":9825,"ĠSheffield":9826,"ĠSwitzerland":9827,"CO":9828,"EFA":9829,"NC":9830,"bing":9831,"ci":9832,"equ":9833,"gon":9834,"gars":9835,"ht":9836,"hum":9837,"kes":9838,"Ġtor":9839,"Ġtale":9840,"Ġaf":9841,"erg":9842,"Ġcave":9843,"enz":9844,"aria":9845,"Ġbra":9846,"Ġboss":9847,"Ġboys":9848,"Ġinfer":9849,"Ġdict":9850,"lee":9851,"ĠSant":9852,"ĠCond":9853,"Ġnurs":9854,"acruz":9855,"irates":9856,"ĠPryce":9857,"ĠRivers":9858,"ĠDog":9859,"ĠDram":9860,"ĠDiam":9861,"ĠFace":9862,"ĠLibrary":9863,"osom":9864,"illiant":9865,"Ġdeity":9866,"Ġrising":9867,"Ġracing":9868,"berry":9869,"ĠKit":9870,"Ġchrom":9871,"ĠUEFA":9872,"ĠStr":9873,"sex":9874,"ipes":9875,"Ġclin":9876,"ĠHeart":9877,"ĠHeaven":9878,"Ġresolution":9879,"enden":9880,"Ġroots":9881,"Ġmanip":9882,"Ġoffering":9883,"angular":9884,"Ġevolved":9885,"inted":9886,"Ġdecay":9887,"Ġretain":9888,"Ġsupplement":9889,"ahi":9890,"Ġobvious":9891,"Ġdiff":9892,"Ġinsurg":9893,"Ġweekly":9894,"Ġkills":9895,"Ġpersonally":9896,"Ġfewer":9897,"ĠPriv":9898,"ĠAbd":9899,"Ġpatrols":9900,"Ġcompeted":9901,"Ġfactory":9902,"ĠEvans":9903,"Ġtrend":9904,"Ġidentify":9905,"ĠMadrid":9906,"Ġclosing":9907,"Ġappointment":9908,"Ġmotif":9909,"Ġdevast":9910,"Ġgraves":9911,"Ġmachines":9912,"ĠÃī":9913,"Ġcontrad":9914,"ĠHolocaust":9915,"Ġ360":9916,"ĠPriest":9917,"ĠVeracruz":9918,"underst":9919,"Ġintersects":9920,"Ġtemperatures":9921,"ĠConservation":9922,"ĠWaterfall":9923,"Ġsquadrons":9924,"ĠCheval":9925,"Ġprisoners":9926,"Ġmechanical":9927,"ĠProvince":9928,"Ġaccomplish":9929,"ĠBertin":9930,"burgh":9931,"Ġappropriate":9932,"ĠTokyo":9933,"ĠHerzegovina":9934,"ĠMagadheera":9935,"ko":9936,"where":9937,"ËĪ":9938,"Ġtut":9939,"Ġtort":9940,"Ġwish":9941,"Ġwreck":9942,"atch":9943,"Ġcook":9944,"enged":9945,"enger":9946,"Ġfulf":9947,"aration":9948,"Ġbishop":9949,"Ġpion":9950,"Ġpace":9951,"Ġphen":9952,"Ġparent":9953,"asp":9954,"ĠTat":9955,"ĠTag":9956,"ĠAh":9957,"entle":9958,"Ġloud":9959,"Ġliqu":9960,"omtav":9961,"Ġforth":9962,"otte":9963,"ĠHave":9964,"usan":9965,"ĠPubl":9966,"ĠDub":9967,"ĠDah":9968,"una":9969,"Ġwhilst":9970,"Ġalph":9971,"ĠLas":9972,"ĠGirl":9973,"agen":9974,"resent":9975,"Ġveter":9976,"ĠIntern":9977,"ighters":9978,"ocation":9979,"ĠKu":9980,"Ġplacing":9981,"Ġyd":9982,"iney":9983,"ĠCharts":9984,"ogan":9985,"Ġcomponents":9986,"oking":9987,"okovic":9988,"Ġrouting":9989,"Ġperp":9990,"ultan":9991,"Ġagency":9992,"Ġovert":9993,"ĠYo":9994,"ĠYouth":9995,"Ġevolution":9996,"Ġfee":9997,"ĠAsomtav":9998,"Ġdecisions":9999,"ugu":10000,"ĠMars":10001,"ĠMarie":10002,"Ġproduces":10003,"Ġraising":10004,"Ġraids":10005,"Ġincom":10006,"Ġ129":10007,"ĠJoh":10008,"azirid":10009,"Ġorigins":10010,"ĠConstitution":10011,"Ġstring":10012,"Ġapproaching":10013,"Ġexplicit":10014,"Ġsentences":10015,"Ġopposing":10016,"eteries":10017,"ĠCountry":10018,"Ġtwent":10019,"Ġbehalf":10020,"Ġvictim":10021,"Ġsket":10022,"ĠWestminster":10023,"Ġsolar":10024,"Ġdestroyer":10025,"ĠScientologists":10026,"Ġadmin":10027,"ĠGlass":10028,"Ġrede":10029,"grad":10030,"Ġvalid":10031,"Ġfacil":10032,"Ġasking":10033,"Ġflooded":10034,"Ġreactions":10035,"Ġtransported":10036,"Ġmaintaining":10037,"Ġobjectives":10038,"ASP":10039,"ĠCongo":10040,"Ġcredits":10041,"Ġkilometers":10042,"Ġsevent":10043,"ĠDjokovic":10044,"ĠBooks":10045,"ĠCatechism":10046,"Ġinhab":10047,"Ġpatterns":10048,"Ġprinted":10049,"Ġpreparing":10050,"Ġflew":10051,"ĠOfficial":10052,"Ġwealthy":10053,"Ġfrigates":10054,"Ġproportion":10055,"Ġaccompanying":10056,"Ġbrigades":10057,"Ġinterpreted":10058,"Ġneighborhood":10059,"Ġdeterior":10060,"Ġoxygen":10061,"ĠNapoleon":10062,"ĠAsomtavruli":10063,"hous":10064,"Ġsample":10065,"eded":10066,"Ġwishes":10067,"Ġcous":10068,"Ġfles":10069,"esters":10070,"Ġtom":10071,"Ġtouring":10072,"rov":10073,"icians":10074,"Ġdust":10075,"Ġduration":10076,"Ġhosp":10077,"ĠhPa":10078,"ĠTNA":10079,"ĠAle":10080,"ĠAman":10081,"ĠSay":10082,"ĠSomet":10083,"ĠCred":10084,"adi":10085,"ĠMant":10086,"Ġonwards":10087,"Ġgirls":10088,"Ġstim":10089,"ĠRag":10090,"ĠDw":10091,"ĠDin":10092,"ĠDor":10093,"ĠDud":10094,"ĠNS":10095,"ĠNat":10096,"ĠLin":10097,"ĠLane":10098,"ĠJen":10099,"umented":10100,"ĠEug":10101,"ĠOmar":10102,"Ġvel":10103,"arded":10104,"ĠKin":10105,"ĠKon":10106,"Ġshift":10107,"ĠChampions":10108,"Ġunex":10109,"ĠVic":10110,"Ġcompens":10111,"Ġcomponent":10112,"Ġaboard":10113,"Ġdisband":10114,"ibl":10115,"ĠYellow":10116,"aceous":10117,"Ġenroll":10118,"Ġpretty":10119,"Ġcommenced":10120,"oyd":10121,"Ġdece":10122,"ĠMariana":10123,"Ġtrunk":10124,"obi":10125,"Ġrains":10126,"Ġcoff":10127,"Ġfourteen":10128,"Ġindeed":10129,"Ġ128":10130,"Ġrecept":10131,"Ġ118":10132,"Ġrepairs":10133,"emble":10134,"ĠShell":10135,"Ġsignal":10136,"Ġmathem":10137,"ĠCarre":10138,"Ġgovernments":10139,"Ġadvoc":10140,"Ġdams":10141,"yself":10142,"Ġcommanders":10143,"Ġeventual":10144,"Ġexplain":10145,"Ġ1922":10146,"Ġsoldier":10147,"Ġanthem":10148,"Ġexperiment":10149,"Ġordering":10150,"Ġtourist":10151,"Ġcommentary":10152,"Ġ1889":10153,"Ġrepresentation":10154,"Ġescaped":10155,"Ġhoused":10156,"ĠMetro":10157,"Ġdocumented":10158,"Ġarchaeologist":10159,"ĠPrize":10160,"Ġambassador":10161,"Ġceratops":10162,"Ġpolicies":10163,"Ġboxing":10164,"Ġessay":10165,"ĠCharlotte":10166,"Ġastero":10167,"Ġ766":10168,"Ġreinforced":10169,"Ġdisplaced":10170,"ĠJoshua":10171,"bourne":10172,"Ġrhyme":10173,"Ġuniversities":10174,"Ġhoriz":10175,"ĠImagine":10176,"Ġreforms":10177,"Ġvolunteers":10178,"ĠCubs":10179,"Ġhydrogen":10180,"Ġvicinity":10181,"Ġdubbed":10182,"Ġconversation":10183,"arthy":10184,"ĠIslamic":10185,"Ġclothing":10186,"Ġmystery":10187,"Ġphrase":10188,"ĠEshmun":10189,"ĠGuinea":10190,"60":10191,"ME":10192,"gian":10193,"rh":10194,"Ġï":10195,"Ġwors":10196,"aters":10197,"itter":10198,"Ġca":10199,"Ġchest":10200,"Ġcavalry":10201,"Ġinher":10202,"Ġmand":10203,"ĠSyn":10204,"ĠCant":10205,"ĠCyr":10206,"Ġlin":10207,"Ġlad":10208,"elson":10209,"Ġgat":10210,"imon":10211,"ĠHur":10212,"ĠPas":10213,"ĠPle":10214,"Ġbeam":10215,"emen":10216,"Ġbypass":10217,"ĠNi":10218,"ĠNDH":10219,"ĠLim":10220,"aguchi":10221,"Ġvital":10222,"Ġrushed":10223,"ocent":10224,"ĠKings":10225,"Ġplatinum":10226,"Ġshorter":10227,"ĠStav":10228,"astra":10229,"ova":10230,"Ġspots":10231,"class":10232,"Ġcomprom":10233,"Ġcompilation":10234,"orks":10235,"Ġattorney":10236,"Ġfeeding":10237,"ĠSev":10238,"ĠSeven":10239,"Ġcanal":10240,"Ġassert":10241,"Ġpeoples":10242,"Ġbuy":10243,"Ġacids":10244,"Ġintercept":10245,"ĠLeigh":10246,"Ġpublishing":10247,"aho":10248,"Ġartistic":10249,"Ġrunners":10250,"ĠBlu":10251,"ĠBlues":10252,"Ġsixteen":10253,"Ġedited":10254,"Ġcharacteristic":10255,"ĠHerald":10256,"ĠHeritage":10257,"byter":10258,"ometric":10259,"Ġmarry":10260,"Ġapproaches":10261,"ungle":10262,"Ġhumor":10263,"incial":10264,"Ġlegit":10265,"Ġ240":10266,"ĠXenon":10267,"aughters":10268,"ĠCentre":10269,"ĠRomanian":10270,"Ġaffili":10271,"Ġpresentation":10272,"Ġreader":10273,"ĠExper":10274,"ĠFederation":10275,"Ġredes":10276,"Ġconnecting":10277,"ĠMorgan":10278,"ĠMcCarthy":10279,"Ġanimated":10280,"Ġtested":10281,"Ġclosure":10282,"Ġindustries":10283,"ĠPeach":10284,"Ġpoetic":10285,"legraph":10286,"Ġblocked":10287,"Ġdepicting":10288,"ĠInterchange":10289,"Ġobservation":10290,"ĠRobinson":10291,"Ġboundaries":10292,"ĠSpecies":10293,"ĠFinally":10294,"Ġchampionships":10295,"Ġadministrative":10296,"Ġaggreg":10297,"ĠColumbus":10298,"Ġtimber":10299,"Ġadvertis":10300,"Ġcomprised":10301,"Ġhamlet":10302,"ĠWorks":10303,"ropolis":10304,"Ġsolely":10305,"Ġdisturbance":10306,"Ġcemeteries":10307,"Ġsubsid":10308,"Ġchoose":10309,"ĠLeonard":10310,"ĠSorra":10311,"Ġbalance":10312,"Ġsuddenly":10313,"ĠAmbassador":10314,"ĠDescription":10315,"Ġindigenous":10316,"Ġvulner":10317,"ĠWicca":10318,"ĠNevada":10319,"ĠChevaliers":10320,"fly":10321,"mates":10322,"tic":10323,"inces":10324,"Ġsized":10325,"Ġsitting":10326,"aro":10327,"Ġbore":10328,"Ġpse":10329,"Ġpull":10330,"Ġpages":10331,"Ġhi":10332,"ĠSau":10333,"ĠSection":10334,"stal":10335,"ĠCad":10336,"ĠCress":10337,"Ġlamb":10338,"lyn":10339,"ĠBald":10340,"ĠBuck":10341,"Ġgang":10342,"Ġgift":10343,"ĠPam":10344,"ĠPak":10345,"ĠPrest":10346,"ĠFif":10347,"ĠFreak":10348,"Ġisot":10349,"ĠNu":10350,"ĠNett":10351,"ĠWelling":10352,"ĠLocal":10353,"ĠGaz":10354,"ĠJard":10355,"ĠEconom":10356,"ĠOw":10357,"Ġseas":10358,"Ġseats":10359,"ĠKnow":10360,"Ġchain":10361,"mented":10362,"Ġspawn":10363,"Ġcler":10364,"ĠHey":10365,"Ġresol":10366,"Ġabilities":10367,"landers":10368,"ilda":10369,"athy":10370,"Ġthemed":10371,"Ġacted":10372,"Ġacceler":10373,"Ġ106":10374,"Ġepic":10375,"Ġsigns":10376,"Ġmature":10377,"Ġrunway":10378,"ĠClaud":10379,"ĠCarmel":10380,"ĠCommons":10381,"Ġhelium":10382,"Ġdetected":10383,"Ġportions":10384,"ĠChristine":10385,"ĠMcK":10386,"rett":10387,"appy":10388,"Ġtracked":10389,"Ġstarter":10390,"Ġreplacing":10391,"Ġcourses":10392,"Ġ230":10393,"Ġtraded":10394,"Ġstatements":10395,"restrial":10396,"Ġsolution":10397,"Ġobsc":10398,"aski":10399,"Ġpitching":10400,"ĠImm":10401,"Ġfunctions":10402,"Ġprofession":10403,"mediate":10404,"Ġembarked":10405,"ĠRhys":10406,"opping":10407,"ĠPoet":10408,"ĠStudies":10409,"Ġarchaeologists":10410,"ĠCollection":10411,"Ġsemif":10412,"Ġpairs":10413,"Ġindicates":10414,"ĠForeign":10415,"ĠRAR":10416,"ĠPhilippine":10417,"Ġpilots":10418,"Ġtranslated":10419,"Ġpleasure":10420,"Ġpunishment":10421,"Ġrecommend":10422,"ĠHawaiian":10423,"ĠCommunity":10424,"Ġwait":10425,"Ġillustrated":10426,"Ġflagship":10427,"Ġbeliefs":10428,"ĠSweden":10429,"Ġmolecules":10430,"ĠDodgers":10431,"Ġaerial":10432,"Ġunnamed":10433,"ĠAbbey":10434,"ĠPulaski":10435,"ĠDynasty":10436,"Ġrebellion":10437,"ĠMalaysia":10438,"Ġbombs":10439,"Ġjunior":10440,"Ġentertainment":10441,"Grom":10442,"chens":10443,"dict":10444,"eu":10445,"ele":10446,"krit":10447,"lights":10448,"uations":10449,"zer":10450,"zong":10451,"Ġæ":10452,"Ġsin":10453,"Ġwives":10454,"orig":10455,"itic":10456,"Ġcro":10457,"Ġcir":10458,"eness":10459,"esi":10460,"Ġinduct":10461,"Ġpron":10462,"roke":10463,"Ġdual":10464,"Ġdanger":10465,"Ġdaughters":10466,"ĠSisler":10467,"ĠCem":10468,"ĠCater":10469,"ĠCullen":10470,"Ġnaming":10471,"ĠBapt":10472,"Ġforg":10473,"othe":10474,"ĠPanz":10475,"ĠFood":10476,"ĠNag":10477,"ĠNose":10478,"ĠWN":10479,"ĠList":10480,"ĠGill":10481,"umble":10482,"riarch":10483,"odrom":10484,"Ġriding":10485,"ĠIns":10486,"Ġsew":10487,"Ġseized":10488,"ĠKle":10489,"ĠKÅį":10490,"Ġexport":10491,"Ġshrine":10492,"Ġshallow":10493,"Ġkid":10494,"ĠChron":10495,"ĠVel":10496,"Ġintegr":10497,"Ġclay":10498,"Ġclothes":10499,"Ġperceived":10500,"ĠThir":10501,"achment":10502,"Ġattitude":10503,"Ġenzy":10504,"Ġknock":10505,"Ġknocked":10506,"Ġcolossal":10507,"Ġpositively":10508,"Ġcancel":10509,"ansfield":10510,"Ġregistered":10511,"Ġ104":10512,"Ġtrails":10513,"ĠZoo":10514,"Ġtransmission":10515,"ĠIndians":10516,"Ġcontinuous":10517,"ĠJohnny":10518,"Ġpassion":10519,"Ġfamiliar":10520,"Ġphone":10521,"ĠAdela":10522,"Ġvaried":10523,"ĠGuadal":10524,"ĠMcN":10525,"Ġcaps":10526,"Ġrequires":10527,"Ġeastward":10528,"ĠEdge":10529,"Ġconvey":10530,"Ġconvention":10531,"Ġforecast":10532,"ĠParker":10533,"Ġreportedly":10534,"Ġaffairs":10535,"ficial":10536,"Ġcharted":10537,"Ġideal":10538,"hemical":10539,"Ġrevival":10540,"Ġestimates":10541,"Ġreduction":10542,"ĠRepresent":10543,"Ġrulers":10544,"Ġhyg":10545,"ĠValve":10546,"ĠOperations":10547,"Ġarchaeology":10548,"Ġcertainly":10549,"ĠPrix":10550,"ĠBurm":10551,"Ġquestions":10552,"Ġceleb":10553,"ĠWoodhouse":10554,"ĠBobby":10555,"Ġweakening":10556,"Ġsalv":10557,"Ġqualified":10558,"ĠWWF":10559,"Ġcandidates":10560,"ĠIntelligence":10561,"Ġmeasurements":10562,"Ġsubmarines":10563,"ĠGardner":10564,"ĠHonor":10565,"ĠBruce":10566,"ĠBelgian":10567,"Ġtonnes":10568,"Ġjuven":10569,"ĠImpact":10570,"ĠTetrarchs":10571,"Ġupdated":10572,"ĠTigers":10573,"ĠKawaguchi":10574,"Ġashore":10575,"Ġphotographs":10576,"ĠDigital":10577,"Ġcancelled":10578,"ĠSanskrit":10579,"ĠCredits":10580,"ĠDudley":10581,"ĠSorraia":10582,"ĠNosek":10583,"ĠAdelaide":10584,"ED":10585,"FL":10586,"Sh":10587,"budo":10588,"ds":10589,"tz":10590,"á¹":10591,"Ġump":10592,"Ġtet":10593,"Ġaw":10594,"oned":10595,"reated":10596,"Ġcode":10597,"Ġfusion":10598,"isen":10599,"arc":10600,"Ġbarr":10601,"Ġtox":10602,"Ġdod":10603,"ĠTow":10604,"ĠTask":10605,"Ġreward":10606,"Ġreaches":10607,"ĠSel":10608,"ĠSac":10609,"ĠSter":10610,"ĠCart":10611,"Ġliv":10612,"Ġlying":10613,"eling":10614,"ĠMix":10615,"ĠBird":10616,"ĠBidd":10617,"olin":10618,"terior":10619,"uther":10620,"ĠPu":10621,"ĠPole":10622,"ĠRat":10623,"ĠRav":10624,"ĠDover":10625,"ĠDance":10626,"ĠFul":10627,"ĠFord":10628,"ĠWASP":10629,"raid":10630,"ĠLakes":10631,"ĠGot":10632,"andra":10633,"ĠanekÄģntavÄģda":10634,"avor":10635,"odont":10636,"oping":10637,"Ġram":10638,"ante":10639,"ĠKau":10640,"earing":10641,"Ġshop":10642,"ishops":10643,"ĠVis":10644,"ĠVeer":10645,"soft":10646,"Ġcompre":10647,"orms":10648,"Ġusual":10649,"Ġjew":10650,"aceae":10651,"Ġrelatives":10652,"Ġendors":10653,"Ġqueen":10654,"Ġaccum":10655,"ĠJoint":10656,"Ġbacked":10657,"Ġ167":10658,"Ġ168":10659,"Ġdepiction":10660,"Ġminimal":10661,"venge":10662,"Ġextending":10663,"ĠBristol":10664,"ĠPlate":10665,"Ġsuccessive":10666,"Ġfinale":10667,"ĠDead":10668,"ĠDeep":10669,"Ġbrut":10670,"ĠMcE":10671,"Ġslopes":10672,"Ġcommands":10673,"ĠParamount":10674,"Ġreplied":10675,"hester":10676,"Ġroadway":10677,"Ġarchbishop":10678,"ĠXII":10679,"Ġsignificance":10680,"Ġ1902":10681,"Ġ1906":10682,"Ġgenetic":10683,"ĠImbudo":10684,"rieved":10685,"ĠNeves":10686,"Ġtenure":10687,"Ġranks":10688,"Ġcommenting":10689,"Ġsuperst":10690,"Ġaudio":10691,"Ġlacking":10692,"Ġ1888":10693,"Ġzones":10694,"Ġemployment":10695,"Ġillness":10696,"Ġmachinery":10697,"guard":10698,"Ġfailing":10699,"Ġunclear":10700,"Ġunderstood":10701,"ĠTwenty":10702,"Ġpursuit":10703,"Ġrecovery":10704,"Ġdeployment":10705,"Ġsearching":10706,"ĠDefense":10707,"Ġrescued":10708,"Ġfastest":10709,"Ġdissipating":10710,"Ġdiamond":10711,"ĠArgentine":10712,"yclic":10713,"ĠIdaho":10714,"ĠObserv":10715,"ĠBriggs":10716,"Ġenlisted":10717,"ĠSioux":10718,"Ġvertebra":10719,"Ġimmigration":10720,"ĠIngres":10721,"Ġdoctrine":10722,"ĠChronicles":10723,"Ġcinema":10724,"ĠTelugu":10725,"Ġrelieved":10726,"ĠProfessor":10727,"Ġtissue":10728,"Ġtubes":10729,"Ġflesh":10730,"Ġhospitals":10731,"ĠCresswell":10732,"ĠNettles":10733,"ĠJardine":10734,"ĠBiddenden":10735,"AR":10736,"Ar":10737,"Tube":10738,"bie":10739,"ja":10740,"Ġsoci":10741,"Ġwore":10742,"Ġwrestling":10743,"Ġfir":10744,"Ġfame":10745,"isle":10746,"Ġpush":10747,"asa":10748,"Ġmental":10749,"Ġda":10750,"Ġhitting":10751,"Ġrevenue":10752,"ĠSultan":10753,"Ġlover":10754,"Ġgor":10755,"Ġgaining":10756,"Ġghost":10757,"ĠHM":10758,"ĠHem":10759,"ĠRandy":10760,"ĠDersh":10761,"ĠDennis":10762,"rav":10763,"ĠLad":10764,"ĠGround":10765,"herry":10766,"agers":10767,"rip":10768,"Ġcomfort":10769,"Ġproceeded":10770,"Ġrivals":10771,"ocity":10772,"Ġexclud":10773,"Ġexecut":10774,"Ġshru":10775,"ounced":10776,"ĠVisc":10777,"sole":10778,"Ġabroad":10779,"Ġrotation":10780,"Ġpermitted":10781,"place":10782,"Ġ1800":10783,"izal":10784,"ĠAlmost":10785,"Ġjungle":10786,"phant":10787,"ressions":10788,"Ġprefect":10789,"oyle":10790,"Ġacute":10791,"Ġdoctor":10792,"ĠZap":10793,"ĠZanz":10794,"Ġpresents":10795,"Ġbacking":10796,"ylogen":10797,"Ġ169":10798,"azer":10799,"Ġmainstream":10800,"ĠIndies":10801,"Ġsignature":10802,"Ġwarned":10803,"Ġconstantly":10804,"ĠPlaces":10805,"Ġsuccession":10806,"ĠProte":10807,"ĠGuild":10808,"Ġpublicly":10809,"Ġports":10810,"ĠCanning":10811,"ambo":10812,"Ġboil":10813,"Ġdemanded":10814,"ographical":10815,"Ġstronger":10816,"ĠParks":10817,"Ġhistorically":10818,"Ġfactor":10819,"Ġ1903":10820,"regular":10821,"ĠYouTube":10822,"ĠMagic":10823,"Ġ1895":10824,"brace":10825,"Ġhostile":10826,"Ġarguing":10827,"Ġbiological":10828,"Ġcopy":10829,"Ġpersist":10830,"Ġpersons":10831,"ĠValent":10832,"ĠRussell":10833,"Ġheavier":10834,"Ġgolden":10835,"Ġautumn":10836,"Ġflowers":10837,"Ġconsistent":10838,"Ġcontroller":10839,"Ġwalks":10840,"ĠJosÃ©":10841,"ĠTriple":10842,"Ġmagnetic":10843,"Ġmanufacturing":10844,"Ġsailors":10845,"Ġhorror":10846,"Ġvenue":10847,"ĠUsher":10848,"Ġmolecular":10849,"Ġownership":10850,"Ġhouseholds":10851,"Ġrepeatedly":10852,"Ġsynthesis":10853,"Ġcategory":10854,"ĠAlberta":10855,"Ġexactly":10856,"Ġtalent":10857,"Ġpregnant":10858,"ĠPattyc":10859,"Ġshifted":10860,"Ġpuzzles":10861,"Ġexhausted":10862,"ĠARVN":10863,"Ġbombardment":10864,"ĠUtah":10865,"Ġmerchant":10866,"Ġrecurring":10867,"ĠArkansas":10868,"ĠBennett":10869,"ĠMitchell":10870,"Ġphenomen":10871,"ĠAmanita":10872,"ĠWellington":10873,"ĠChrono":10874,"ĠBurmese":10875,"ĠNevesinje":10876,"ĠDershowitz":10877,"ĠZanzib":10878,"ĠPattycake":10879,"EA":10880,"Xe":10881,"bro":10882,"bow":10883,"cut":10884,"cover":10885,"din":10886,"hr":10887,"oons":10888,"uters":10889,"Ġtape":10890,"inaw":10891,"Ġstern":10892,"Ġsick":10893,"Ġwaves":10894,"itely":10895,"Ġcensus":10896,"Ġfru":10897,"ario":10898,"Ġincl":10899,"Ġindu":10900,"Ġpushing":10901,"Ġdressed":10902,"ĠTong":10903,"ĠTak":10904,"ĠTales":10905,"Ġreper":10906,"ĠAud":10907,"Ġnose":10908,"ĠBox":10909,"ĠBatter":10910,"ĠIowa":10911,"ivation":10912,"ĠHad":10913,"ĠHoll":10914,"ĠHannah":10915,"owed":10916,"Ġstabil":10917,"Ġstellar":10918,"ĠPic":10919,"Ġbeings":10920,"Ġheir":10921,"ĠFut":10922,"Ġconce":10923,"ĠWik":10924,"ĠGael":10925,"ested":10926,"atever":10927,"ĠKid":10928,"ĠKrist":10929,"Ġchampions":10930,"Ġshield":10931,"Ġshirt":10932,"ĠStand":10933,"Ġspan":10934,"Ġlect":10935,"Ġintr":10936,"ibilities":10937,"Ġenorm":10938,"awak":10939,"atha":10940,"Ġretail":10941,"Ġspeculation":10942,"Ġaccus":10943,"erto":10944,"Ġ154":10945,"Ġ111":10946,"Ġ174":10947,"Ġmini":10948,"Ġextend":10949,"Ġdistrib":10950,"Ġfinest":10951,"enna":10952,"Ġ131":10953,"linger":10954,"Ġincreases":10955,"Ġmargin":10956,"ĠYorkshire":10957,"ĠAndre":10958,"Ġdrinking":10959,"ospel":10960,"ambia":10961,"Ġreviewed":10962,"Ġcoverage":10963,"ĠWeir":10964,"Ġmyster":10965,"Ġ220":10966,"Ġposts":10967,"atorial":10968,"Ġ1904":10969,"ĠJackets":10970,"ĠNeil":10971,"Ġrevived":10972,"Ġcampaigns":10973,"ĠCoal":10974,"Ġpromotional":10975,"brush":10976,"Ġanimation":10977,"Ġtestified":10978,"Ġcutting":10979,"Ġargument":10980,"Ġpersisted":10981,"ĠPohl":10982,"Ġpeninsula":10983,"Ġbombers":10984,"Ġguitarist":10985,"Ġseriously":10986,"Ġlifetime":10987,"Ġchallenged":10988,"Ġprecip":10989,"Ġgrandfather":10990,"Ġirregular":10991,"Ġprinting":10992,"Ġquestioned":10993,"Ġcompositions":10994,"ĠLloyd":10995,"Ġpictures":10996,"Ġhamper":10997,"Ġarrangements":10998,"Ġresemble":10999,"ĠGarden":11000,"Ġpetition":11001,"Ġoccasional":11002,"Ġfarmers":11003,"Ġsubtropical":11004,"ĠKenneth":11005,"Ġsteadily":11006,"Ġsongwriter":11007,"Ġrenewed":11008,"Ġgravity":11009,"Ġdensity":11010,"Ġpredominantly":11011,"Ġibis":11012,"ĠâĤ¹":11013,"Ġbonus":11014,"Ġfuneral":11015,"ĠPreston":11016,"ĠCemetery":11017,"CE":11018,"CU":11019,"RNA":11020,"VP":11021,"dream":11022,"net":11023,"ss":11024,"xim":11025,"inness":11026,"inÃ¡":11027,"eries":11028,"Ġsings":11029,"oric":11030,"Ġbull":11031,"alo":11032,"Ġtours":11033,"rooms":11034,"Ġmud":11035,"Ġmyself":11036,"Ġreag":11037,"Ġreop":11038,"ĠSag":11039,"ĠShip":11040,"ĠSkin":11041,"ĠCry":11042,"ĠCricket":11043,"Ġnave":11044,"ĠMission":11045,"ĠMembers":11046,"uras":11047,"ĠBour":11048,"ĠIRA":11049,"olly":11050,"iga":11051,"ĠHarris":11052,"Ġstorage":11053,"ĠPound":11054,"ĠRab":11055,"ĠNadal":11056,"ĠNelson":11057,"ĠWol":11058,"ĠLooking":11059,"osph":11060,"agger":11061,"ĠEth":11062,"Ġdeals":11063,"ĠKate":11064,"ĠKiss":11065,"Ġchicks":11066,"Ġexternal":11067,"ipel":11068,"apolis":11069,"Ġunw":11070,"Ġunrest":11071,"Ġintellig":11072,"ĠHeb":11073,"Ġscrap":11074,"Ġagencies":11075,"Ġjet":11076,"Ġjaw":11077,"arest":11078,"Ġovers":11079,"Ġouts":11080,"Ġearn":11081,"Ġacre":11082,"ĠLeeds":11083,"ĠReb":11084,"Ġ108":11085,"aja":11086,"Ġpreserve":11087,"azing":11088,"Ġpopul":11089,"Ġmetall":11090,"Ġdescript":11091,"Ġcontinu":11092,"Ġcontinental":11093,"ĠWarrior":11094,"Ġextinct":11095,"ĠIsesi":11096,"Ġdiscont":11097,"Ġ135":11098,"asha":11099,"Ġadvised":11100,"Ġguide":11101,"Ġguarant":11102,"Ġportr":11103,"Ġexploration":11104,"Ġmarking":11105,"Ġlegacy":11106,"Ġinvolves":11107,"Ġauthorized":11108,"Ġannouncement":11109,"Ġpraising":11110,"Ġsummar":11111,"Ġoccurring":11112,"Ġprocessing":11113,"Ġaudition":11114,"ĠMadero":11115,"Ġvolumes":11116,"mingham":11117,"ĠSerbs":11118,"Ġrepresentatives":11119,"Ġcommerce":11120,"Ġceased":11121,"Ġcease":11122,"ĠDaydream":11123,"Ġmeasuring":11124,"Ġhomosexual":11125,"ĠCrusad":11126,"Ġthreats":11127,"ĠLaure":11128,"ĠGrace":11129,"ĠTommy":11130,"ĠPete":11131,"Ġmurd":11132,"Ġexamination":11133,"ĠEverton":11134,"ĠJeremy":11135,"ĠSenator":11136,"ĠHoover":11137,"Ġmorph":11138,"Ġtaxon":11139,"Ġlandscape":11140,"ĠContem":11141,"Ġconstitu":11142,"Ġangle":11143,"Ġremarkable":11144,"Ġmemories":11145,"Ġmortar":11146,"ĠBirmingham":11147,"ĠRailroad":11148,"Ġruins":11149,"ĠGregory":11150,"Ġexplosive":11151,"ĠCooke":11152,"Ġstreams":11153,"ĠSpacey":11154,"Ġsanct":11155,"Ġhelicopter":11156,"Ġcommitment":11157,"ĠLessing":11158,"Ġpregnancy":11159,"ĠEccl":11160,"Ġabsorbed":11161,"Ġrecruited":11162,"ĠToninÃ¡":11163,"ĠAdministration":11164,"penter":11165,"ĠPerformance":11166,"Ġvelocity":11167,"ĠBaptist":11168,"ĠGaelic":11169,"col":11170,"face":11171,"pur":11172,"wall":11173,"ÉĻ":11174,"Ġath":11175,"Ġsav":11176,"atum":11177,"ito":11178,"itis":11179,"Ġfaster":11180,"anch":11181,"Ġboot":11182,"Ġpp":11183,"asco":11184,"Ġmood":11185,"ĠTar":11186,"ĠTac":11187,"ĠSet":11188,"ĠSud":11189,"stown":11190,"ĠCu":11191,"Ġlumber":11192,"ĠBes":11193,"ĠBog":11194,"ĠBull":11195,"Ġgene":11196,"Ġgusts":11197,"ĠHub":11198,"Ġascend":11199,"ĠPa":11200,"ĠPil":11201,"ĠPra":11202,"ationally":11203,"ĠRic":11204,"ĠRAF":11205,"emi":11206,"ĠDS":11207,"ĠFried":11208,"Ġalignment":11209,"ĠName":11210,"ĠNine":11211,"ĠLam":11212,"ĠLover":11213,"ĠLiving":11214,"ĠLiter":11215,"andal":11216,"ĠOk":11217,"ĠOst":11218,"ework":11219,"ĠStill":11220,"oves":11221,"aping":11222,"ĠVeg":11223,"Ġcompan":11224,"ĠThan":11225,"iley":11226,"Ġscre":11227,"Ġaftermath":11228,"phone":11229,"veland":11230,"Ġconsent":11231,"icking":11232,"ĠSeattle":11233,"ĠCommer":11234,"Ġundergo":11235,"alsa":11236,"ĠNewman":11237,"Ġverses":11238,"Ġacoust":11239,"Ġacyclic":11240,"Ġquiet":11241,"rowed":11242,"Ġdirecting":11243,"Ġdownstream":11244,"ĠWhit":11245,"ĠIsle":11246,"Ġdistant":11247,"Ġdistances":11248,"Ġinsisted":11249,"ĠManuel":11250,"Ġbrilliant":11251,"ĠAllosaurus":11252,"inae":11253,"Ġvariations":11254,"ĠBegin":11255,"issioned":11256,"ĠParachute":11257,"ĠTelegraph":11258,"ĠBrother":11259,"luence":11260,"Ġhelps":11261,"Ġcurved":11262,"Ġspeaker":11263,"Ġtroop":11264,"ĠBarbar":11265,"Ġafford":11266,"Ġdestroying":11267,"ringe":11268,"Ġlimits":11269,"ĠImport":11270,"Ġcougars":11271,"Ġmounts":11272,"Ġblacks":11273,"ĠSecurity":11274,"Ġsummit":11275,"Ġprize":11276,"Ġballad":11277,"Ġrounded":11278,"Ġpredict":11279,"Ġpredicted":11280,"Ġconnections":11281,"Ġvolcan":11282,"ĠBoog":11283,"ĠChristianity":11284,"Ġtraveling":11285,"ĠUndertaker":11286,"Ġcomplicated":11287,"Ġcounterp":11288,"Ġconsistently":11289,"Ġcollections":11290,"Ġlogic":11291,"ĠJustin":11292,"Ġdisappeared":11293,"Ġcamer":11294,"Ġinteractions":11295,"ĠDerff":11296,"Ġ1819":11297,"Ġconcentration":11298,"uzzle":11299,"ĠPopular":11300,"Ġpalace":11301,"Ġroller":11302,"Ġfragments":11303,"Ġsending":11304,"ĠDarwin":11305,"ĠMovie":11306,"Ġagriculture":11307,"ĠCleveland":11308,"Ġparliamentary":11309,"Ġcalculated":11310,"ĠMarshal":11311,"Ġsurrendered":11312,"Ġnoble":11313,"Ġsympt":11314,"urrently":11315,"Ġpreceding":11316,"Ġtickets":11317,"ĠSupport":11318,"Ê»i":11319,"Ġcondemned":11320,"ĠGlobe":11321,"ĠHampshire":11322,"ĠSoutheast":11323,"Ġconjunction":11324,"ĠInternet":11325,"Ġcousin":11326,"ĠDwight":11327,"ĠStavanger":11328,"ĠViscount":11329,"ĠVegas":11330,"IP":11331,"eals":11332,"nh":11333,"pa":11334,"run":11335,"uating":11336,"Ä«":11337,"Ġtorn":11338,"Ġtaste":11339,"Ġcattle":11340,"arov":11341,"Ġpistol":11342,"Ġmal":11343,"Ġmild":11344,"Ġmentions":11345,"Ġdanc":11346,"Ġho":11347,"oub":11348,"Ġreun":11349,"Ġrejo":11350,"ĠAction":11351,"ĠArabs":11352,"Ġthrown":11353,"street":11354,"ĠCN":11355,"ĠCz":11356,"ĠCow":11357,"eland":11358,"acan":11359,"ĠMÄģ":11360,"ĠMorning":11361,"ĠMVP":11362,"Ġgran":11363,"idal":11364,"ĠHNC":11365,"ĠPear":11366,"ĠRing":11367,"ĠFit":11368,"ulates":11369,"ĠWorth":11370,"Ġatop":11371,"ĠLabyrinth":11372,"ĠGran":11373,"romet":11374,"istical":11375,"ĠEg":11376,"ĠOcc":11377,"Ġsupre":11378,"Ġexceed":11379,"ĠStat":11380,"season":11381,"ĠChand":11382,"Ġunst":11383,"oulder":11384,"Ġclar":11385,"Ġresid":11386,"Ġrout":11387,"Ġdisrupt":11388,"Ġdesper":11389,"action":11390,"Ġmaneu":11391,"ikk":11392,"Ġoffshore":11393,"wegian":11394,"Ġnep":11395,"ĠAsahi":11396,"ĠSega":11397,"ĠMarge":11398,"ĠArn":11399,"Ġflies":11400,"Ġcanon":11401,"ĠNewport":11402,"Ġreleasing":11403,"anka":11404,"Ġ102":11405,"ĠZr":11406,"itsu":11407,"ĠAftermath":11408,"Ġheading":11409,"Ġcouldn":11410,"Ġoperas":11411,"Ġmatters":11412,"Ġairborne":11413,"ĠIsles":11414,"Ġguides":11415,"ĠBeau":11416,"Ġgrade":11417,"ĠChristi":11418,"Ġconfusion":11419,"Ġprogressed":11420,"Ġmedal":11421,"ĠCompanies":11422,"ĠEdson":11423,"Ġplanes":11424,"Ġcommunist":11425,"Ġaviation":11426,"iscus":11427,"ĠRomania":11428,"Ġlimestone":11429,"Ġfriendship":11430,"Ġcasem":11431,"ĠMonth":11432,"Ġvaluable":11433,"Ġimprovement":11434,"ĠBoat":11435,"Ġinvestment":11436,"ĠSmall":11437,"ĠAngelou":11438,"ĠCorpus":11439,"ĠLaud":11440,"ĠOpera":11441,"Ġviolation":11442,"Ġpenetr":11443,"Ġdenomin":11444,"ĠTraining":11445,"Ġ1849":11446,"ĠServices":11447,"Ġpresidential":11448,"Ġcounteratt":11449,"Ġbowling":11450,"Ġhoping":11451,"ĠHumph":11452,"itchcraft":11453,"Ġcelebrate":11454,"Ġbeaten":11455,"Ġhabitats":11456,"ĠHawaiÊ»i":11457,"ĠHalo":11458,"Ġvoices":11459,"Ġthirteen":11460,"Ġsensitive":11461,"ĠLarry":11462,"ĠMDOT":11463,"Ġrequirements":11464,"ĠTrue":11465,"Ġtunnels":11466,"ĠNightingale":11467,"ĠGraham":11468,"Ġsegments":11469,"Ġsweet":11470,"ĠRifenburg":11471,"ĠColdrum":11472,"Ġexclusive":11473,"Ġenlar":11474,"Ġtransformed":11475,"Ġignored":11476,"Ġvertex":11477,"Ġamphibious":11478,"ĠWyoming":11479,"Ġicon":11480,"Ġwickets":11481,"Ġpartnership":11482,"Ġdiplomatic":11483,"Ġdependent":11484,"Ġrelegated":11485,"ĠCombat":11486,"Ġleukemia":11487,"Ġdeliberately":11488,"schild":11489,"ĠMargaret":11490,"ĠFernandez":11491,"Ġrestrictions":11492,"ĠSymph":11493,"Ġincomple":11494,"iblical":11495,"ĠXIII":11496,"ĠDerfflinger":11497,"ĠMÄģori":11498,"eh":11499,"fam":11500,"hog":11501,"rink":11502,"Ã¬":11503,"Ġtag":11504,"inished":11505,"atis":11506,"atem":11507,"atra":11508,"itches":11509,"itects":11510,"itudes":11511,"Ġcash":11512,"Ġcosm":11513,"Ġfiled":11514,"Ġpec":11515,"Ġpunt":11516,"icism":11517,"Ġdying":11518,"Ġhind":11519,"ĠTroph":11520,"ĠAff":11521,"ĠAub":11522,"ĠSite":11523,"ĠSora":11524,"Ġlaugh":11525,"omo":11526,"etheless":11527,"olence":11528,"Ġgills":11529,"Ġforb":11530,"irts":11531,"igs":11532,"ayne":11533,"ĠRI":11534,"ĠRul":11535,"ĠRand":11536,"ĠDot":11537,"ĠFiles":11538,"Ġalco":11539,"ĠLÃ¼":11540,"osy":11541,"osity":11542,"ĠJess":11543,"odium":11544,"Ġventure":11545,"iller":11546,"occ":11547,"aba":11548,"abl":11549,"ĠKal":11550,"ĠKem":11551,"ĠKody":11552,"ĠKyle":11553,"quatic":11554,"ĠUP":11555,"ĠUran":11556,"ĠStop":11557,"apur":11558,"Ġunre":11559,"ormal":11560,"Ġscorer":11561,"izers":11562,"ĠAlg":11563,"Ġapply":11564,"Ġmanage":11565,"ĠYam":11566,"phal":11567,"Ġenabled":11568,"anga":11569,"Ġsheep":11570,"Ġdecide":11571,"ĠComedy":11572,"Ġacclaim":11573,"Ġincur":11574,"anya":11575,"Ġlocally":11576,"Ġtrains":11577,"Ġteammate":11578,"Ġaddressed":11579,"aze":11580,"Ġ151":11581,"Ġ152":11582,"Ġsmoke":11583,"Ġshipments":11584,"Ġinfection":11585,"ĠBrun":11586,"ĠSpe":11587,"ĠCloud":11588,"ĠColomb":11589,"ĠCaroly":11590,"tym":11591,"ĠPlaza":11592,"Ġconfron":11593,"Ġtrio":11594,"Ġjustice":11595,"Ġvisits":11596,"Ġdrivers":11597,"eltown":11598,"ĠOrd":11599,"Ġantagon":11600,"Ġexperts":11601,"Ġconvict":11602,"ĠTrond":11603,"Ġ261":11604,"Ġradical":11605,"Ġcasting":11606,"Ġlawyer":11607,"Ġfunny":11608,"ĠMonkey":11609,"Ġcircular":11610,"Ġcircuit":11611,"Ġvocalist":11612,"Ġdevice":11613,"ĠMyc":11614,"Ġtravels":11615,"ĠZealanders":11616,"Ġterritorial":11617,"ĠOlivia":11618,"Ġtruly":11619,"ĠEgyptians":11620,"Ġminority":11621,"Ġchapters":11622,"ĠBurma":11623,"Ġfrequency":11624,"Ġcomplimented":11625,"ĠAntimony":11626,"Ġflows":11627,"ĠTrees":11628,"ĠBradstreet":11629,"ĠNorwegian":11630,"canal":11631,"Ġessentially":11632,"ĠMillennium":11633,"Ġmultipl":11634,"Ġheroes":11635,"Ġtorpedoes":11636,"ĠRoom":11637,"Ġuniversal":11638,"ĠMelbourne":11639,"blazer":11640,"ĠPalestinian":11641,"ĠLucas":11642,"ĠJurchens":11643,"ĠHoriz":11644,"Ġlaboratory":11645,"ĠAriz":11646,"ĠKennedy":11647,"Ġsponsored":11648,"Ġrubber":11649,"Ġcorps":11650,"ĠRemix":11651,"ĠPersonal":11652,"Ġgarden":11653,"Ġprice":11654,"Ġinterpretation":11655,"ĠBedell":11656,"Ġavoided":11657,"Ġdivorce":11658,"ĠCecil":11659,"Ġmanuscripts":11660,"Ġdispatched":11661,"ĠRothschild":11662,"Ġcontradict":11663,"Ġtwentieth":11664,"ĠMantell":11665,"Ġmathemat":11666,"ĠCyrus":11667,"Ġhiatus":11668,"ĠContemporary":11669,"ĠBeginning":11670,"ĠCarolyn":11671,"CW":11672,"Down":11673,"Works":11674,"bal":11675,"case":11676,"lane":11677,"pected":11678,"Æ°":11679,"Ġtel":11680,"Ġarose":11681,"erning":11682,"Ġsib":11683,"Ġsoph":11684,"Ġsaint":11685,"Ġwolf":11686,"Ġwonder":11687,"athetic":11688,"orough":11689,"Ġcrick":11690,"Ġfart":11691,"Ġfires":11692,"Ġing":11693,"Ġpaying":11694,"Ġpuppet":11695,"Ġdawn":11696,"ĠTun":11697,"Ġrever":11698,"ĠAges":11699,"ĠSina":11700,"ilis":11701,"ĠCrab":11702,"Ġliner":11703,"Ġlumin":11704,"Ġnut":11705,"ĠMond":11706,"Ġwaste":11707,"ece":11708,"ĠIA":11709,"ĠIOC":11710,"Ġgarn":11711,"igious":11712,"tering":11713,"ushes":11714,"uto":11715,"Ġherit":11716,"ĠRÃ¤":11717,"ĠData":11718,"ĠLt":11719,"ĠLat":11720,"ĠLyn":11721,"ĠGw":11722,"heric":11723,"eston":11724,"odox":11725,"ĠEtty":11726,"ĠOb":11727,"Ġvir":11728,"Ġrings":11729,"anther":11730,"ĠStars":11731,"ĠStela":11732,"asted":11733,"iph":11734,"aple":11735,"arya":11736,"Ġuncom":11737,"Ġunless":11738,"Ġintact":11739,"Ġadequ":11740,"Ġabuse":11741,"Ġscen":11742,"Ġscream":11743,"overed":11744,"enson":11745,"ikes":11746,"Ġpret":11747,"Ġeval":11748,"Ġallocated":11749,"issions":11750,"ribe":11751,"Ġcentimetres":11752,"Ġknee":11753,"Ġcanals":11754,"Ġretreated":11755,"Ġasserted":11756,"Ġsubord":11757,"Ġmovies":11758,"Ġquoted":11759,"ĠLegend":11760,"ĠLeban":11761,"ĠShim":11762,"Ġdozen":11763,"Ġfounding":11764,"veloped":11765,"Ġinvaded":11766,"ĠZe":11767,"ĠZagre":11768,"Ġexpand":11769,"Ġpopulated":11770,"Ġ116":11771,"Ġinfilt":11772,"ĠBright":11773,"Ġimposed":11774,"Ġlandmark":11775,"ĠClara":11776,"Ġprovincial":11777,"Ġsixty":11778,"Ġadvances":11779,"Ġconcession":11780,"Ġphylogen":11781,"ĠGuatem":11782,"Ġmarched":11783,"Ġprogression":11784,"Ġhalted":11785,"Ġdestination":11786,"ĠStein":11787,"ĠComposition":11788,"Ġstorylines":11789,"ĠPrincip":11790,"Ġpositioned":11791,"Ġcurve":11792,"Ġrealistic":11793,"ĠTristan":11794,"ĠPortland":11795,"Ġarrives":11796,"Ġcompetitive":11797,"Ġskill":11798,"ĠEliot":11799,"ĠAssy":11800,"ĠRegard":11801,"Ġaffair":11802,"Ġradius":11803,"Ġbarrier":11804,"Ġgenu":11805,"ĠExpl":11806,"Ġsword":11807,"Ġ1897":11808,"ÃŃn":11809,"Ġballs":11810,"ĠActress":11811,"ĠSerb":11812,"Ġimprovements":11813,"Ġzomb":11814,"Ġhosts":11815,"ĠMedical":11816,"Ġfunded":11817,"Ġseemingly":11818,"Ġlyrical":11819,"ĠPlayers":11820,"Ġinterviews":11821,"Ġbreaks":11822,"ĠFilming":11823,"Ġauton":11824,"Ġloop":11825,"Ġlinks":11826,"Ġlifted":11827,"ĠBuff":11828,"Ġsalary":11829,"ĠSarah":11830,"Ġmarketing":11831,"ĠSixth":11832,"Ġjumping":11833,"ĠUlster":11834,"Ġemotions":11835,"ĠAviation":11836,"Ġweakness":11837,"Ġsacrif":11838,"Ġuniverse":11839,"Ġsporting":11840,"Ġloading":11841,"Ġneutron":11842,"Ġwitnesses":11843,"ĠMongols":11844,"Ġteachers":11845,"Ġmoist":11846,"Ġstretched":11847,"ĠWallace":11848,"ĠBernard":11849,"Ġhighlighted":11850,"ĠBosn":11851,"Ġoverwhelming":11852,"ĠJoyful":11853,"Ġacknowledged":11854,"ĠMachine":11855,"ĠNicholas":11856,"Ġtributaries":11857,"ĠHomar":11858,"ongsan":11859,"Ġbodyline":11860,"Ġintellectual":11861,"Ġpropaganda":11862,"ĠMaurice":11863,"Ġmembrane":11864,"Ġalphab":11865,"Ġtombs":11866,"Ġhorizont":11867,"Ġgathered":11868,"ĠGuadalcanal":11869,"Ġvertebrae":11870,"ĠZanzibar":11871,"Ġenormous":11872,"ĠHebrew":11873,"Ġathlete":11874,"ĠArizona":11875,"ĠSinai":11876,"Ġheritage":11877,"aos":11878,"cially":11879,"fish":11880,"ioc":11881,"lides":11882,"rin":11883,"uros":11884,"zes":11885,"ĠÄ":11886,"Ġá":11887,"Ġurg":11888,"Ġaided":11889,"inter":11890,"inisc":11891,"onian":11892,"Ġward":11893,"Ġworn":11894,"atters":11895,"orf":11896,"Ġcens":11897,"isa":11898,"isive":11899,"anelli":11900,"Ġbag":11901,"Ġpill":11902,"Ġpink":11903,"Ġmate":11904,"ĠTang":11905,"ĠAqu":11906,"ĠSox":11907,"star":11908,"ĠCS":11909,"ĠCov":11910,"ĠCret":11911,"ĠCurt":11912,"Ġeating":11913,"Ġnic":11914,"ache":11915,"ĠBilly":11916,"olia":11917,"olics":11918,"Ġgay":11919,"Ġgentle":11920,"idated":11921,"ighed":11922,"oting":11923,"Ġaside":11924,"Ġstability":11925,"ĠPast":11926,"ĠRub":11927,"ĠRaf":11928,"thren":11929,"ĠDress":11930,"ĠFur":11931,"ĠFaul":11932,"Ġconsole":11933,"ĠNASA":11934,"ĠNFL":11935,"ĠWa":11936,"ĠWu":11937,"ĠWald":11938,"ĠWrapped":11939,"raits":11940,"agoda":11941,"ifest":11942,"Ġvig":11943,"oret":11944,"Ġrays":11945,"Ġrush":11946,"ĠInside":11947,"alling":11948,"ĠKo":11949,"ĠKer":11950,"ackDown":11951,"ĠStreets":11952,"gehog":11953,"Ġune":11954,"ĠVent":11955,"ĠView":11956,"ĠVerm":11957,"ruption":11958,"uees":11959,"ondo":11960,"Ġdisabled":11961,"overy":11962,"Ġattending":11963,"ĠYongsan":11964,"Ġoutstanding":11965,"Ġallies":11966,"Ġcentered":11967,"isional":11968,"Ġcolors":11969,"Ġdefenses":11970,"Ġintermediate":11971,"Ġamid":11972,"ĠLevel":11973,"ĠReagan":11974,"Ġsurge":11975,"Ġinvent":11976,"Ġdevelopers":11977,"Ġminers":11978,"Ġministers":11979,"ĠBrack":11980,"ĠClay":11981,"Ã©d":11982,"keeper":11983,"ĠBeeton":11984,"ĠEuropa":11985,"Ġparade":11986,"Ġexplore":11987,"ĠÂµ":11988,"ĠCharm":11989,"ĠWeather":11990,"Ġsimilarities":11991,"Ġpoliticians":11992,"Ġmembership":11993,"ĠPeriod":11994,"Ġterr":11995,"Ġradar":11996,"Ġbattlefield":11997,"Ġgenes":11998,"Ġdeclaration":11999,"ĠHaitian":12000,"Ġ1898":12001,"Ġassociate":12002,"Ġcuts":12003,"Ġdevoted":12004,"ihu":12005,"ĠSmackDown":12006,"Ġmerc":12007,"Ġcalm":12008,"Ġdispersed":12009,"Ġgraduate":12010,"hensive":12011,"Ġautobi":12012,"Ġeducational":12013,"Ġdealing":12014,"Ġsatir":12015,"Ġhappen":12016,"Ġuncle":12017,"Ġcannon":12018,"Ġinvestigate":12019,"Ġsculpted":12020,"Ġobservatory":12021,"ĠJimmy":12022,"Ġdynamic":12023,"ĠKnights":12024,"ĠBrenda":12025,"umbered":12026,"Ġsexuality":12027,"Ġexhibited":12028,"Ġkicked":12029,"Ġkickoff":12030,"thening":12031,"ĠFarm":12032,"Ġlegislature":12033,"Ġduet":12034,"Ġneighbour":12035,"Ġpermanently":12036,"Ġloaded":12037,"ĠIndustrial":12038,"Ġplatforms":12039,"Ġopinions":12040,"ĠDestroy":12041,"ĠCreutz":12042,"ĠMotor":12043,"ĠCambodian":12044,"ĠMarcus":12045,"Ġaerodrom":12046,"Ġsufficiently":12047,"ĠOfficer":12048,"ĠHellblazer":12049,"Ġloved":12050,"ĠAyola":12051,"ĠArchaeological":12052,"Ġfrigate":12053,"ĠHughes":12054,"Ġchallenging":12055,"Ġcongregation":12056,"ught":12057,"ĠComplex":12058,"Ġsurprised":12059,"Ġinaugural":12060,"Ġconsequence":12061,"Ġprompting":12062,"ĠPalmyrene":12063,"Ġreversed":12064,"Ġfertil":12065,"Ã¶nen":12066,"Ġfundamental":12067,"ĠNavar":12068,"ĠStaley":12069,"Ġexcellent":12070,"Ġunexpected":12071,"Ġpseud":12072,"Ġinducted":12073,"ĠPlateau":12074,"ĠSkinner":12075,"ĠEcclestone":12076,"ikkÃ¶nen":12077,"ĠTrondheim":12078,"ĠRÃ¤ikkÃ¶nen":12079,"ĠZagreb":12080,"ĠCretaceous":12081,"BI":12082,"eing":12083,"music":12084,"nall":12085,"Ãº":12086,"Ġty":12087,"oni":12088,"Ġsank":12089,"Ġoak":12090,"isons":12091,"Ġbeds":12092,"aloo":12093,"ingray":12094,"Ġmit":12095,"Ġdancing":12096,"Ġdrift":12097,"Ġhier":12098,"ourag":12099,"ĠTres":12100,"ĠTotal":12101,"ĠSuez":12102,"ĠCinem":12103,"Ġlakes":12104,"aduct":12105,"ĠMP":12106,"ĠMing":12107,"ĠBry":12108,"ĠHi":12109,"ĠHair":12110,"Ġstress":12111,"ĠPy":12112,"ĠProp":12113,"ĠPink":12114,"ĠPapa":12115,"ĠRud":12116,"ĠDh":12117,"ĠDays":12118,"ĠDoyle":12119,"ĠFat":12120,"ĠFro":12121,"ĠFight":12122,"ĠFull":12123,"Ġisn":12124,"Ġally":12125,"Ġconceived":12126,"ĠWell":12127,"ĠWrest":12128,"ĠLem":12129,"ĠLiz":12130,"ĠGene":12131,"ripp":12132,"riff":12133,"ĠOak":12134,"illes":12135,"ĠInv":12136,"Ġseed":12137,"abric":12138,"ĠKr":12139,"Ġpled":12140,"Ġplates":12141,"Ġshock":12142,"ĠkW":12143,"ĠStrong":12144,"ĠChad":12145,"Ġunt":12146,"ĠVist":12147,"ĠVick":12148,"Ġclergy":12149,"ĠHein":12150,"Ġusers":12151,"Ġscar":12152,"iki":12153,"Ġenact":12154,"Ġcentres":12155,"Ġreminisc":12156,"formed":12157,"Ġconservative":12158,"Ġdecomm":12159,"Ġcolours":12160,"Ġintervention":12161,"Ġquad":12162,"ĠLeices":12163,"Ġmonitors":12164,"ĠShan":12165,"Ġsurpass":12166,"Ġblues":12167,"Ġsingers":12168,"Ġrepet":12169,"Ġrepaired":12170,"Ġ171":12171,"Ġopens":12172,"Ġstudying":12173,"ĠMayor":12174,"Ġimped":12175,"Ġpassages":12176,"Ġdamaging":12177,"Ġphosph":12178,"Ġvaries":12179,"Ġportraits":12180,"Ġtrium":12181,"Ġpossessed":12182,"Ġexplaining":12183,"ambers":12184,"ĠSteiner":12185,"Ġdemon":12186,"ĠPrincess":12187,"Ġexperimental":12188,"Ġmagical":12189,"ĠAirborne":12190,"Ġsurvival":12191,"Ġlights":12192,"ĠRegiments":12193,"Ġdiscovers":12194,"ĠExit":12195,"Ġ1894":12196,"Ġagrees":12197,"Ġestimate":12198,"Ġidentical":12199,"Ġconnects":12200,"Ġcyclization":12201,"Ġrecognize":12202,"Ġ1854":12203,"Ġ1857":12204,"Ġcorrid":12205,"ĠRockef":12206,"Ġacceptable":12207,"stituted":12208,"Ġ1862":12209,"Ġconducting":12210,"Ġgrazing":12211,"ĠCrash":12212,"Ġ1878":12213,"ĠQuiney":12214,"Ġdraws":12215,"Ġparticipants":12216,"ĠGrant":12217,"Ġdropping":12218,"ĠDrive":12219,"ĠMontreal":12220,"ĠSingh":12221,"Ġriff":12222,"ĠFranklin":12223,"Ġdeeply":12224,"Ġensemble":12225,"nyi":12226,"Ġlearns":12227,"Ġdarkness":12228,"Ġconcepts":12229,"Ġdigit":12230,"ocratic":12231,"ĠSarawak":12232,"Ġhotels":12233,"rolling":12234,"Ġcrowds":12235,"Ġdrafted":12236,"Ġangry":12237,"ĠNazarov":12238,"Ġqualifying":12239,"ĠFerdin":12240,"ĠTodd":12241,"Ġalternate":12242,"Ġencounters":12243,"Ġnarrator":12244,"ĠTurkey":12245,"Ġratio":12246,"ĠDenmark":12247,"Ġspotted":12248,"Ġscholarship":12249,"Ġbelonging":12250,"ĠDreamWorks":12251,"ĠMorris":12252,"Ġunsuccessfully":12253,"Ġvolunteer":12254,"ĠWinds":12255,"Ġreservoirs":12256,"ĠRonald":12257,"Ġrifles":12258,"Ġbatsmen":12259,"ĠRaymond":12260,"Ġcorresponding":12261,"ĠAntonio":12262,"Ġhypothes":12263,"Ġfavourite":12264,"Ġfairly":12265,"Ġrevolutionary":12266,"Ġfantasy":12267,"ĠCruise":12268,"Ġgallery":12269,"Ġculm":12270,"Ġimplemented":12271,"Ġurged":12272,"ĠFlower":12273,"ĠDurham":12274,"Ġconsumption":12275,"Ġaccommodate":12276,"ĠLancaster":12277,"Ġchallenges":12278,"Ġabsolute":12279,"Ġsubstance":12280,"ĠHobbs":12281,"ĠHenderson":12282,"ĠCorbet":12283,"Ġdrainage":12284,"ĠVulcan":12285,"ĠJohann":12286,"Ġadministered":12287,"ipelago":12288,"Ġscreens":12289,"Ġacoustic":12290,"ĠCzech":12291,"Ã¬nh":12292,"ĠTrophy":12293,"Ġcrickets":12294,"ĠFerdinand":12295,"FU":12296,"IS":12297,"gor":12298,"hatt":12299,"iors":12300,"kner":12301,"oids":12302,"Ã¢":12303,"Ġà":12304,"oria":12305,"itime":12306,"Ġfest":12307,"Ġfier":12308,"isations":12309,"anj":12310,"anus":12311,"Ġbin":12312,"Ġbron":12313,"Ġbush":12314,"Ġinver":12315,"Ġtools":12316,"Ġmisc":12317,"Ġmuzzle":12318,"ĠTob":12319,"ĠTaxon":12320,"Ġrework":12321,"ĠAw":12322,"sts":12323,"stones":12324,"ĠCG":12325,"ĠClear":12326,"adic":12327,"ĠMess":12328,"lyph":12329,"ĠBM":12330,"ĠBelt":12331,"ĠBoulder":12332,"olph":12333,"tery":12334,"ĠHak":12335,"ĠHockey":12336,"ĠHurricanes":12337,"Ġstaged":12338,"ĠPf":12339,"ĠRoll":12340,"ĠDian":12341,"unning":12342,"ĠFund":12343,"ĠNa":12344,"ĠWant":12345,"ĠLiao":12346,"ctic":12347,"Ġanger":12348,"umi":12349,"avan":12350,"rix":12351,"Ġdealt":12352,"Ġspore":12353,"ĠChu":12354,"ĠChile":12355,"cler":12356,"ĠVo":12357,"Ġinteg":12358,"outed":12359,"outing":12360,"Ġ202":12361,"Ġclust":12362,"izer":12363,"Ġdisgu":12364,"rice":12365,"ĠYet":12366,"ĠYang":12367,"phan":12368,"Ġprest":12369,"ribi":12370,"ailing":12371,"Ġfeared":12372,"ugg":12373,"Ġrelied":12374,"Ġsubd":12375,"Ġincidents":12376,"ĠRef":12377,"ĠReign":12378,"ĠReines":12379,"inski":12380,"Ġ109":12381,"Ġ1200":12382,"ĠSche":12383,"Ġnoise":12384,"Ġinvitation":12385,"ĠIndeed":12386,"Ġdescent":12387,"Ġdevelopments":12388,"Ġpolar":12389,"Ġextant":12390,"iente":12391,"Ġinsects":12392,"ĠBloom":12393,"Ġprovinces":12394,"ĠCarroll":12395,"ĠCarpenter":12396,"ĠAdri":12397,"ĠAdult":12398,"Ġvariable":12399,"Ġpromise":12400,"Ġlasting":12401,"Ġconfused":12402,"Ġcommanding":12403,"racted":12404,"ĠTherefore":12405,"Ġtempo":12406,"Ġhandle":12407,"Ġhandling":12408,"ĠComputer":12409,"Ġmarkets":12410,"Ġcrater":12411,"Ġtraditions":12412,"Ġplanets":12413,"Ġelite":12414,"Ġelectro":12415,"ĠAircraft":12416,"Ġordinary":12417,"Ġstatue":12418,"Ġequally":12419,"Ġpressed":12420,"Ġtourists":12421,"ĠNeolithic":12422,"ĠGlan":12423,"idding":12424,"ĠCareer":12425,"Ġ1899":12426,"ĠAtlÃ©t":12427,"bridge":12428,"Ġcommentators":12429,"Ġgrows":12430,"Ġ1885":12431,"Ġzinc":12432,"Ġceiling":12433,"ĠPartington":12434,"Ġcivilization":12435,"Ġgrain":12436,"boro":12437,"Ġtribe":12438,"ĠGreatest":12439,"ships":12440,"Ġdrown":12441,"inental":12442,"Ġscripts":12443,"ĠAnti":12444,"Ġintersections":12445,"Ġlifestyle":12446,"ĠAttack":12447,"Ġsuspected":12448,"ĠFormation":12449,"Ġevacuate":12450,"Ġevacuees":12451,"Ġtasks":12452,"Ġprinciples":12453,"Ġinternationally":12454,"Ã¼r":12455,"Ġexhibit":12456,"Ġofferings":12457,"Ġemphasized":12458,"Ġfragment":12459,"Ġattendance":12460,"Ġtargeted":12461,"Ġcomprising":12462,"ĠKeys":12463,"ĠCarlos":12464,"Ġreflecting":12465,"Ġperfectly":12466,"ĠHungary":12467,"Ġdistinguish":12468,"Ġinstructions":12469,"Ġlawsuit":12470,"Ġsleep":12471,"Ġconspirators":12472,"ĠArchaeology":12473,"Ġadvisories":12474,"Ġgathering":12475,"Ġdiverse":12476,"ĠCulture":12477,"ĠCultural":12478,"Ġprohibited":12479,"ĠÅĮ":12480,"Ġdevotion":12481,"ĠKyra":12482,"Ġrectangular":12483,"Ġcooperation":12484,"Ġnineteenth":12485,"htwald":12486,"Ġpione":12487,"aziridines":12488,"Ġdisbanded":12489,"Ġasteroid":12490,"Ġï»":12491,"Ġspawned":12492,"bracelet":12493,"ĠHumphrey":12494,"ĠRuler":12495,"ĠUrania":12496,"Ġgarnered":12497,"ĠFaulkner":12498,"ĠAtlÃ©tico":12499,"IV":12500,"PU":12501,"found":12502,"gud":12503,"ho":12504,"ked":12505,"mo":12506,"mers":12507,"rus":12508,"rines":12509,"ĨĴ":12510,"herent":12511,"Ġther":12512,"onso":12513,"Ġsic":12514,"itious":12515,"Ġcards":12516,"Ġfed":12517,"arius":12518,"Ġbol":12519,"ali":12520,"Ġment":12521,"Ġdug":12522,"Ġhung":12523,"ĠTell":12524,"ĠTank":12525,"ĠTuck":12526,"Ġreorgan":12527,"Ġreverse":12528,"ĠAN":12529,"ĠAS":12530,"ĠSaf":12531,"omon":12532,"omous":12533,"Ġnaked":12534,"ĠMI":12535,"ĠMak":12536,"ĠMole":12537,"ĠBased":12538,"ĠIR":12539,"idia":12540,"terfly":12541,"ĠHav":12542,"ĠHod":12543,"ĠPand":12544,"ĠPirates":12545,"ĠRut":12546,"ĠRound":12547,"ĠDup":12548,"ĠLaur":12549,"ĠGiel":12550,"avian":12551,"ĠEve":12552,"ifeng":12553,"Ġdeer":12554,"Ġchanc":12555,"ques":12556,"ĠâĨĴ":12557,"ĠStart":12558,"oved":12559,"Ġspear":12560,"Ġspoken":12561,"Ġleagues":12562,"idea":12563,"hedruli":12564,"Ġcliff":12565,"Ġresur":12566,"Ġrecruit":12567,"ĠThai":12568,"Ġscope":12569,"Ġages":12570,"Ġdislik":12571,"Ġjur":12572,"Ġplayable":12573,"overning":12574,"ibre":12575,"ensed":12576,"iko":12577,"Ġoutcome":12578,"inda":12579,"ampa":12580,"Ġweighed":12581,"ĠAny":12582,"Ġremote":12583,"icken":12584,"ugs":12585,"Ġsuburb":12586,"ĠScots":12587,"ĠAustin":12588,"ernoot":12589,"Ġmining":12590,"Ġmilitia":12591,"Ġextends":12592,"Ġcarrier":12593,"ĠConsequently":12594,"Ġairports":12595,"Ġimpressive":12596,"enne":12597,"Ġthoughts":12598,"Ġgoverned":12599,"Ġbrings":12600,"ĠForb":12601,"Ġrefuses":12602,"Ġconfidence":12603,"Ġorganic":12604,"Ġparad":12605,"Ġrequiring":12606,"levard":12607,"Ġconvicted":12608,"ĠXbox":12609,"Ġtwins":12610,"Ġinvolve":12611,"Ġmagic":12612,"beat":12613,"Ġterrestrial":12614,"ĠAfricaine":12615,"Ġsituations":12616,"Ġglac":12617,"Ġfrontier":12618,"Ġhumanity":12619,"Ġhumanitarian":12620,"Äģh":12621,"ĠHarbor":12622,"Ġswitch":12623,"Ġlikewise":12624,"Ġpriests":12625,"Ġconnect":12626,"ettes":12627,"Ġ1881":12628,"Ġ1859":12629,"Ġcommercially":12630,"Ġsexually":12631,"ĠMedal":12632,"Ġfloods":12633,"ĠCommando":12634,"Ġmaintains":12635,"ĠSuperman":12636,"ĠÃĨ":12637,"Ġparticipation":12638,"Ġoccupy":12639,"Ġcaliber":12640,"Ġ1832":12641,"Ġapartment":12642,"Ġphysics":12643,"Ġ1848":12644,"backs":12645,"ĠCatholics":12646,"Ġthickness":12647,"Ġlabour":12648,"Ġdedication":12649,"awny":12650,"Ġsuspic":12651,"ĠFormer":12652,"Ġdrummer":12653,"Ġversus":12654,"Ġsymbols":12655,"ĠJulio":12656,"ĠFerr":12657,"Ġchemistry":12658,"ĠKaifeng":12659,"ĠGibson":12660,"Ġmechanism":12661,"ĠIntram":12662,"ĠHyd":12663,"Ġimagination":12664,"Ġhonorary":12665,"ĠRetrieved":12666,"ĠGreece":12667,"Ġboyfriend":12668,"Ġexpeditions":12669,"Ġcollaborated":12670,"Ġrivalry":12671,"Ġdescendants":12672,"ĠApart":12673,"ĠVillaret":12674,"ĠMoving":12675,"Ġremnant":12676,"ĠRevolutionary":12677,"ĠAlfa":12678,"Ġprosecution":12679,"Ġreserves":12680,"ĠBrazilian":12681,"Ġamphibians":12682,"Ġblend":12683,"Ġwicket":12684,"Ġdeposits":12685,"Ġskelet":12686,"Ġexhaust":12687,"Ġanswer":12688,"Ġorchestra":12689,"ĠIndonesian":12690,"ĠConfederate":12691,"ĠTrout":12692,"Ġconscious":12693,"ĠATP":12694,"ĠMkhedruli":12695,"Ġenthusi":12696,"ĠObserver":12697,"Ġbranches":12698,"ĠVandernoot":12699,"Ġmemorable":12700,"ĠBanksia":12701,"ĠCantrell":12702,"Ġlinear":12703,"Ġredesign":12704,"Ġvulnerable":12705,"Ġcomprehensive":12706,"Ġmysterious":12707,"Ġdancers":12708,"ĠCharmbracelet":12709,"ĠNavarro":12710,"Ġreminiscent":12711,"ĠRockefeller":12712,"ĠGlanville":12713,"Ġï»¿":12714,"ĠGielgud":12715,"HS":12716,"OM":12717,"OS":12718,"TA":12719,"UC":12720,"bu":12721,"bard":12722,"bach":12723,"cor":12724,"iency":12725,"mith":12726,"master":12727,"pack":12728,"sis":12729,"Äį":12730,"Æ¡":12731,"Ġtent":12732,"Ġtension":12733,"hears":12734,"Ġtherapy":12735,"erb":12736,"erp":12737,"Ġsacked":12738,"Ġwire":12739,"Ġwished":12740,"Ġoct":12741,"atri":12742,"itus":12743,"itars":12744,"Ġbold":12745,"Ġbath":12746,"Ġine":12747,"Ġinex":12748,"ingham":12749,"icial":12750,"Ġmg":12751,"Ġmad":12752,"leased":12753,"ĠTide":12754,"Ġreh":12755,"ĠSport":12756,"ĠSug":12757,"ĠSMS":12758,"Ġthro":12759,"stage":12760,"ĠCatherine":12761,"Ġlig":12762,"Ġlock":12763,"amics":12764,"Ġeagle":12765,"Ġnaut":12766,"ĠMut":12767,"ĠMaid":12768,"ĠMaj":12769,"ĠBod":12770,"olar":12771,"Ġgren":12772,"Ġgender":12773,"Ġstick":12774,"Ġstair":12775,"Ġsteal":12776,"Ġstaying":12777,"Ġstanz":12778,"ĠRey":12779,"ĠRook":12780,"ĠDE":12781,"ĠFal":12782,"ĠFlying":12783,"Ġconform":12784,"Ġconven":12785,"ĠNK":12786,"ĠNam":12787,"ĠLoy":12788,"ĠLung":12789,"ĠGenesis":12790,"Ġitem":12791,"ĠJas":12792,"ĠEz":12793,"ĠEarn":12794,"onge":12795,"ĠKan":12796,"ghan":12797,"Ġexchang":12798,"pts":12799,"ĠUk":12800,"ĠUy":12801,"ĠâĢ¦":12802,"ogs":12803,"ĠVa":12804,"Ġcomputers":12805,"Ġresolved":12806,"Ġperc":12807,"Ġperception":12808,"lando":12809,"Ġdesired":12810,"Ġoutd":12811,"angle":12812,"awi":12813,"Ġsecular":12814,"ailand":12815,"ĠSean":12816,"Ġrelating":12817,"ĠEnergy":12818,"Ġbuoys":12819,"rosaur":12820,"Ġmusc":12821,"Ġ103":12822,"anyan":12823,"Ġpresbyter":12824,"Ġmetric":12825,"Ġ156":12826,"Ġopined":12827,"ĠWarner":12828,"uedoc":12829,"Ġmaturity":12830,"ĠClocks":12831,"ĠBlock":12832,"Ġadventures":12833,"Ġguid":12834,"ĠDevin":12835,"ĠBeing":12836,"Ġdetect":12837,"Ġprototype":12838,"aiman":12839,"Ġconfident":12840,"Ġslave":12841,"Ġsentiment":12842,"ĠOrlando":12843,"ĠPrim":12844,"ĠAmos":12845,"Ġcrimes":12846,"Ġelig":12847,"ealous":12848,"ĠElgin":12849,"Ġaffect":12850,"Ġnationalist":12851,"Ġentirety":12852,"ĠSyria":12853,"Ġidentification":12854,"ĠMerc":12855,"Ġlacks":12856,"Ġencourag":12857,"Ġ1882":12858,"Ġrebel":12859,"Ġfortifications":12860,"Ġ1856":12861,"Ġhonors":12862,"ĠBerhtwald":12863,"ĠThompson":12864,"ĠCommandos":12865,"ĠMetropolitan":12866,"ĠArtillery":12867,"Ġscreened":12868,"Ġconcludes":12869,"Ġloose":12870,"ĠHeadlam":12871,"Ġconsiderably":12872,"ĠArchitect":12873,"Ġinvestigated":12874,"Ġphotography":12875,"ĠJamie":12876,"ĠJosephine":12877,"ĠConfessions":12878,"ĠFourth":12879,"ĠIndependiente":12880,"ĠBolton":12881,"Ġholes":12882,"Ġprisoner":12883,"Ġportrayal":12884,"ĠPopM":12885,"Ġduo":12886,"Ġextraord":12887,"ĠReviews":12888,"ĠBhair":12889,"Ġpanels":12890,"ĠRajam":12891,"Ġrows":12892,"Ġgrasses":12893,"Ġsailing":12894,"ĠFreedom":12895,"Ġfears":12896,"ĠExped":12897,"ĠConstantin":12898,"boards":12899,"Ġswept":12900,"Ġtravelling":12901,"Ġmicroscop":12902,"ĠLiberal":12903,"Ġaccidentally":12904,"ĠBarbara":12905,"Ġcontributions":12906,"Ġdisturbed":12907,"Ġoptions":12908,"Ġmythology":12909,"Ġreconstruct":12910,"ĠGabri":12911,"Ġvertices":12912,"Ġdrugs":12913,"Ġcabinet":12914,"Ġimmigrants":12915,"Ġexercise":12916,"Ġfloating":12917,"Ġpuzzle":12918,"ĠGanges":12919,"ĠQedarites":12920,"Ġindigo":12921,"ĠIndonesia":12922,"Ġsamples":12923,"Ġcarriers":12924,"Ġteachings":12925,"Ġturbines":12926,"ĠLanguedoc":12927,"Ġnickname":12928,"ĠUniversal":12929,"Ġrendered":12930,"Ġjackrabbit":12931,"ĠGladstone":12932,"court":12933,"oplasm":12934,"Ġinflicted":12935,"ĠCPS":12936,"Ġbarely":12937,"Ġinhabited":12938,"ĠFreakum":12939,"ĠWNO":12940,"ĠMcEl":12941,"Ġhampered":12942,"ximity":12943,"ĠLoverboy":12944,"Ġsymptoms":12945,"Ġnephew":12946,"Ġincomplete":12947,"ĠAuburn":12948,"Ġsiblings":12949,"ĠLeicester":12950,"ĠIntramuros":12951,"Ġnautical":12952,"iants":12953,"mund":12954,"metr":12955,"saku":12956,"ufficient":12957,"Ġè":12958,"Ġé":12959,"Ġtune":12960,"inued":12961,"eria":12962,"rez":12963,"Ġsink":12964,"aland":12965,"aliation":12966,"Ġpian":12967,"Ġpier":12968,"Ġhide":12969,"Ġharsh":12970,"leans":12971,"ĠTy":12972,"ĠSak":12973,"ĠSang":12974,"ĠSamp":12975,"ĠCann":12976,"Ġlam":12977,"Ġlun":12978,"Ġecho":12979,"ĠMh":12980,"ĠMom":12981,"ĠMol":12982,"ĠMail":12983,"ĠBelf":12984,"oles":12985,"Ġgram":12986,"Ġgoverning":12987,"Ġforget":12988,"igon":12989,"ĠHosp":12990,"Ġasc":12991,"usa":12992,"Ġstall":12993,"ĠPel":12994,"ĠPap":12995,"ema":12996,"ĠNorse":12997,"ĠWes":12998,"rained":12999,"ĠLuz":13000,"osion":13001,"ĠGack":13002,"ĠEP":13003,"Ġproclaimed":13004,"Ġproximity":13005,"Ġrh":13006,"Ġramp":13007,"abs":13008,"ĠKub":13009,"Ġchord":13010,"Ġexile":13011,"quis":13012,"quir":13013,"Ġshall":13014,"Ġshipped":13015,"ĠChop":13016,"Ġuncon":13017,"Ġintent":13018,"solete":13019,"pert":13020,"Ġclad":13021,"Ġrecapt":13022,"ĠThing":13023,"ĠThailand":13024,"Ġscores":13025,"Ġovercome":13026,"Ġalliance":13027,"Ġnearest":13028,"Ġdeciding":13029,"othic":13030,"Ġflour":13031,"Ġflown":13032,"Ġrelocated":13033,"ĠAmericas":13034,"Ġrabb":13035,"Ġregiments":13036,"hesh":13037,"Ġspeculated":13038,"Ġincred":13039,"heng":13040,"ĠShar":13041,"Ġmetaph":13042,"Ġ172":13043,"Ġ173":13044,"Ġstudios":13045,"aux":13046,"Ġobsolete":13047,"ashire":13048,"Ã©l":13049,"Ġguitars":13050,"Ġdamages":13051,"ĠBeij":13052,"ĠGuinness":13053,"opsis":13054,"ĠFlotilla":13055,"ĠEdition":13056,"ĠWeev":13057,"Ġdebt":13058,"Ġtotally":13059,"Ġdelight":13060,"Ġsuggestion":13061,"Ġrealised":13062,"ĠTrad":13063,"ĠTrinity":13064,"ĠXook":13065,"Ġelectrical":13066,"Ġcompetitor":13067,"Ġterrorist":13068,"Ġstatues":13069,"escope":13070,"ĠBaron":13071,"Ġwanting":13072,"Ġnightingale":13073,"Ġkeen":13074,"ĠOthers":13075,"Ġtraditionally":13076,"Ġacceptance":13077,"Ġ1865":13078,"Ġstrengthening":13079,"ĠMarket":13080,"ĠQuinn":13081,"Ġremoving":13082,"Ġthinks":13083,"Ġsubjected":13084,"Ġ750":13085,"ragon":13086,"ĠNote":13087,"Ġcheek":13088,"Ġensuing":13089,"ĠTerry":13090,"Ġattractive":13091,"ĠArchbishop":13092,"ĠBradman":13093,"Ġlayers":13094,"Ġpreventing":13095,"Ġlogs":13096,"ĠOutside":13097,"Ġdefender":13098,"ĠLoose":13099,"Ġreinforce":13100,"ĠJulian":13101,"Ġsupplied":13102,"Ġelevated":13103,"Ġeleventh":13104,"ĠDerby":13105,"galith":13106,"ĠCapital":13107,"Ġemotion":13108,"ĠHalf":13109,"Ġstopping":13110,"ĠLegisl":13111,"ĠKarl":13112,"Ġeliminate":13113,"ĠSubsequently":13114,"Ġbelonged":13115,"Ġreflects":13116,"Ġmistaken":13117,"ĠMicro":13118,"Ġrestaurants":13119,"ĠBrigades":13120,"Ġrituals":13121,"Ġdecreased":13122,"Ġdecrease":13123,"avery":13124,"Ġaccomplished":13125,"ĠWinter":13126,"Ġcategories":13127,"ĠMariah":13128,"ÅĤaw":13129,"Ġconquered":13130,"ĠPotter":13131,"Ġrecreational":13132,"ĠLancashire":13133,"Ġrelegation":13134,"Ġabsolut":13135,"ĠTechnology":13136,"Ġobstacles":13137,"Ġimprisonment":13138,"ĠVienna":13139,"ĠExpressway":13140,"Ġplayoffs":13141,"Ġborders":13142,"ĠYugoslavia":13143,"aturally":13144,"Ġbattlecruisers":13145,"ĠPrivate":13146,"ĠEugene":13147,"ĠPakistan":13148,"Ġisotopes":13149,"ĠGazan":13150,"ĠKÅįsaku":13151,"Ġcanceled":13152,"ĠPuerto":13153,"ĠBattery":13154,"Ġprecipitation":13155,"ĠBarbarian":13156,"rometric":13157,"Ġalcohol":13158,"ĠShimomura":13159,"Ġhorizontal":13160,"Ġdecommissioned":13161,"ĠTaxonomy":13162,"ĠGacko":13163,"BO":13164,"Bob":13165,"ait":13166,"bi":13167,"dy":13168,"front":13169,"gom":13170,"hand":13171,"iu":13172,"rino":13173,"vy":13174,"Ġes":13175,"Ġion":13176,"Ġtennis":13177,"Ġairst":13178,"Ġaft":13179,"inas":13180,"onn":13181,"rels":13182,"Ġsails":13183,"orian":13184,"itate":13185,"Ġcable":13186,"Ġcorpor":13187,"Ġbinding":13188,"Ġpig":13189,"rogen":13190,"Ġmos":13191,"Ġmere":13192,"Ġdread":13193,"Ġhockey":13194,"ĠTz":13195,"ĠTalk":13196,"Ġrept":13197,"ĠAL":13198,"ĠSey":13199,"Ġthorough":13200,"adh":13201,"ĠMeth":13202,"ĠTheater":13203,"ĠBoot":13204,"ĠBask":13205,"ĠBÃ¬nh":13206,"ĠIgn":13207,"eto":13208,"ĠHous":13209,"ĠHold":13210,"uskh":13211,"Ġstalk":13212,"Ġstrange":13213,"ĠPok":13214,"ĠRush":13215,"ĠRFU":13216,"emark":13217,"ĠDry":13218,"ĠDraft":13219,"ĠFus":13220,"ĠFather":13221,"ĠNik":13222,"ĠWells":13223,"ĠWitchcraft":13224,"ĠLear":13225,"estock":13226,"ums":13227,"ĠEmer":13228,"ĠEaster":13229,"ĠOri":13230,"opy":13231,"Ġvin":13232,"Ġvass":13233,"Ġsear":13234,"Ġseal":13235,"Ġorange":13236,"ĠKatherine":13237,"Ġexterior":13238,"quet":13239,"quest":13240,"ĠStyle":13241,"geant":13242,"inee":13243,"ellor":13244,"ogram":13245,"Ġunh":13246,"Ġunpre":13247,"Ġresort":13248,"Ġabn":13249,"Ġrecount":13250,"Ġscales":13251,"itional":13252,"ĠAlph":13253,"Ġoverth":13254,"iban":13255,"ĠAnim":13256,"ĠSeb":13257,"Ġreluct":13258,"Ġmeat":13259,"ĠEno":13260,"Ġinterrupted":13261,"rosaurus":13262,"Ġcoat":13263,"Ġindirect":13264,"Ġmonster":13265,"ĠShaw":13266,"Ġentert":13267,"Ġdoors":13268,"tona":13269,"Ġtranscription":13270,"Ġdeputy":13271,"Ġ157":13272,"elfth":13273,"ĠGerald":13274,"Ġmilk":13275,"Ġwarnings":13276,"Ġinfl":13277,"Ġrespected":13278,"ĠSponge":13279,"Ġinsult":13280,"Ġinsufficient":13281,"ĠAugustus":13282,"ennial":13283,"Ġ134":13284,"Ġguy":13285,"Ġconcerning":13286,"Ġannoy":13287,"Ġprotesters":13288,"Ġbread":13289,"Ġdrink":13290,"Ġexplan":13291,"Ġboost":13292,"Ġcameo":13293,"Ġdemanding":13294,"Ġdemographic":13295,"ĠOrleans":13296,"Ġdebated":13297,"Ġdebris":13298,"ĠTruth":13299,"ĠPerth":13300,"Ġeveryday":13301,"Ġeld":13302,"Ġcompeting":13303,"Ġerror":13304,"ĠMicha":13305,"ĠAssist":13306,"Ġlessons":13307,"Ġnevertheless":13308,"Ġaffecting":13309,"adesh":13310,"Ġprimitive":13311,"ĠBlacks":13312,"Ġdeclaring":13313,"umping":13314,"Ġswit":13315,"Ġ1891":13316,"Ġ1893":13317,"ĠSword":13318,"Ġspecialized":13319,"Ġknows":13320,"Ġhonours":13321,"Ġresponses":13322,"ĠBerg":13323,"ĠBergen":13324,"Ġcontracts":13325,"ĠCrist":13326,"Ġachievement":13327,"Ġrape":13328,"ĠÃį":13329,"ouli":13330,"ĠAppro":13331,"Ġharass":13332,"ĠMahesh":13333,"Ġgraduated":13334,"ĠArtist":13335,"ĠFeel":13336,"ĠMontfort":13337,"ĠMontgom":13338,"Ġexamined":13339,"ratch":13340,"Ġultimate":13341,"ĠFIT":13342,"Ġfocuses":13343,"Ġparks":13344,"owski":13345,"Ġgraphic":13346,"Ġpaths":13347,"Ġconfirm":13348,"ĠFinn":13349,"ĠLoch":13350,"Ġpleased":13351,"Ġprinciple":13352,"Ġdisappear":13353,"umberland":13354,"Ġexcavated":13355,"ĠPitts":13356,"Ġcontacted":13357,"Ġmessages":13358,"ĠCraig":13359,"ĠMortier":13360,"ĠTimor":13361,"Ġmobil":13362,"ĠAdditional":13363,"Ġ737":13364,"ĠImagist":13365,"ĠDemocrats":13366,"Ġtheaters":13367,"Ġexplosion":13368,"ĠBroadcast":13369,"Ġcontested":13370,"Ġawareness":13371,"Ġclouds":13372,"ĠElectronic":13373,"ĠChronicle":13374,"Ġnavigation":13375,"ĠUrban":13376,"ĠDiego":13377,"Ġrevolt":13378,"Ġremembered":13379,"Ġborrowed":13380,"ĠHedgehog":13381,"Ġlatest":13382,"Ġfossils":13383,"Ġguerrillas":13384,"Ġrendition":13385,"Ġswimming":13386,"Ġsupernatural":13387,"Ġliquid":13388,"houser":13389,"Ġcoffee":13390,"Ġadvertisements":13391,"ĠFifth":13392,"ĠPoetry":13393,"Ġhygrometric":13394,"Ġbarracks":13395,"Ġreperto":13396,"ĠWikiped":13397,"Ġaccusations":13398,"ĠCrystal":13399,"Ġdescriptions":13400,"ĠThanhouser":13401,"Ġsupreme":13402,"Ġunstable":13403,"Æ°Æ¡":13404,"ĠPfaster":13405,"ĠStarting":13406,"ĠEarnest":13407,"ĠUygh":13408,"Ġguidance":13409,"metrical":13410,"ĠBelfast":13411,"ĠBeijing":13412,"uskhuri":13413,"ĠSpongeBob":13414,"ĠMontgomery":13415,"Æ°Æ¡ng":13416,"CS":13417,"bone":13418,"cont":13419,"fric":13420,"iop":13421,"jin":13422,"lies":13423,"nan":13424,"pow":13425,"rut":13426,"tes":13427,"uits":13428,"wy":13429,"yan":13430,"yers":13431,"ĠØ":13432,"ĠãĤ":13433,"ģĦ":13434,"Ġtap":13435,"Ġtawny":13436,"Ġaux":13437,"inich":13438,"onation":13439,"Ġcu":13440,"Ġcod":13441,"Ġcyl":13442,"Ġcats":13443,"Ġfals":13444,"anim":13445,"Ġben":13446,"inge":13447,"Ġpose":13448,"asant":13449,"roads":13450,"Ġmast":13451,"Ġdign":13452,"Ġhaz":13453,"leted":13454,"ĠSic":13455,"iland":13456,"strong":13457,"ĠCA":13458,"ĠCore":13459,"ĠCase":13460,"ĠClement":13461,"Ġlaud":13462,"Ġease":13463,"Ġnas":13464,"Ġnerv":13465,"acc":13466,"acular":13467,"acements":13468,"ĠMult":13469,"otihu":13470,"ĠHand":13471,"ĠHang":13472,"ĠHern":13473,"Ġstuff":13474,"ayed":13475,"ĠPont":13476,"ĠDoc":13477,"ĠFear":13478,"ĠFlet":13479,"ĠFisher":13480,"ĠFlanders":13481,"Ġwhatever":13482,"ĠNME":13483,"ĠNuskhuri":13484,"oso":13485,"ĠGand":13486,"ĠGross":13487,"ĠJar":13488,"ĠJag":13489,"Ġanalys":13490,"isting":13491,"riors":13492,"ĠESP":13493,"rescent":13494,"iferous":13495,"Ġproc":13496,"Ġvent":13497,"illance":13498,"ĠdeGrom":13499,"Ġsuited":13500,"Ġoral":13501,"ĠKum":13502,"Ġchase":13503,"ĠâģĦ":13504,"ĠStakes":13505,"Ġspell":13506,"Ġspark":13507,"Ġleaf":13508,"ellers":13509,"ĠVe":13510,"ĠVishn":13511,"Ġcomparing":13512,"Ġcompiled":13513,"Ġbutt":13514,"Ġconting":13515,"Ġreserved":13516,"Ġperf":13517,"ika":13518,"ikh":13519,"Ġenvelop":13520,"intage":13521,"Ġworker":13522,"Ġsecuring":13523,"Ġdecoration":13524,"Ġrelax":13525,"ologically":13526,"Ġthanks":13527,"veillance":13528,"Ġretaining":13529,"Ġassum":13530,"Ġquar":13531,"Ġcoined":13532,"Ġincons":13533,"Ġhighlights":13534,"Ġadds":13535,"Ġexpanding":13536,"Ġreporter":13537,"Ġextr":13538,"Ġinstances":13539,"Ġdistort":13540,"Ġpassenger":13541,"ĠCommodore":13542,"ĠManhatt":13543,"Ġadvent":13544,"Ġadvocated":13545,"Ġbatting":13546,"ĠAllmusic":13547,"Ġcharacterised":13548,"ĠProdu":13549,"ĠGuam":13550,"appen":13551,"Ġslaves":13552,"ĠParanth":13553,"Ġtracking":13554,"Ġexplored":13555,"ĠEuropeans":13556,"Ġmedian":13557,"elta":13558,"ĠFlag":13559,"Ġdemo":13560,"ĠTeotihu":13561,"ĠAmyl":13562,"arnation":13563,"Ġarchipelago":13564,"ĠTrade":13565,"Ġmyel":13566,"Ġ260":13567,"Ġerosion":13568,"Ġprojected":13569,"Ġterror":13570,"Ġeighteen":13571,"Ġsitcom":13572,"Ġfacts":13573,"Ġdivines":13574,"Ġgenres":13575,"Ġpainter":13576,"ĠHighland":13577,"ĠBlackie":13578,"Ġfrontal":13579,"Ġsummon":13580,"Ġvillain":13581,"Ġcoastline":13582,"Ġ1892":13583,"Ġ1896":13584,"Ġsuffer":13585,"ĠMoro":13586,"Ġimprov":13587,"Ġ1851":13588,"Ġ1853":13589,"ĠEmma":13590,"Ġexciting":13591,"ĠBerk":13592,"ĠCrim":13593,"ĠRhode":13594,"Ġ1874":13595,"Ġillum":13596,"Ġachievements":13597,"Ġdrawings":13598,"ĠWilf":13599,"ĠOsbert":13600,"Ġdonations":13601,"Ġinterviewed":13602,"Ġbreakdown":13603,"Ġblockade":13604,"Ġharvest":13605,"ĠHelen":13606,"ĠVargas":13607,"Ġcomplained":13608,"ĠTerrorist":13609,"Ġcontempor":13610,"ĠReserve":13611,"unta":13612,"Ġcontrolling":13613,"ĠAttale":13614,"Ġfocusing":13615,"Ġpursued":13616,"ĠHumpty":13617,"Ġadvantages":13618,"ĠHistorical":13619,"ĠLockport":13620,"ĠJosh":13621,"ĠColonies":13622,"ĠDamage":13623,"ĠNazaire":13624,"Ġmelod":13625,"ĠFerry":13626,"ĠAnnals":13627,"Ġathletics":13628,"ĠProtection":13629,"ĠKirby":13630,"ĠEngineers":13631,"Ġincorporates":13632,"Ġfunctional":13633,"Ġremixes":13634,"Ġlabeled":13635,"Ġwitnessed":13636,"Ġeasier":13637,"ĠSusan":13638,"Ġsubstantially":13639,"ĠCuba":13640,"Ġproposals":13641,"ĠGabbar":13642,"Ġferry":13643,"Ġshelter":13644,"Ġlobster":13645,"Ġaltarpiece":13646,"Ġbeside":13647,"Ġbesie":13648,"ĠKatia":13649,"ĠGanganelli":13650,"Ġskeleton":13651,"Ġanthrop":13652,"Ġrumors":13653,"Ġenforcement":13654,"ĠStrapping":13655,"Ġoverwhelmed":13656,"Ġtackles":13657,"ĠBuddhist":13658,"Ġpersuaded":13659,"Ġimprisoned":13660,"ĠPAVN":13661,"ĠTaiwan":13662,"Ġgammar":13663,"Ġfatalities":13664,"Ġhence":13665,"Ġefficient":13666,"ĠBehind":13667,"Ġsummary":13668,"Ġanticipated":13669,"Ġastronomers":13670,"ĠDrama":13671,"ĠDiamond":13672,"Ġveteran":13673,"Ġseventeen":13674,"Ġtrunkline":13675,"ĠHeyman":13676,"Ġsemifinals":13677,"ĠRepresentatives":13678,"Ġcelebration":13679,"Ġboilers":13680,"ĠCoalition":13681,"Ġenlarged":13682,"Ġscenario":13683,"ĠBracknell":13684,"ĠÂµm":13685,"ĠWrestle":13686,"ĠLunga":13687,"ĠRajamouli":13688,"ĠExpedition":13689,"ĠMcElroy":13690,"ĠMhalsa":13691,"ĠÃįmar":13692,"Ġhygrometricus":13693,"ĠESPN":13694,"ĠManhattan":13695,"ĠParanthodon":13696,"Mania":13697,"core":13698,"care":13699,"fus":13700,"iÃ¨":13701,"jib":13702,"lon":13703,"lot":13704,"lance":13705,"nance":13706,"pike":13707,"uber":13708,"xi":13709,"Ã«":13710,"Ã´":13711,"Äĥ":13712,"ĠËĪ":13713,"Ġties":13714,"Ġthesis":13715,"erdale":13716,"Ġsor":13717,"Ġsinking":13718,"Ġol":13719,"Ġcel":13720,"Ġcra":13721,"Ġcub":13722,"Ġcement":13723,"Ġcakes":13724,"Ġcooking":13725,"Ġfisher":13726,"Ġmaps":13727,"Ġdad":13728,"ĠAx":13729,"ĠAren":13730,"ĠAOC":13731,"ĠSri":13732,"ĠSEC":13733,"ĠSNL":13734,"ĠCadmium":13735,"Ġlod":13736,"amas":13737,"Ġecl":13738,"Ġnice":13739,"aco":13740,"acrit":13741,"ĠMets":13742,"uru":13743,"ĠBreak":13744,"ĠIl":13745,"ĠITV":13746,"Ġgains":13747,"usade":13748,"Ġstance":13749,"ĠPiz":13750,"ĠPrice":13751,"Ġheter":13752,"ĠRal":13753,"ĠROK":13754,"ĠDÃŃ":13755,"ĠDawn":13756,"ĠFastra":13757,"ĠFringe":13758,"ulsion":13759,"ulator":13760,"Ġconclus":13761,"ĠNAS":13762,"ĠNEA":13763,"ĠWave":13764,"ĠWoman":13765,"ĠGet":13766,"ĠGrey":13767,"ĠGothic":13768,"agh":13769,"riz":13770,"ĠEch":13771,"ĠOke":13772,"opol":13773,"Ġprobe":13774,"ĠKod":13775,"Ġchann":13776,"Ġchances":13777,"Ġshopping":13778,"ovil":13779,"ovac":13780,"apter":13781,"Ġabst":13782,"Ġherb":13783,"Ġrecalls":13784,"izong":13785,"Ġdisorder":13786,"Ġdischar":13787,"Ġjealous":13788,"ensional":13789,"ĠYu":13790,"renton":13791,"ĠUnit":13792,"lesey":13793,"othy":13794,"ĠArcher":13795,"Ġtraces":13796,"Ġflaw":13797,"Ġflatt":13798,"obee":13799,"Ġfilmm":13800,"ĠNewark":13801,"Ġassign":13802,"Ġregister":13803,"Ġformations":13804,"Ġacclaimed":13805,"Ġcoaster":13806,"Ġamazing":13807,"ĠLein":13808,"insky":13809,"Ġ126":13810,"Ġinvented":13811,"Ġblame":13812,"Ġblind":13813,"Ġblank":13814,"Ġblamed":13815,"ĠZA":13816,"Ġtransits":13817,"Ġ119":13818,"Ġcontinent":13819,"Ġdeveloper":13820,"ĠSpirit":13821,"Ġpreval":13822,"ĠNorthwest":13823,"ĠNorthumberland":13824,"Ġelephant":13825,"Ġpointing":13826,"ĠJanet":13827,"Ġgrace":13828,"ĠGuang":13829,"ĠGuerr":13830,"Ġslip":13831,"Ġkiller":13832,"echobee":13833,"Ġorganisations":13834,"ĠAndr":13835,"Ġsentenced":13836,"Ġboom":13837,"ĠSteven":13838,"Ġmidnight":13839,"Ġdelays":13840,"ĠAborig":13841,"Ġcurren":13842,"Ġpolitically":13843,"Ġpostp":13844,"ĠAfghan":13845,"Ġvictorious":13846,"Ġfreed":13847,"ĠAngl":13848,"ĠAnglesey":13849,"Ġprofound":13850,"Ġsurvives":13851,"Ġterrible":13852,"Ġlighting":13853,"Ġlesser":13854,"Ġjoins":13855,"Ġobser":13856,"Ġfarming":13857,"ĠDavies":13858,"Ġbarb":13859,"Ġbarometric":13860,"Ġcataly":13861,"Ġtourism":13862,"Ġintroduces":13863,"ĠExecutive":13864,"ĠOliver":13865,"ĠMonten":13866,"ĠPalm":13867,"Ġmixing":13868,"Ġtreasure":13869,"Ġimproving":13870,"Ġfortified":13871,"Ġarguments":13872,"ĠMedieval":13873,"ĠPeace":13874,"Ġcostumes":13875,"Ġreactor":13876,"Ġpractical":13877,"Ġclearing":13878,"Ġthreatening":13879,"ĠMaryang":13880,"ĠÃħ":13881,"oult":13882,"Ġbills":13883,"Ġharbor":13884,"Ġ1837":13885,"Ġapplications":13886,"ĠBuen":13887,"ĠBeyond":13888,"ĠSoviets":13889,"Ġpeaceful":13890,"Ġgrandson":13891,"ĠEss":13892,"ĠArmoured":13893,"ĠArmstrong":13894,"Ġdemonstration":13895,"Ġaggress":13896,"Ġpreparations":13897,"Ġlegislative":13898,"ĠReviewers":13899,"ĠLarge":13900,"ĠLlosa":13901,"ĠUNES":13902,"Ġcomprises":13903,"Ġoverlooking":13904,"Ġfungi":13905,"boat":13906,"ĠAdmiralty":13907,"Ġunusually":13908,"Ġdimensional":13909,"Ġpulp":13910,"ĠBruins":13911,"ĠLiberty":13912,"ĠAthletics":13913,"Ġcooler":13914,"Ġcrafts":13915,"Ġprosper":13916,"Ġmigration":13917,"ĠWinston":13918,"Ġmemorials":13919,"ĠYeovil":13920,"Ġmutual":13921,"Ġshelters":13922,"ĠBiography":13923,"ĠSpringfield":13924,"Ġdinosaurs":13925,"Ġinstrumental":13926,"Ġgrossing":13927,"ĠHunter":13928,"ĠStewie":13929,"ĠPersonnel":13930,"Ġhanging":13931,"Ġallegations":13932,"ĠJennifer":13933,"ĠPicture":13934,"Ġloyalty":13935,"ĠSaigon":13936,"isphere":13937,"Ġdisappointed":13938,"Ġframework":13939,"Ġjournalists":13940,"ĠCobra":13941,"Ġnicknamed":13942,"Ġinnovative":13943,"Ġoutput":13944,"Ġprospect":13945,"Ġabundant":13946,"ĠPierre":13947,"Ġerrors":13948,"ĠMcLaren":13949,"Ġelderly":13950,"ĠJenkins":13951,"Ġaggregate":13952,"ĠPanzer":13953,"Ġlivestock":13954,"ĠWolver":13955,"Ġintelligent":13956,"Ġsanctuary":13957,"ĠFriedrich":13958,"ĠCommercial":13959,"Ġcameras":13960,"ĠFitts":13961,"ĠLauderdale":13962,"ĠAlgernon":13963,"tymology":13964,"Ġfarther":13965,"Ġalphabet":13966,"ĠRafael":13967,"Ġbronze":13968,"ĠEzra":13969,"Ġpercussion":13970,"ĠConstantinople":13971,"Ġrepertoire":13972,"ĠTeotihuacan":13973,"Ġgammarus":13974,"ĠWrestleMania":13975,"ĠDÃŃaz":13976,"ĠOkeechobee":13977,"ĠUNESCO":13978,"SU":13979,"bits":13980,"fa":13981,"feld":13982,"iating":13983,"mi":13984,"mad":13985,"mill":13986,"oi":13987,"put":13988,"uania":13989,"Ãł":13990,"Ġç":13991,"Ġts":13992,"Ġtong":13993,"Ġtensions":13994,"held":13995,"inqu":13996,"rection":13997,"Ġsou":13998,"Ġsid":13999,"Ġsaving":14000,"Ġware":14001,"iture":14002,"itating":14003,"Ġcage":14004,"Ġfing":14005,"Ġfet":14006,"Ġfighters":14007,"armed":14008,
[...]
