{"version":"1.0","truncation":null,"padding":null,"added_tokens":[{"id":0,"special":true,"content":"[UNK]","single_word":false,"lstrip":false,"rstrip":false,"normalized":false}],"normalizer":null,"pre_tokenizer":{"type":"Whitespace"},"post_processor":null,"decoder":null,"model":{"type":"BPE","dropout":null,"unk_token":"[UNK]","continuing_subword_prefix":null,"end_of_word_suffix":null,"fuse_unk":false,"vocab":{"[UNK]":0,"!":1,"\"":2,"#":3,"%":4,"&":5,"'":6,"(":7,")":8,"*":9,",":10,"-":11,".":12,"/":13,"0":14,"1":15,"2":16,"3":17,"4":18,"5":19,"6":20,"7":21,"8":22,"9":23,":":24,";":25,"<":26,"=":27,">":28,"?":29,"@":30,"A":31,"B":32,"C":33,"D":34,"E":35,"F":36,"G":37,"H":38,"I":39,"J":40,"K":41,"L":42,"M":43,"N":44,"O":45,"P":46,"Q":47,"R":48,"S":49,"T":50,"U":51,"V":52,"W":53,"X":54,"Y":55,"Z":56,"[":57,"]":58,"_":59,"`":60,"a":61,"b":62,"c":63,"d":64,"e":65,"f":66,"g":67,"h":68,"i":69,"j":70,"k":71,"l":72,"m":73,"n":74,"o":75,"p":76,"q":77,"r":78,"s":79,"t":80,"u":81,"v":82,"w":83,"x":84,"y":85,"z":86,"|":87,"}":88,"~":89,"th":90,"ou":91,"er":92,"in":93,"an":94,"the":95,"or":96,"is":97,"en":98,"at":99,"ar":100,"ll":101,"on":102,"es":103,"and":104,"to":105,"me":106,"st":107,"he":108,"you":109,"no":110,"of":111,"ha":112,"it":113,"re":114,"se":115,"ve":116,"ing":117,"le":118,"wi":119,"be":120,"ch":121,"as":122,"ce":123,"my":124,"ow":125,"for":126,"hi":127,"ay":128,"nd":129,"ld":130,"ere":131,"ir":132,"ut":133,"not":134,"Th":135,"ro":136,"de":137,"gh":138,"li":139,"we":140,"that":141,"ke":142,"oo":143,"with":144,"our":145,"And":146,"ter":147,"al":148,"ed":149,"so":150,"ri":151,"wh":152,"ent":153,"Wh":154,"ad":155,"your":156,"et":157,"us":158,"co":159,"his":160,"ER":161,"thou":162,"all":163,"do":164,"ra":165,"ther":166,"un":167,"ur":168,"AN":169,"him":170,"am":171,"this":172,"ght":173,"have":174,"ly":175,"IN":176,"ver":177,"EN":178,"lo":179,"US":180,"ord":181,"ess":182,"ti":183,"AR":184,"ould":185,"The":186,"will":187,"are":188,"ain":189,"fe":190,"OR":191,"est":192,"pe":193,"ES":194,"ON":195,"id":196,"now":197,"ood":198,"man":199,"sha":200,"ma":201,"ck":202,"her":203,"ne":204,"thy":205,"fa":206,"ge":207,"one":208,"su":209,"but":210,"end":211,"To":212,"la":213,"art":214,"thee":215,"ru":216,"sh":217,"ard":218,"by":219,"shall":220,"TH":221,"mor":222,"ST":223,"ill":224,"That":225,"con":226,"rom":227,"pr":228,"up":229,"si":230,"go":231,"po":232,"mo":233,"com":234,"AL":235,"sel":236,"ine":237,"mu":238,"ta":239,"ho":240,"But":241,"OL":242,"il":243,"ous":244,"te":245,"En":246,"ight":247,"What":248,"ion":249,"lord":250,"own":251,"if":252,"good":253,"ind":254,"ble":255,"EL":256,"bo":257,"qu":258,"CH":259,"ant":260,"out":261,"hich":262,"wor":263,"ct":264,"what":265,"ers":266,"from":267,"ven":268,"ak":269,"was":270,"ong":271,"love":272,"ry":273,"know":274,"she":275,"He":276,"RO":277,"Ex":278,"well":279,"would":280,"sa":281,"more":282,"bl":283,"them":284,"come":285,"can":286,"let":287,"ive":288,"ate":289,"self":290,"TI":291,"For":292,"ul":293,"ap":294,"there":295,"ast":296,"see":297,"Enter":298,"ence":299,"their":300,"ie":301,"they":302,"ath":303,"ep":304,"than":305,"LO":306,"say":307,"ome":308,"sir":309,"LE":310,"like":311,"ED":312,"ag":313,"ish":314,"ink":315,"here":316,"RI":317,"ING":318,"mp":319,"SI":320,"IS":321,"CO":322,"then":323,"wo":324,"fore":325,"No":326,"My":327,"tru":328,"ith":329,"You":330,"ave":331,"way":332,"ves":333,"ure":334,"If":335,"We":336,"IA":337,"thing":338,"hath":339,"ance":340,"ue":341,"spe":342,"OF":343,"ear":344,"pro":345,"men":346,"too":347,"reat":348,"ound":349,"should":350,"sp":351,"did":352,"were":353,"may":354,"KING":355,"au":356,"As":357,"Go":358,"dis":359,"ci":360,"Be":361,"make":362,"who":363,"ook":364,"AND":365,"upon":366,"some":367,"IC":368,"which":369,"row":370,"unt":371,"IO":372,"must":373,"di":374,"very":375,"vi":376,"per":377,"ple":378,"had":379,"In":380,"word":381,"oun":382,"ity":383,"King":384,"mb":385,"other":386,"ex":387,"hand":388,"heart":389,"day":390,"IUS":391,"UC":392,"think":393,"IL":394,"EC":395,"hon":396,"such":397,"tion":398,"ey":399,"off":400,"again":401,"when":402,"Why":403,"How":404,"Thou":405,"ame":406,"speak":407,"So":408,"most":409,"el":410,"This":411,"time":412,"llow":413,"ise":414,"swe":415,"yet":416,"With":417,"af":418,"ment":419,"TR":420,"ness":421,"UT":422,"ac":423,"ince":424,"fri":425,"night":426,"bro":427,"pl":428,"any":429,"take":430,"ang":431,"how":432,"fo":433,"mine":434,"father":435,"ady":436,"these":437,"give":438,"urn":439,"ANT":440,"ans":441,"ARD":442,"bre":443,"MA":444,"PRO":445,"Who":446,"FOR":447,"Of":448,"Exe":449,"great":450,"CA":451,"IR":452,"ars":453,"hea":454,"mar":455,"Exeunt":456,"gl":457,"BER":458,"des":459,"It":460,"tell":461,"ab":462,"mon":463,"ser":464,"tr":465,"gent":466,"much":467,"ation":468,"age":469,"where":470,"There":471,"An":472,"ful":473,"fair":474,"friend":475,"Exit":476,"gn":477,"ring":478,"ic":479,"Do":480,"ty":481,"king":482,"hear":483,"ET":484,"ort":485,"Come":486,"ree":487,"gra":488,"Let":489,"ase":490,"BY":491,"Is":492,"INE":493,"look":494,"blood":495,"EM":496,"mer":497,"und":498,"LA":499,"DI":500,"ms":501,"str":502,"part":503,"never":504,"Which":505,"sc":506,"mis":507,"ull":508,"lt":509,"PH":510,"ies":511,"son":512,"death":513,"fi":514,"Where":515,"Pr":516,"INC":517,"gentle":518,"life":519,"DU":520,"ass":521,"When":522,"less":523,"God":524,"bet":525,"ret":526,"lie":527,"tle":528,"foo":529,"coun":530,"ward":531,"ever":532,"ace":533,"By":534,"old":535,"tain":536,"wr":537,"ster":538,"fl":539,"oul":540,"red":541,"tis":542,"Sir":543,"doth":544,"ces":545,"ust":546,"SH":547,"UR":548,"orn":549,"hast":550,"Now":551,"stand":552,"ite":553,"cour":554,"honour":555,"ond":556,"new":557,"om":558,"call":559,"ough":560,"ice":561,"made":562,"ts":563,"true":564,"Or":565,"COM":566,"ach":567,"PA":568,"fear":569,"heaven":570,"pp":571,"SC":572,"gu":573,"sweet":574,"mad":575,"ESS":576,"KE":577,"Re":578,"rown":579,"Lord":580,"Mar":581,"hold":582,"cannot":583,"war":584,"AB":585,"pri":586,"LY":587,"ol":588,"ENE":589,"ene":590,"head":591,"Fr":592,"pray":593,"Here":594,"ba":595,"ving":596,"world":597,"PER":598,"QU":599,"Then":600,"away":601,"um":602,"ouse":603,"Ay":604,"eyes":605,"WN":606,"land":607,"pla":608,"RIB":609,"OTH":610,"CI":611,"ake":612,"been":613,"PE":614,"nor":615,"brother":616,"ten":617,"bear":618,"ARE":619,"FF":620,"fort":621,"Your":622,"thought":623,"done":624,"name":625,"MER":626,"down":627,"comes":628,"PI":629,"STRIB":630,"DISTRIB":631,"long":632,"ded":633,"SCENE":634,"pre":635,"tend":636,"fir":637,"ted":638,"ud":639,"shi":640,"Tis":641,"able":642,"pres":643,"two":644,"ore":645,"use":646,"live":647,"tri":648,"vo":649,"atch":650,"uke":651,"tra":652,"ign":653,"deed":654,"put":655,"before":656,"ILL":657,"might":658,"kes":659,"GE":660,"BR":661,"op":662,"noble":663,"leave":664,"im":665,"FIR":666,"FIRST":667,"Sha":668,"lady":669,"fool":670,"ks":671,"house":672,"AM":673,"jo":674,"pur":675,"thus":676,"ange":677,"set":678,"EST":679,"res":680,"AT":681,"gi":682,"atter":683,"They":684,"io":685,"wit":686,"light":687,"gr":688,"LOR":689,"AD":690,"ose":691,"Well":692,"could":693,"ghter":694,"better":695,"Will":696,"ef":697,"reas":698,"che":699,"ss":700,"Ca":701,"soul":702,"poor":703,"AS":704,"cl":705,"cau":706,"SER":707,"wer":708,"into":709,"OND":710,"show":711,"Good":712,"keep":713,"dead":714,"find":715,"SERV":716,"ction":717,"DUKE":718,"cha":719,"lit":720,"dear":721,"ds":722,"rest":723,"She":724,"being":725,"comp":726,"Duke":727,"under":728,"nothing":729,"cur":730,"ee":731,"dy":732,"ft":733,"cy":734,"right":735,"many":736,"ors":737,"side":738,"His":739,"bra":740,"ower":741,"master":742,"ick":743,"full":744,"mber":745,"both":746,"enter":747,"LUC":748,"Al":749,"nat":750,"tent":751,"char":752,"cause":753,"Nay":754,"wife":755,"Nor":756,"Than":757,"whi":758,"ins":759,"ild":760,"every":761,"une":762,"ings":763,"BE":764,"myself":765,"beg":766,"kind":767,"les":768,"still":769,"Engl":770,"je":771,"Rome":772,"led":773,"II":774,"pt":775,"till":776,"ng":777,"par":778,"tong":779,"den":780,"fall":781,"die":782,"ps":783,"AC":784,"bes":785,"woman":786,"MAR":787,"follow":788,"read":789,"aughter":790,"reason":791,"Jo":792,"UCH":793,"Ed":794,"Ro":795,"ORK":796,"ESTER":797,"IAN":798,"daughter":799,"tal":800,"Not":801,"ought":802,"though":803,"words":804,"gri":805,"Prince":806,"TIM":807,"place":808,"little":809,"comm":810,"Ham":811,"hour":812,"vil":813,"Shall":814,"SEC":815,"ANTON":816,"first":817,"gar":818,"uck":819,"air":820,"igh":821,"those":822,"sent":823,"SECOND":824,"friends":825,"raw":826,"STA":827,"young":828,"after":829,"best":830,"bid":831,"gone":832,"esar":833,"wel":834,"boy":835,"LORD":836,"CE":837,"lp":838,"sle":839,"its":840,"eye":841,"tress":842,"against":843,"ONIC":844,"Have":845,"ff":846,".'":847,"OT":848,"ENT":849,"USE":850,"ning":851,"99":852,"bring":853,"Her":854,"har":855,"pos":856,"ield":857,"SION":858,"199":859,"DO":860,"ELEC":861,"COPI":862,"TRONIC":863,"COMMER":864,"CIAL":865,"DISTRIBUT":866,"ELECTRONIC":867,"COPIES":868,"COMMERCIAL":869,"ither":870,"Caesar":871,"DISTRIBUTED":872,"himself":873,"RE":874,"face":875,"mother":876,"ire":877,"conf":878,"play":879,"ton":880,"GLO":881,"band":882,"UCESTER":883,"GLOUCESTER":884,"thine":885,"ison":886,"DES":887,"aster":888,"iness":889,"forth":890,"ship":891,"SAL":892,"cle":893,"spir":894,"roy":895,"mind":896,"ste":897,"VI":898,"clo":899,"kill":900,"race":901,"sand":902,"Yet":903,"stay":904,"fellow":905,"pleas":906,"All":907,"car":908,"esty":909,"ran":910,"none":911,"vir":912,"assi":913,"sure":914,"TE":915,"ench":916,"QUE":917,"tongue":918,"GO":919,"answer":920,"QUEEN":921,"Thy":922,"France":923,"UN":924,"hus":925,"peace":926,"lack":927,"present":928,"mean":929,"SO":930,"turn":931,"pose":932,"vill":933,"LI":934,"far":935,"oud":936,"hor":937,"back":938,"run":939,"else":940,"lay":941,"temp":942,"get":943,"once":944,"ctor":945,"cious":946,"ye":947,"ition":948,"over":949,"Le":950,"RY":951,"mes":952,"pra":953,"Our":954,"sor":955,"thr":956,"law":957,"uty":958,"need":959,"CLO":960,"crown":961,"eng":962,"meet":963,"rep":964,"bed":965,"min":966,"whose":967,"ICK":968,"FORD":969,"HEN":970,"matter":971,"sub":972,"HENRY":973,"Que":974,"ati":975,"said":976,"UM":977,"ark":978,"iss":979,"Queen":980,"Un":981,"wrong":982,"lau":983,"letter":984,"Gl":985,"child":986,"faith":987,"count":988,"RICH":989,"vice":990,"br":991,"CHAR":992,"kn":993,"another":994,"about":995,"hither":996,"unto":997,"bus":998,"hope":999,"husband":1000,"ken":1001,"just":1002,"Up":1003,"three":1004,"therefore":1005,"sto":1006,"ears":1007,"sm":1008,"sold":1009,"VER":1010,"fal":1011,"please":1012,"ber":1013,"ried":1014,"ORL":1015,"FAL":1016,"indeed":1017,"STAFF":1018,"FALSTAFF":1019,"hn":1020,"EX":1021,"AST":1022,"arewell":1023,"home":1024,"dou":1025,"even":1026,"heard":1027,"ants":1028,"sword":1029,"ouch":1030,"morrow":1031,"earth":1032,"AG":1033,"selves":1034,"From":1035,"John":1036,"has":1037,"reme":1038,"draw":1039,"gen":1040,"happ":1041,"THE":1042,"At":1043,"St":1044,"wear":1045,"truth":1046,"court":1047,"gain":1048,"thousand":1049,"grace":1050,"ban":1051,"hence":1052,"ier":1053,"ister":1054,"last":1055,"sleep":1056,"came":1057,"within":1058,"Mo":1059,"ons":1060,"ELLO":1061,"RICHARD":1062,"Aside":1063,"dost":1064,"TO":1065,"du":1066,"whom":1067,"cer":1068,"ours":1069,"joy":1070,"nature":1071,"false":1072,"Master":1073,"Give":1074,"cut":1075,"va":1076,"vy":1077,"England":1078,"lords":1079,"madam":1080,"Upon":1081,"aint":1082,"virt":1083,"WI":1084,"int":1085,"villain":1086,"bu":1087,"sen":1088,"PR":1089,"ide":1090,"xt":1091,"shame":1092,"ardon":1093,"Grace":1094,"MAN":1095,"der":1096,"CAS":1097,"Are":1098,"state":1099,"maid":1100,"Pro":1101,"wind":1102,"DER":1103,"On":1104,"fect":1105,"vis":1106,"hands":1107,"cess":1108,"power":1109,"thank":1110,"break":1111,"gold":1112,"Anton":1113,"gre":1114,"imp":1115,"lf":1116,"pa":1117,"MO":1118,"body":1119,"news":1120,"ius":1121,"makes":1122,"SON":1123,"ious":1124,"youth":1125,"form":1126,"lies":1127,"ERS":1128,"things":1129,"oft":1130,"PO":1131,"Po":1132,"worth":1133,"anger":1134,"high":1135,"Some":1136,"fight":1137,"bea":1138,"Ma":1139,"sing":1140,"que":1141,"UTUS":1142,"serv":1143,"rant":1144,"swear":1145,"BRUTUS":1146,"Glou":1147,"Br":1148,"pect":1149,"LU":1150,"WILL":1151,"spo":1152,"ceive":1153,"prove":1154,"em":1155,"ls":1156,"IAM":1157,"WILLIAM":1158,"help":1159,"gentleman":1160,"PAGE":1161,"vent":1162,"ury":1163,"BI":1164,"IP":1165,"MEN":1166,"ANIO":1167,"ECT":1168,"ANTONY":1169,"EPH":1170,"GH":1171,"anc":1172,"MAC":1173,"CLOWN":1174,"Would":1175,"wish":1176,"near":1177,"Hath":1178,"Look":1179,"hang":1180,"times":1181,"PRINC":1182,"enough":1183,"stri":1184,"rather":1185,"ROSAL":1186,"ates":1187,"does":1188,"ATH":1189,"shalt":1190,"De":1191,"TES":1192,"cap":1193,"sun":1194,"seen":1195,"without":1196,"SERVANT":1197,"while":1198,"ject":1199,"pen":1200,"since":1201,"devil":1202,"DEM":1203,"gue":1204,"ot":1205,"urther":1206,"ery":1207,"honest":1208,"Su":1209,"ph":1210,"gether":1211,"sound":1212,"ows":1213,"Did":1214,"LON":1215,"faul":1216,"gods":1217,"PLE":1218,"YO":1219,"dr":1220,"ob":1221,"welcome":1222,"bt":1223,".]":1224,"Ar":1225,"ze":1226,"half":1227,"ready":1228,"got":1229,"OTHELLO":1230,"bri":1231,"send":1232,"ner":1233,"tears":1234,"IAGO":1235,"fortune":1236,"Fal":1237,"ousin":1238,"SIR":1239,"strong":1240,"care":1241,"jesty":1242,"ist":1243,"ats":1244,"stru":1245,"breath":1246,"mistress":1247,"fire":1248,"LONG":1249,"COL":1250,"UL":1251,"ICE":1252,"IV":1253,"bit":1254,"fit":1255,"pal":1256,"yourself":1257,"seem":1258,"grief":1259,"command":1260,"spirit":1261,"horse":1262,"kiss":1263,"ese":1264,"ween":1265,"why":1266,"ABLE":1267,"OST":1268,"strange":1269,"pati":1270,"arm":1271,"together":1272,"saw":1273,"pass":1274,"rem":1275,"Therefore":1276,"Ri":1277,"mus":1278,"sick":1279,"lieve":1280,"ream":1281,"ANTI":1282,"vers":1283,"YORK":1284,"went":1285,"means":1286,"alth":1287,"appe":1288,"Li":1289,"YR":1290,"low":1291,"cks":1292,"MAY":1293,"ACT":1294,"Cap":1295,"wa":1296,"ask":1297,"weep":1298,"CLE":1299,"late":1300,"mi":1301,"swor":1302,"wise":1303,"OLK":1304,"CLEO":1305,"arms":1306,"Pe":1307,"ork":1308,"prison":1309,"Can":1310,"grow":1311,"ets":1312,"lost":1313,"ell":1314,"pers":1315,"pardon":1316,"eral":1317,"only":1318,"tow":1319,"sed":1320,"WAR":1321,"ary":1322,"deli":1323,"content":1324,"CASSI":1325,"Even":1326,"La":1327,"Sh":1328,"sea":1329,"return":1330,"BAST":1331,"cre":1332,"tro":1333,"vere":1334,"stra":1335,"TION":1336,"TRA":1337,"SE":1338,"cor":1339,"yours":1340,"UTEN":1341,"through":1342,"free":1343,"inter":1344,"INIUS":1345,"oney":1346,"MESS":1347,"fly":1348,"hard":1349,"hum":1350,"prom":1351,"ory":1352,"WICK":1353,"pain":1354,"dom":1355,"CLEOPA":1356,"found":1357,"same":1358,"TIMON":1359,"CLEOPATRA":1360,"INO":1361,"THIS":1362,"thoughts":1363,"WARWICK":1364,"AK":1365,"Lear":1366,"York":1367,"cus":1368,"cra":1369,"gro":1370,"lar":1371,"deser":1372,"Con":1373,"DA":1374,"ting":1375,"dam":1376,"gs":1377,"ren":1378,"outh":1379,"ments":1380,"ather":1381,"jud":1382,"country":1383,"Rich":1384,"May":1385,"TA":1386,"PERSON":1387,"KATH":1388,"Lo":1389,"LES":1390,"These":1391,"cold":1392,"says":1393,"royal":1394,"GER":1395,"bar":1396,"cousin":1397,"itself":1398,"left":1399,"sorrow":1400,"EXT":1401,"Cassi":1402,"attend":1403,"Whose":1404,"serve":1405,"business":1406,".,":1407,"GENT":1408,"born":1409,"med":1410,"Though":1411,"GENTLE":1412,"HI":1413,"Hen":1414,"rich":1415,"worthy":1416,"OTHERS":1417,"field":1418,"sin":1419,"alone":1420,"press":1421,"Lu":1422,"cry":1423,"want":1424,"told":1425,"wilt":1426,"ute":1427,"cons":1428,"sight":1429,"eech":1430,"charge":1431,"Henry":1432,"GES":1433,"Was":1434,"fer":1435,"ople":1436,"IND":1437,"MACH":1438,"BERG":1439,"GR":1440,"IMO":1441,"SYR":1442,"foul":1443,"known":1444,"ACUSE":1445,"SYRACUSE":1446,"COR":1447,"More":1448,"proud":1449,"common":1450,"GHT":1451,"FR":1452,"UTION":1453,"ush":1454,"service":1455,"TEN":1456,"bat":1457,"cal":1458,"van":1459,"wall":1460,"ANY":1461,"ARY":1462,"exce":1463,"onder":1464,"NOT":1465,"cla":1466,"force":1467,"SHIP":1468,"happy":1469,"gainst":1470,"Antony":1471,"JO":1472,"TED":1473,"rew":1474,"venge":1475,"ETEXT":1476,"TIME":1477,"beauty":1478,"MESSEN":1479,"sister":1480,"cho":1481,"uncle":1482,"people":1483,"ESPE":1484,"ides":1485,"trust":1486,"bloody":1487,"INCLU":1488,"SHAK":1489,"COMPLE":1490,"CHARGES":1491,"MESSENGER":1492,"ESPEARE":1493,"SHAKESPEARE":1494,"COMPLETE":1495,"BO":1496,"DED":1497,"GUTEN":1498,"JECT":1499,"PY":1500,"SUCH":1501,"ig":1502,"lead":1503,"THAT":1504,"ICT":1505,"PROVI":1506,"PROJECT":1507,"course":1508,"BRARY":1509,"talk":1510,"LIBRARY":1511,"VERSION":1512,"GUTENBERG":1513,"PROVIDED":1514,"BEN":1515,"MIS":1516,"MEM":1517,"WORK":1518,"WORL":1519,"gave":1520,"USED":1521,"peak":1522,"ONLY":1523,"LOAD":1524,"LEGE":1525,"EDICT":1526,"RIGHT":1527,"COPY":1528,"PROHI":1529,"BERSHIP":1530,"PERMIS":1531,"WNLOAD":1532,"DISTRIBUTION":1533,"ILLINO":1534,"ADABLE":1535,"SERVICE":1536,"1990":1537,"1993":1538,"DOWNLOAD":1539,"COMMERCIALLY":1540,"READABLE":1541,"certain":1542,"WITH":1543,"BITED":1544,"YOUR":1545,"COLLEGE":1546,"PERSONAL":1547,"MACHINE":1548,"INCLUDES":1549,"BENEDICT":1550,"MEMBERSHIP":1551,"WORKS":1552,"WORLD":1553,"COPYRIGHT":1554,"PROHIBITED":1555,"PERMISSION":1556,"ILLINOIS":1557,"BENEDICTINE":1558,".>":1559,"<<":1560,"arn":1561,"pleasure":1562,".>>":1563,"DY":1564,"iers":1565,"ford":1566,"suit":1567,"hate":1568,"TIT":1569,"ROSALIND":1570,"oath":1571,"val":1572,"fav":1573,"purpose":1574,"High":1575,"bour":1576,"ROM":1577,"MR":1578,"PAR":1579,"sil":1580,"MRS":1581,"ied":1582,"sit":1583,"som":1584,"days":1585,"cester":1586,"sad":1587,"lose":1588,"work":1589,"plain":1590,"company":1591,"Leon":1592,"Say":1593,"Speak":1594,"aw":1595,"act":1596,"wat":1597,"loves":1598,"Before":1599,"bound":1600,"kne":1601,"ling":1602,"pity":1603,"quick":1604,"bles":1605,"seek":1606,"thinks":1607,"each":1608,"desire":1609,"Ha":1610,"TRO":1611,"WARD":1612,"cri":1613,"Pray":1614,"BETH":1615,"MACBETH":1616,"Till":1617,"Take":1618,"oose":1619,"sum":1620,"Bo":1621,"Me":1622,"change":1623,"aff":1624,"beseech":1625,"doubt":1626,"soon":1627,"ures":1628,"knows":1629,"French":1630,"See":1631,"OLUS":1632,"looks":1633,"PHOLUS":1634,"foot":1635,"ANTIPHOLUS":1636,"AP":1637,"ESSI":1638,"cius":1639,"LEN":1640,"ones":1641,"lour":1642,"wound":1643,"ANUS":1644,"lov":1645,"ief":1646,"Majesty":1647,"GENTLEMAN":1648,"One":1649,"dream":1650,"fet":1651,"ily":1652,"gracious":1653,"haste":1654,"PAND":1655,"Were":1656,"danger":1657,"comfort":1658,"sake":1659,"trait":1660,"queen":1661,"drink":1662,"War":1663,"emp":1664,"mouth":1665,"estion":1666,"urse":1667,"HN":1668,"Mad":1669,"dare":1670,"sl":1671,"ool":1672,"ARUS":1673,"given":1674,"JOHN":1675,"HEL":1676,"Kent":1677,"ian":1678,"sworn":1679,"HELEN":1680,"CR":1681,"touch":1682,"ub":1683,"wick":1684,"prince":1685,"between":1686,"Edward":1687,"ump":1688,"cond":1689,"grave":1690,"general":1691,"sur":1692,"lives":1693,"THUM":1694,"Farewell":1695,"HAM":1696,"ris":1697,"marry":1698,"ABEL":1699,"Most":1700,"believe":1701,"Ti":1702,"bir":1703,"burn":1704,"dro":1705,"sal":1706,"Tell":1707,"bor":1708,"dow":1709,"praise":1710,"Like":1711,"DROM":1712,"ZEN":1713,"years":1714,"ends":1715,"TIZEN":1716,"CITIZEN":1717,"Highness":1718,"NOR":1719,"VAL":1720,"Whi":1721,"further":1722,"mn":1723,"ses":1724,"move":1725,"holy":1726,"DROMIO":1727,"BEL":1728,"CEL":1729,"money":1730,"wal":1731,"utus":1732,"thyself":1733,"sue":1734,"writ":1735,"brought":1736,"BUR":1737,"cke":1738,"past":1739,"beat":1740,"chance":1741,"unes":1742,"Marry":1743,"Warwick":1744,"ABELLA":1745,"hu":1746,"warrant":1747,"Lady":1748,"cent":1749,"gg":1750,"yield":1751,"took":1752,"Gloucester":1753,"learn":1754,"def":1755,"Beat":1756,"others":1757,"mark":1758,"brave":1759,"vereign":1760,"Richard":1761,"Madam":1762,"cro":1763,"lad":1764,"deep":1765,"ENIUS":1766,"fast":1767,"sign":1768,"Brutus":1769,"MENENIUS":1770,"VOL":1771,"four":1772,"pay":1773,"tune":1774,"ues":1775,"ANO":1776,"fection":1777,"ground":1778,"Mis":1779,"POR":1780,"SU":1781,"Yes":1782,"ens":1783,"ated":1784,"met":1785,"hell":1786,"requ":1787,"Thus":1788,"suff":1789,"Alas":1790,"virtue":1791,"BUC":1792,"eat":1793,"ech":1794,"gall":1795,"pi":1796,"cei":1797,"sovereign":1798,"EDWARD":1799,"KINGHAM":1800,"vile":1801,"TRUCH":1802,"PETRUCH":1803,"PRINCE":1804,"fault":1805,"BUCKINGHAM":1806,"PETRUCHIO":1807,"Away":1808,"IOL":1809,"mur":1810,"ONA":1811,"LADY":1812,"English":1813,"report":1814,"CORIOL":1815,"CORIOLANUS":1816,"Cor":1817,"abo":1818,"obe":1819,"sla":1820,"arry":1821,"bot":1822,"bold":1823,"save":1824,"women":1825,"mercy":1826,"SHAL":1827,"FFOLK":1828,"ANTONIO":1829,"SUFFOLK":1830,"wis":1831,"Com":1832,"Had":1833,"ron":1834,"hearts":1835,"knave":1836,"TITUS":1837,"lan":1838,"watch":1839,"rel":1840,"point":1841,"UNT":1842,"ength":1843,"person":1844,"CAL":1845,"Per":1846,"black":1847,"music":1848,"AU":1849,"lly":1850,"INA":1851,"prof":1852,"ilt":1853,"PANDARUS":1854,"BUS":1855,"Ch":1856,"OWN":1857,"oward":1858,"BEROWN":1859,"TOBY":1860,"BEROWNE":1861,"IZ":1862,"cast":1863,"thri":1864,"ESAR":1865,"sup":1866,"question":1867,"CAESAR":1868,"HELENA":1869,"liant":1870,"rum":1871,"hot":1872,"soldiers":1873,"Ah":1874,"ras":1875,"esh":1876,"goes":1877,"iece":1878,"heavy":1879,"sons":1880,"enemy":1881,"ENTINE":1882,"confess":1883,"DESDEM":1884,"VALENTINE":1885,"DESDEMONA":1886,"CL":1887,"Par":1888,"cord":1889,"sk":1890,"woo":1891,"quar":1892,"LOW":1893,"tender":1894,"ESSIDA":1895,"CRESSIDA":1896,"Hor":1897,"Tru":1898,"amp":1899,"merry":1900,"Make":1901,"Rom":1902,"hind":1903,"bless":1904,"subject":1905,"!'":1906,"Since":1907,"ca":1908,"farewell":1909,"ga":1910,"mock":1911,"OLLES":1912,"ions":1913,"PROTE":1914,"Roman":1915,"PAROLLES":1916,"SHALLOW":1917,"PROTEUS":1918,"knew":1919,"lot":1920,"next":1921,"speech":1922,"wenty":1923,"pet":1924,"tin":1925,"lic":1926,"safe":1927,"appear":1928,"Out":1929,"SOL":1930,"ior":1931,"ile":1932,"knight":1933,"ceed":1934,"ESUS":1935,"ILUS":1936,"EPHESUS":1937,"patience":1938,"water":1939,"TROILUS":1940,"pret":1941,"ament":1942,"THIR":1943,"THIRD":1944,"Des":1945,"JA":1946,"base":1947,"dge":1948,"vel":1949,"ANCE":1950,"short":1951,"ils":1952,"themselves":1953,"Ben":1954,"CUS":1955,"Ped":1956,"cul":1957,"ea":1958,"mir":1959,"pit":1960,"stant":1961,"hair":1962,"ANS":1963,"coming":1964,"sport":1965,"voice":1966,"LUCIUS":1967,"town":1968,".-":1969,"ges":1970,"won":1971,"sec":1972,"lips":1973,"speed":1974,"desp":1975,"counter":1976,"LYS":1977,"open":1978,"III":1979,"mit":1980,"sat":1981,"twenty":1982,"dog":1983,"neither":1984,"Romeo":1985,"banish":1986,"favour":1987,"Pedro":1988,"Coun":1989,"Swe":1990,"ek":1991,"behold":1992,"ooth":1993,"feel":1994,"ISABELLA":1995,"Within":1996,"valiant":1997,"Ju":1998,"ack":1999,"uous":2000,"toward":2001,"weak":2002,"entreat":2003,"ANG":2004,"TIA":2005,"trump":2006,"Should":2007,"straight":2008,"PORTIA":2009,"!-":2010,"YM":2011,"door":2012,"sion":2013,"something":2014,"broke":2015,"gentlemen":2016,"remember":2017,"BRO":2018,"Mon":2019,"len":2020,"cover":2021,"ally":2022,"ONE":2023,"worse":2024,"Hector":2025,"counsel":2026,"justice":2027,"servant":2028,"palace":2029,"BAR":2030,"Gent":2031,"HOST":2032,"cas":2033,"duty":2034,"ger":2035,"rah":2036,"dden":2037,"soldier":2038,"claim":2039,"book":2040,"whe":2041,"ches":2042,"lia":2043,"host":2044,"LEON":2045,"fol":2046,"damn":2047,",'":2048,"GAR":2049,"Pri":2050,"hur":2051,"win":2052,"wret":2053,"withal":2054,"loss":2055,"canst":2056,"married":2057,"Sweet":2058,"Fri":2059,"GEN":2060,"creat":2061,"phe":2062,"qual":2063,"ILIA":2064,"Stand":2065,"Mistress":2066,"Must":2067,"bad":2068,"ew":2069,"either":2070,"moun":2071,"stoo":2072,"wast":2073,"note":2074,"ways":2075,"didst":2076,"BROKE":2077,"FE":2078,"city":2079,"fra":2080,"pes":2081,"ham":2082,"Their":2083,"woe":2084,"els":2085,"liege":2086,"Peace":2087,"traitor":2088,"BOT":2089,"CON":2090,"bow":2091,"coward":2092,"gin":2093,"iz":2094,"stre":2095,"rage":2096,"loy":2097,"STOL":2098,"moon":2099,"SIC":2100,"action":2101,"PISTOL":2102,"SEN":2103,"Wor":2104,"dd":2105,"wonder":2106,"glad":2107,"needs":2108,"Such":2109,"Cassio":2110,"bury":2111,"eas":2112,"umber":2113,"riage":2114,"amb":2115,"mortal":2116,"OLIV":2117,"rows":2118,"flesh":2119,"OLIVIA":2120,"Against":2121,"MAL":2122,"OBAR":2123,"ads":2124,"ENOBAR":2125,"feit":2126,"spoke":2127,"CASSIUS":2128,"IMOGEN":2129,"BURY":2130,"ENOBARBUS":2131,"MPE":2132,"Troy":2133,"UE":2134,"emb":2135,"revenge":2136,"ered":2137,"almost":2138,"already":2139,"white":2140,"ANA":2141,"ender":2142,"THER":2143,"scorn":2144,"hours":2145,"VIOL":2146,"KATHER":2147,"LEONTES":2148,"Bene":2149,"dest":2150,"ny":2151,"pow":2152,"staff":2153,"ENTI":2154,"tage":2155,"ANDO":2156,"stands":2157,"firm":2158,"ORLANDO":2159,"Lond":2160,"cred":2161,"iet":2162,"sever":2163,"dies":2164,"prithee":2165,"grant":2166,"BOY":2167,"suffer":2168,"VIOLA":2169,"London":2170,"dish":2171,"hood":2172,"ELO":2173,"presently":2174,"ANGELO":2175,"Sc":2176,"bla":2177,"ia":2178,"sw":2179,"chamber":2180,"laugh":2181,"Love":2182,"folk":2183,"SICINIUS":2184,"Cla":2185,"Clau":2186,"Hot":2187,"mand":2188,"passi":2189,"pluck":2190,"scar":2191,"Claudi":2192,"Call":2193,"cuse":2194,"dark":2195,"wars":2196,"ines":2197,"become":2198,"chief":2199,"hide":2200,"lion":2201,"Wel":2202,"join":2203,"respect":2204,"Hero":2205,"deliver":2206,"DIO":2207,"HER":2208,"Mer":2209,"SPER":2210,"Yea":2211,"bond":2212,"test":2213,"stir":2214,"heir":2215,"aside":2216,"PROSPER":2217,"judg":2218,"walk":2219,"Claudio":2220,"PROSPERO":2221,"aves":2222,"jest":2223,"main":2224,"ended":2225,"lock":2226,"bosom":2227,"flow":2228,"SOLDI":2229,"din":2230,"eror":2231,"ities":2232,"rever":2233,"wixt":2234,"morning":2235,"guard":2236,"deny":2237,"MARGAR":2238,"ago":2239,"ev":2240,"often":2241,"beast":2242,"fell":2243,"trou":2244,"LAUN":2245,"strength":2246,"BASTARD":2247,"umph":2248,"slave":2249,"Pol":2250,"case":2251,"fan":2252,"ires":2253,"cience":2254,"died":2255,"office":2256,"heavens":2257,"BAS":2258,"dar":2259,"ker":2260,"uri":2261,"thir":2262,"reg":2263,"wild":2264,"feast":2265,"flatter":2266,"ssess":2267,"letters":2268,"pale":2269,"battle":2270,"excell":2271,"Dis":2272,"Mac":2273,"SPE":2274,"fill":2275,"pap":2276,"tor":2277,"arl":2278,"hion":2279,"sudden":2280,"sible":2281,"thanks":2282,"offer":2283,"speaks":2284,"TRAM":2285,"BERTRAM":2286,"Wi":2287,"athe":2288,"fas":2289,"fam":2290,"eds":2291,"dire":2292,"via":2293,"harm":2294,"slain":2295,"Claud":2296,"MARGARET":2297,"SPEED":2298,"SA":2299,"na":2300,"ost":2301,"tre":2302,"having":2303,"lordship":2304,"quo":2305,"truly":2306,"REY":2307,"sense":2308,"above":2309,"BARD":2310,"HOR":2311,"NE":2312,"PUC":2313,"bur":2314,"ima":2315,"mess":2316,"ENCE":2317,"OLPH":2318,"RIUS":2319,"Doth":2320,"ched":2321,"CELIA":2322,"ceiv":2323,"BARDOLPH":2324,"fing":2325,"tit":2326,"bell":2327,"living":2328,"suc":2329,"proach":2330,"fully":2331,"Hast":2332,"JUL":2333,"por":2334,"throw":2335,"loving":2336,"exe":2337,"ENTIO":2338,"Nurse":2339,"fat":2340,"hed":2341,"mast":2342,"COUNT":2343,"whole":2344,"undred":2345,"begin":2346,"children":2347,"POMPE":2348,"BASTIAN":2349,"SEBASTIAN":2350,"CLI":2351,"Know":2352,"spr":2353,"instru":2354,"ash":2355,"poison":2356,"ations":2357,"ices":2358,"kings":2359,"deeds":2360,"ATOR":2361,"witness":2362,"spirits":2363,"conscience":2364,"SOLDIER":2365,"JULIA":2366,"POMPEY":2367,"Sign":2368,"Tal":2369,"five":2370,"patch":2371,"order":2372,"sigh":2373,"teach":2374,"CHESS":2375,"DUCHESS":2376,"heads":2377,"tempt":2378,"Jul":2379,"pare":2380,"nock":2381,"beard":2382,"liber":2383,"OLI":2384,"marriage":2385,"ETRIUS":2386,"understand":2387,"LUCIO":2388,"strike":2389,"DEMETRIUS":2390,"vantage":2391,"ale":2392,"bast":2393,"eld":2394,"fle":2395,"hundred":2396,"mies":2397,"oc":2398,"erv":2399,"possess":2400,"aught":2401,"Being":2402,"breast":2403,"double":2404,"passion":2405,"lst":2406,"rey":2407,"lip":2408,"oot":2409,"cted":2410,"resol":2411,"cheer":2412,"Prote":2413,"FRANCE":2414,"cross":2415,"fashion":2416,"ETH":2417,"Harry":2418,"aven":2419,"cti":2420,"fres":2421,"meas":2422,"behind":2423,"proof":2424,"acqu":2425,"mighty":2426,"gives":2427,"Friar":2428,"BOL":2429,"MI":2430,"Never":2431,"VIUS":2432,"pher":2433,"rough":2434,"swi":2435,"tom":2436,"ites":2437,"chur":2438,"ARENCE":2439,"ELIZ":2440,"INGBROKE":2441,"SIL":2442,"affection":2443,"LAFE":2444,"ABETH":2445,"Hamlet":2446,"PRINCESS":2447,"CLARENCE":2448,"satis":2449,"BOLINGBROKE":2450,"ELIZABETH":2451,"LAFEU":2452,"Pom":2453,"gif":2454,"lust":2455,"mid":2456,"soft":2457,"arch":2458,"held":2459,"ARMA":2460,"tale":2461,"wouldst":2462,"div":2463,"fortunes":2464,"effect":2465,"remain":2466,"COUNTESS":2467,"ARMADO":2468,"Fa":2469,"MUR":2470,"bal":2471,"dread":2472,"drun":2473,"uff":2474,"ket":2475,"til":2476,"worship":2477,"EMILIA":2478,"enemies":2479,"AGUE":2480,"CASSIO":2481,"Ind":2482,"Tro":2483,"cru":2484,"inal":2485,"inces":2486,"issue":2487,"stance":2488,"seas":2489,"choose":2490,"post":2491,"ALL":2492,"ANTUS":2493,"EMANTUS":2494,"souls":2495,"close":2496,"APEMANTUS":2497,"Scene":2498,"execut":2499,"Signior":2500,"EV":2501,"receive":2502,"ANNE":2503,"labour":2504,"simp":2505,"Laer":2506,"pretty":2507,"Kate":2508,"match":2509,"ok":2510,"treason":2511,"ught":2512,"vow":2513,"year":2514,"noise":2515,"ourselves":2516,"along":2517,"rain":2518,"ung":2519,"god":2520,"steal":2521,"promise":2522,"CYM":2523,"LAND":2524,"SET":2525,"llo":2526,"stain":2527,"conqu":2528,"akes":2529,"ext":2530,"parts":2531,"Reg":2532,"small":2533,"rememb":2534,"buy":2535,"BELINE":2536,"secret":2537,"CYMBELINE":2538,"Emp":2539,"Hold":2540,"bas":2541,"eth":2542,"forget":2543,"seems":2544,"Because":2545,"ETER":2546,"write":2547,"pride":2548,"longer":2549,"natur":2550,"MARIA":2551,"SENATOR":2552,"paper":2553,"fresh":2554,"EVANS":2555,"MOR":2556,"ax":2557,"wood":2558,"health":2559,"seal":2560,"bears":2561,"col":2562,"motion":2563,"quiet":2564,"worst":2565,"cient":2566,"TRANIO":2567,"patient":2568,"Page":2569,"Ven":2570,"bb":2571,"dri":2572,"ners":2573,"eding":2574,"sol":2575,"ERD":2576,"vern":2577,"consent":2578,"going":2579,"cian":2580,"march":2581,"Mark":2582,"ADRI":2583,"parti":2584,"carry":2585,"Lucius":2586,"Timon":2587,"ladies":2588,"excellent":2589,"Da":2590,"Hark":2591,"IEL":2592,"Ty":2593,"gates":2594,"horn":2595,"twas":2596,"try":2597,"vie":2598,"second":2599,"assa":2600,"wealth":2601,"manner":2602,"Hear":2603,"presence":2604,"brain":2605,"fetch":2606,"Chris":2607,"Bes":2608,"Clar":2609,"Qu":2610,"].":2611,"ised":2612,"tol":2613,"cher":2614,"ardinal":2615,"conce":2616,"Gentle":2617,"KATHERINA":2618,"judgment":2619,"trouble":2620,"GU":2621,"Saint":2622,"awhile":2623,"dull":2624,"drown":2625,"fine":2626,"least":2627,"forgot":2628,"ents":2629,"STARD":2630,"COSTARD":2631,"kingdom":2632,"honourable":2633,"foolish":2634,"Alb":2635,"birth":2636,"Bet":2637,"ID":2638,"Mess":2639,"bs":2640,"tes":2641,"forward":2642,"limb":2643,"add":2644,"anything":2645,"fools":2646,"curse":2647,"virtuous":2648,"brief":2649,"judge":2650,"dangerous":2651,"Athen":2652,"Gu":2653,"HAST":2654,"Ver":2655,"ved":2656,"nder":2657,"neigh":2658,"taken":2659,"Fortune":2660,"SITES":2661,"ledge":2662,"SEY":2663,"valour":2664,"murder":2665,"Paris":2666,"THERSITES":2667,"HASTING":2668,"Bar":2669,"Char":2670,"Gon":2671,"MOTH":2672,"Sil":2673,"Tit":2674,"piece":2675,"round":2676,"inf":2677,"star":2678,"cell":2679,"sole":2680,"ARINE":2681,"contin":2682,"ilus":2683,"blind":2684,"ARDIN":2685,"entertain":2686,"Edg":2687,"position":2688,"POS":2689,"faults":2690,"KATHARINE":2691,"VOLIO":2692,"natural":2693,"view":2694,"Clarence":2695,"HASTINGS":2696,"Great":2697,"dra":2698,"ress":2699,"ude":2700,"esy":2701,"leep":2702,"liv":2703,"iles":2704,"perceive":2705,"CAM":2706,"month":2707,"possible":2708,"THUMUS":2709,"quarrel":2710,"MALVOLIO":2711,"POSTHUMUS":2712,"Am":2713,"Bro":2714,"Earl":2715,"VIR":2716,"ele":2717,"fter":2718,"gy":2719,"anon":2720,"ited":2721,"reck":2722,"cept":2723,"kept":2724,"among":2725,"ider":2726,"shar":2727,"Helen":2728,"ISBURY":2729,"BERLAND":2730,"beggar":2731,"SALISBURY":2732,"Stay":2733,"Brit":2734,"phy":2735,"Falstaff":2736,"TENSI":2737,"THUMBERLAND":2738,"NORTHUMBERLAND":2739,"HORTENSI":2740,"BAN":2741,"Flour":2742,"OP":2743,"dain":2744,"ease":2745,"yond":2746,"thor":2747,"Think":2748,"table":2749,"takes":2750,"ility":2751,"proceed":2752,"ILLO":2753,"offence":2754,"shows":2755,"jeal":2756,"IANA":2757,"boys":2758,"bitter":2759,"troth":2760,"masters":2761,"Pompe":2762,"Flourish":2763,"FFORD":2764,"Mine":2765,"SES":2766,"ULYS":2767,"VIA":2768,"evil":2769,"umb":2770,"depart":2771,"six":2772,"Heaven":2773,"Nothing":2774,"proper":2775,"opin":2776,"Attend":2777,"ULYSSES":2778,"WOL":2779,"aid":2780,"ging":2781,"twere":2782,"ual":2783,"ato":2784,"argu":2785,"wed":2786,"colour":2787,"shake":2788,"mali":2789,"OLY":2790,"dience":2791,"angry":2792,"fold":2793,"Dost":2794,"quickly":2795,"Welcome":2796,"dinner":2797,"WOLSEY":2798,"CK":2799,"VOST":2800,"rance":2801,"inc":2802,"orti":2803,"ingly":2804,"beth":2805,"shape":2806,"laid":2807,"CHE":2808,"PROVOST":2809,"fied":2810,"commend":2811,"green":2812,"summer":2813,"wisdom":2814,"JAQU":2815,"hurt":2816,"BASS":2817,"title":2818,"Talbot":2819,"Troilus":2820,"cruel":2821,"Pompey":2822,"Cardinal":2823,"EK":2824,"eed":2825,"sooth":2826,"vain":2827,"vise":2828,"herself":2829,"supp":2830,"ounds":2831,"fearful":2832,"guil":2833,"purse":2834,"grand":2835,"humour":2836,"pains":2837,"cked":2838,"measure":2839,"Faith":2840,"AGUECHE":2841,"AGUECHEEK":2842,"Fool":2843,"Gree":2844,"YLO":2845,"catch":2846,"gir":2847,"zen":2848,"rust":2849,"sie":2850,"blow":2851,"spur":2852,"Whom":2853,"SHYLO":2854,"LUCENTIO":2855,"rank":2856,"CLOTEN":2857,"borne":2858,"bastard":2859,"Emperor":2860,"SHYLOCK":2861,"ACH":2862,"DE":2863,"Iago":2864,"Under":2865,"mend":2866,"sus":2867,"sort":2868,"wra":2869,"thro":2870,"arum":2871,"lif":2872,"entine":2873,"CHIMO":2874,"IACHIMO":2875,"Jove":2876,"temper":2877,"Unless":2878,"Cassius":2879,"Juli":2880,"BOYET":2881,"occas":2882,"ATI":2883,"Dou":2884,"Fir":2885,"Wal":2886,"ade":2887,"drum":2888,"kin":2889,"sch":2890,"eness":2891,"army":2892,"vey":2893,"ESCAL":2894,"Into":2895,"plague":2896,"ILLES":2897,"sorry":2898,"Suf":2899,"Both":2900,"obey":2901,"HORTENSIO":2902,"ACHILLES":2903,"ESCALUS":2904,"Ano":2905,"Corn":2906,"Fair":2907,"Jew":2908,"cat":2909,"due":2910,"eks":2911,"fled":2912,"ged":2913,"ler":2914,"mut":2915,"ror":2916,"wine":2917,"ames":2918,"thence":2919,"ignor":2920,"golden":2921,"Antonio":2922,"blame":2923,"drunk":2924,"ADRIANA":2925,"First":2926,"Fie":2927,"MED":2928,"NON":2929,"alive":2930,"cir":2931,"cure":2932,"frown":2933,"hy":2934,"pin":2935,"sland":2936,"ature":2937,"lease":2938,"usur":2939,"tian":2940,"illes":2941,"concl":2942,"honesty":2943,"offic":2944,"glory":2945,"calls":2946,"train":2947,"ucking":2948,"drawn":2949,"Moor":2950,"large":2951,"CONST":2952,"BAP":2953,"rs":2954,"inno":2955,"tern":2956,"STONE":2957,"sav":2958,"TISTA":2959,"COMINIUS":2960,"Margar":2961,"prayers":2962,"QUICK":2963,"jewel":2964,"UCHSTONE":2965,"enger":2966,"stop":2967,"TOUCHSTONE":2968,"request":2969,"BASSANIO":2970,"BAPTISTA":2971,"Margaret":2972,"QUICKLY":2973,"Ach":2974,"GON":2975,"ding":2976,"iam":2977,"wench":2978,"instant":2979,"reven":2980,"chang":2981,"unning":2982,"feed":2983,"blush":2984,"approach":2985,"broad":2986,"MARCUS":2987,"SOMER":2988,"walls":2989,"condition":2990,"Count":2991,"stood":2992,"dishon":2993,"DIOMED":2994,"swift":2995,"jealous":2996,"Another":2997,"DIOMEDES":2998,"Ber":2999,"hin":3000,"methinks":3001,"stor":3002,"leg":3003,"bel":3004,"delight":3005,"mod":3006,"iffer":3007,"wash":3008,"exp":3009,"Ange":3010,"hearing":3011,"Marcius":3012,"holds":3013,"wert":3014,"laughter":3015,"import":3016,"Captain":3017,"scarce":3018,"Macbeth":3019,"church":3020,"CAMILLO":3021,"Suffolk":3022,"Fl":3023,"FOLK":3024,"Si":3025,"TAL":3026,"camp":3027,"lest":3028,"ption":3029,"llen":3030,"deal":3031,"ELL":3032,"glass":3033,"priv":3034,"wits":3035,"William":3036,"weary":3037,"prisoner":3038,"wounds":3039,"NORFOLK":3040,"After":3041,"Ere":3042,"Pis":3043,"Val":3044,"cr":3045,"od":3046,"song":3047,"ug":3048,"wd":3049,"thither":3050,"top":3051,"because":3052,"demand":3053,"rice":3054,"thout":3055,"shepher":3056,"viol":3057,"cheek":3058,"North":3059,"grie":3060,"LORDS":3061,"struck":3062,"humble":3063,"trumpet":3064,"Prithee":3065,"several":3066,"Without":3067,"success":3068,"opinion":3069,"TALBOT":3070,"Ab":3071,"Bucking":3072,"Di":3073,"Fare":3074,"NIA":3075,"bright":3076,"kins":3077,"stone":3078,"itiz":3079,"Those":3080,"demon":3081,"taste":3082,"loved":3083,"blest":3084,"ISH":3085,"sper":3086,"hadst":3087,"greater":3088,"CAIUS":3089,"fig":3090,"DUFF":3091,"clock":3092,"MACDUFF":3093,"Art":3094,"mia":3095,"gross":3096,"Indeed":3097,"Angelo":3098,"Buckingham":3099,"Bring":3100,"Co":3101,"Fo":3102,"HU":3103,"Jack":3104,"MON":3105,"MIAN":3106,"Serv":3107,"cate":3108,"nest":3109,"vouch":3110,"lean":3111,"forbid":3112,"rogue":3113,"verse":3114,"tear":3115,"folly":3116,"prepar":3117,"Edm":3118,"Rosal":3119,"clear":3120,"CHARMIAN":3121,"greet":3122,"wait":3123,"GRATI":3124,"street":3125,"Achilles":3126,"SOMERSET":3127,"GRATIANO":3128,"Lest":3129,"PIS":3130,"Se":3131,"cup":3132,"fru":3133,"knock":3134,"rous":3135,"sme":3136,"winter":3137,"ises":3138,"usion":3139,"aking":3140,"ages":3141,"offend":3142,"affair":3143,"kindness":3144,"Poor":3145,"blessed":3146,"drop":3147,"MURDER":3148,"PISANIO":3149,"FLU":3150,"bly":3151,"bare":3152,"cunning":3153,"mere":3154,"pun":3155,"vell":3156,"cost":3157,"allow":3158,"ARIUS":3159,"necess":3160,"endure":3161,"rude":3162,"govern":3163,"iling":3164,"ELLEN":3165,"knowledge":3166,"sirrah":3167,"greatness":3168,"monster":3169,"tended":3170,"precious":3171,"bert":3172,"visit":3173,"captain":3174,"BELARIUS":3175,"rascal":3176,"FLUELLEN":3177,"Wilt":3178,"brow":3179,"bones":3180,"mour":3181,"rate":3182,"sn":3183,"ished":3184,"ARIEL":3185,"shadow":3186,"neck":3187,"dispatch":3188,"breathe":3189,"wherefore":3190,"mission":3191,"priest":3192,"princely":3193,"sharp":3194,"BISH":3195,"Get":3196,"Lanc":3197,"Mus":3198,"Put":3199,"TER":3200,"aunt":3201,"lend":3202,"pier":3203,"ume":3204,"ancient":3205,"ander":3206,"ters":3207,"advantage":3208,"dolp":3209,"safet":3210,"bling":3211,"author":3212,"ANDER":3213,"mbly":3214,"excuse":3215,"fright":3216,"CADE":3217,"fellows":3218,"HOSTESS":3219,"wretched":3220,"LAUNCE":3221,"third":3222,"CLIFFORD":3223,"BISHOP":3224,"Lancaster":3225,"ald":3226,"bene":3227,"corn":3228,"dle":3229,"gate":3230,"loud":3231,"nurse":3232,"uch":3233,"ys":3234,"ona":3235,"hel":3236,"widow":3237,"wicked":3238,"terms":3239,"cot":3240,"ties":3241,"fears":3242,"STEPH":3243,"uphin":3244,"mund":3245,"iful":3246,"quite":3247,"ieu":3248,"ETTA":3249,"compan":3250,"tongues":3251,"Edmund":3252,"ROSALINE":3253,"defend":3254,"Bened":3255,"Dauphin":3256,"IDIUS":3257,"safety":3258,"AUT":3259,"FLA":3260,"Hence":3261,"IDER":3262,"JUS":3263,"Stri":3264,"boun":3265,"intent":3266,"heels":3267,"seven":3268,"yourselves":3269,"goodly":3270,"perform":3271,"expect":3272,"BERT":3273,"triumph":3274,"clou":3275,"UMIO":3276,"wrongs":3277,"GRUMIO":3278,"Time":3279,"embrace":3280,"SILVIA":3281,"Christian":3282,"GUIDER":3283,"OLYCUS":3284,"occasion":3285,"itizens":3286,"STEPHANO":3287,"AUTOLYCUS":3288,"JUSTI":3289,"GUIDERIUS":3290,"AAR":3291,"Bl":3292,"Ke":3293,"luck":3294,"ming":3295,"twi":3296,"ua":3297,"zard":3298,"inj":3299,"ores":3300,"memor":3301,"sem":3302,"ley":3303,"former":3304,"rose":3305,"lius":3306,"rid":3307,"urg":3308,"tic":3309,"ident":3310,"manners":3311,"STR":3312,"princes":3313,"poin":3314,"comple":3315,"shouldst":3316,"foes":3317,"PHIL":3318,"courage":3319,"Reads":3320,"brothers":3321,"Unto":3322,"EXETER":3323,"ECTOR":3324,"grows":3325,"creature":3326,"spring":3327,"simple":3328,"physi":3329,"JAQUES":3330,"Juliet":3331,"private":3332,"shepherd":3333,"MURDERER":3334,"AARON":3335,"Could":3336,"HECTOR":3337,"dwell":3338,"rise":3339,"leaves":3340,"owe":3341,"uten":3342,"ked":3343,"hop":3344,"sail":3345,"spend":3346,"victor":3347,"miss":3348,"Sirrah":3349,"cheeks":3350,"bestow":3351,"lawful":3352,"choly":3353,"choice":3354,"employ":3355,"VOLUM":3356,"ronic":3357,"liberty":3358,"Athens":3359,"wrath":3360,"Keep":3361,"Ac":3362,"Ford":3363,"SLEN":3364,"fain":3365,"threat":3366,"ano":3367,"ora":3368,"orge":3369,"meat":3370,"melan":3371,"stud":3372,"reput":3373,"sequ":3374,"legs":3375,"forest":3376,"weap":3377,"persu":3378,"witch":3379,"paid":3380,"Poins":3381,"While":3382,"Bardolp":3383,"malice":3384,"JUSTICE":3385,"SLENDER":3386,"Bardolph":3387,"'-":3388,"Ad":3389,"Au":3390,"Cast":3391,"CARDIN":3392,"FIC":3393,"Ste":3394,"fish":3395,"pure":3396,"sy":3397,"yes":3398,"intend":3399,"stro":3400,"nose":3401,"hill":3402,"utter":3403,"roar":3404,"room":3405,"weigh":3406,"als":3407,"cock":3408,"majesty":3409,"shine":3410,"contr":3411,"constant":3412,"tail":3413,"blows":3414,"OFFIC":3415,"spent":3416,"Somer":3417,"desires":3418,"tray":3419,"Anne":3420,"EMIO":3421,"wards":3422,"stern":3423,"PAUL":3424,"keeps":3425,"steel":3426,"CHARLES":3427,"smile":3428,"GREMIO":3429,"Methinks":3430,"thrice":3431,"credit":3432,"finger":3433,"particul":3434,"guilty":3435,"Follow":3436,"Benedick":3437,"melancholy":3438,"CARDINAL":3439,"PAULINA":3440,"Gi":3441,"Pardon":3442,"POLI":3443,"Tower":3444,"XEN":3445,"cil":3446,"dance":3447,"fie":3448,"hunt":3449,"hors":3450,"nay":3451,"wing":3452,"yra":3453,"thief":3454,"anio":3455,"stars":3456,"heed":3457,"habit":3458,"revo":3459,"leis":3460,"rot":3461,"ourish":3462,"doing":3463,"ama":3464,"tire":3465,"tial":3466,"iff":3467,"perfect":3468,"angu":3469,"foe":3470,"abs":3471,"EMNON":3472,"strous":3473,"AMEMNON":3474,"chain":3475,"falls":3476,"commit":3477,"AGAMEMNON":3478,"maiden":3479,"Made":3480,"venture":3481,"oaths":3482,"loyal":3483,"circ":3484,"MONT":3485,"Somerset":3486,"POLIXEN":3487,"POLIXENES":3488,"Bid":3489,"Bol":3490,"FAB":3491,"Ho":3492,"Hang":3493,"Please":3494,"Sen":3495,"West":3496,"cta":3497,"cried":3498,"fought":3499,"gard":3500,"murther":3501,"net":3502,"pub":3503,"swords":3504,"tur":3505,"wond":3506,"story":3507,"stuff":3508,"ingbroke":3509,"betray":3510,"liver":3511,"few":3512,"CHI":3513,"mony":3514,"honours":3515,"madness":3516,"lands":3517,"throne":3518,"wanton":3519,"silver":3520,"fancy":3521,"argument":3522,"VOLUMNIA":3523,"Bolingbroke":3524,"FABIAN":3525,"AJA":3526,"BIAN":3527,"DOL":3528,"Show":3529,"URI":3530,"VIL":3531,"bon":3532,"dry":3533,"fond":3534,"gown":3535,"ife":3536,"lament":3537,"mal":3538,"wag":3539,"wake":3540,"incess":3541,"ense":3542,"sell":3543,"unless":3544,"fee":3545,"idle":3546,"mach":3547,"fame":3548,"ify":3549,"ELLE":3550,"dig":3551,"monstrous":3552,"wherein":3553,"Wherein":3554,"bearing":3555,"follows":3556,"duc":3557,"knee":3558,"kneel":3559,"mountain":3560,"PUCELLE":3561,"gift":3562,"Tybal":3563,"Britain":3564,"Valentine":3565,"smell":3566,"affairs":3567,"public":3568,"AJAX":3569,"BIANCA":3570,"Clif":3571,"Men":3572,"Still":3573,"ape":3574,"dur":3575,"grown":3576,"port":3577,"vows":3578,"thunder":3579,"medi":3580,"heat":3581,"demn":3582,"oom":3583,"ries":3584,"lover":3585,"fail":3586,"app":3587,"protest":3588,"mayst":3589,"cians":3590,"civil":3591,"accus":3592,"fiend":3593,"Wherefore":3594,"assur":3595,"clam":3596,"chase":3597,"repent":3598,"courtesy":3599,"vail":3600,"Desdemon":3601,"easy":3602,"neighbour":3603,"solemn":3604,"leisure":3605,"VILLE":3606,"Tybalt":3607,"Cam":3608,"EF":3609,"GA":3610,"Hu":3611,"Sal":3612,"Two":3613,"dru":3614,"ffi":3615,"line":3616,"tree":3617,"treas":3618,"vest":3619,"ances":3620,"enjoy":3621,"step":3622,"real":3623,"liar":3624,"tide":3625,"ORA":3626,"neg":3627,"faction":3628,"sho":3629,"conj":3630,"sack":3631,"agger":3632,"reasons":3633,"deri":3634,"corru":3635,"consider":3636,"awake":3637,"Percy":3638,"counterfeit":3639,"trumpets":3640,"Venice":3641,"CHIEF":3642,"Clifford":3643,"Draw":3644,"Egy":3645,"TAM":3646,"abroad":3647,"fare":3648,"food":3649,"fif":3650,"plot":3651,"rare":3652,"var":3653,"weight":3654,"ney":3655,"fac":3656,"mov":3657,"ously":3658,"dign":3659,"honor":3660,"MAIN":3661,"trans":3662,"miser":3663,"preh":3664,"silence":3665,"Leonato":3666,"Attendants":3667,"study":3668,"';":3669,"Aj":3670,"Ale":3671,"Hal":3672,"HOL":3673,"bend":3674,"dust":3675,"fury":3676,"non":3677,"orious":3678,"tomb":3679,"start":3680,"stones":3681,"forsworn":3682,"adieu":3683,"ENCH":3684,"sau":3685,"cial":3686,"exam":3687,"Off":3688,"abuse":3689,"DUMAIN":3690,"warm":3691,"virgin":3692,"minister":3693,"FRENCH":3694,"cket":3695,"supper":3696,"LYSANDER":3697,"quoth":3698,"execution":3699,"remembrance":3700,"slander":3701,"HUBERT":3702,"twice":3703,"Desdemona":3704,"TAMORA":3705,"Ajax":3706,"FLOR":3707,"IBAN":3708,"NER":3709,"SAT":3710,"Tri":3711,"big":3712,"duke":3713,"differ":3714,"faint":3715,"ial":3716,"niece":3717,"skill":3718,"trem":3719,"anus":3720,"ences":3721,"reign":3722,"wives":3723,"liest":3724,"doors":3725,"ARVIR":3726,"teen":3727,"quit":3728,"TIUS":3729,"provi":3730,"spite":3731,"express":3732,"friar":3733,"broken":3734,"Dog":3735,"ONDELLO":3736,"Alarum":3737,"stomach":3738,"AGUS":3739,"Only":3740,"BIONDELLO":3741,"CALIBAN":3742,"horses":3743,"revolt":3744,"ARVIRAGUS":3745,"CIUS":3746,"FIDIUS":3747,"IGO":3748,"Mil":3749,"MIR":3750,"NES":3751,"Too":3752,"cen":3753,"flies":3754,"hat":3755,"slow":3756,"seat":3757,"ride":3758,"ERNES":3759,"INUS":3760,"ARL":3761,"sheep":3762,"RODER":3763,"apt":3764,"OFERNES":3765,"ANDA":3766,"perate":3767,"fix":3768,"counten":3769,"URN":3770,"trial":3771,"MARCIUS":3772,"ransom":3773,"yea":3774,"sooner":3775,"centio":3776,"gallant":3777,"AUFIDIUS":3778,"wretch":3779,"umberland":3780,"Besides":3781,"fruit":3782,"punish":3783,"URIO":3784,"HOLOFERNES":3785,"SATURN":3786,"MIRANDA":3787,"RODERIGO":3788,"Ban":3789,"Don":3790,"Othe":3791,"WEST":3792,"ZAL":3793,"fy":3794,"hit":3795,"yonder":3796,"reed":3797,"asleep":3798,"cease":3799,"forgive":3800,"always":3801,"whis":3802,"condu":3803,"condemn":3804,"SIM":3805,"prov":3806,"sometime":3807,"whereof":3808,"flood":3809,"SHEPH":3810,"whilst":3811,"welve":3812,"stol":3813,"remedy":3814,"seeming":3815,"swore":3816,"deserve":3817,"profess":3818,"True":3819,"subjects":3820,"Monta":3821,"burden":3822,"dreadful":3823,"colours":3824,"Silvia":3825,"school":3826,"GONZAL":3827,"Alex":3828,"SATURNINUS":3829,"Othello":3830,"SHEPHERD":3831,"GONZALO":3832,"--":3833,"MIA":3834,"Oph":3835,"Phi":3836,"Scot":3837,"Twas":3838,"Vol":3839,"WIS":3840,"cuck":3841,"fun":3842,"furn":3843,"game":3844,"ize":3845,"mat":3846,"ping":3847,"pul":3848,"tw":3849,"wn":3850,"encounter":3851,"wide":3852,"whence":3853,"loath":3854,"feet":3855,"ruin":3856,"womb":3857,"discourse":3858,"affect":3859,"tyrant":3860,"practi":3861,"single":3862,"spoken":3863,"towards":3864,"quality":3865,"HERMIA":3866,"messenger":3867,"Proteus":3868,"memory":3869,"particular":3870,"AENE":3871,"Alack":3872,"Lay":3873,"Save":3874,"ZO":3875,"buck":3876,"citizens":3877,"fits":3878,"loose":3879,"number":3880,"numb":3881,"vin":3882,"thrust":3883,"hap":3884,"receiv":3885,"dec":3886,"deter":3887,"ENZO":3888,"idius":3889,"hers":3890,"shut":3891,"consu":3892,"LEWIS":3893,"peril":3894,"acle":3895,"ical":3896,"merit":3897,"guilt":3898,"warlike":3899,"purpos":3900,"LORENZO":3901,"crowns":3902,"happiness":3903,"TOM":3904,"dress":3905,"troop":3906,"vered":3907,"Beatrice":3908,"BOTTOM":3909,"powers":3910,"reverend":3911,"direct":3912,"Charles":3913,"FLAVIUS":3914,"clouds":3915,"circum":3916,"AENEAS":3917,"Amen":3918,"Bear":3919,"Cup":3920,"EUS":3921,"Either":3922,"Man":3923,"Ret":3924,"Turn":3925,"pound":3926,"pick":3927,"twelve":3928,"ESEUS":3929,"making":3930,"THESEUS":3931,"hopes":3932,"ELAND":3933,"Believe":3934,"acc":3935,"Lords":3936,"aked":3937,"dearest":3938,"knife":3939,"buried":3940,"imper":3941,"servants":3942,"weeping":3943,"promis":3944,"Whilst":3945,"obedience":3946,"IZEL":3947,"thrive":3948,"whether":3949,"MORELAND":3950,"Titus":3951,"Northumberland":3952,"FLORIZEL":3953,"countenance":3954,"WESTMORELAND":3955,"Cl":3956,"Long":3957,"Lie":3958,"Set":3959,"Very":3960,"bull":3961,"flight":3962,"mas":3963,"page":3964,"twixt":3965,"inius":3966,"ators":3967,"itude":3968,"debt":3969,"lovers":3970,"shot":3971,"teeth":3972,"goodness":3973,"outward":3974,"cture":3975,"Myself":3976,"breed":3977,"standing":3978,"guest":3979,"trick":3980,"tribut":3981,"voices":3982,"angel":3983,"LUCIANA":3984,"daughters":3985,"bids":3986,"minds":3987,"meaning":3988,"Death":3989,"griefs":3990,"borrow":3991,"moved":3992,"learned":3993,"Romans":3994,"season":3995,"Castle":3996,"absence":3997,"Bi":3998,"Cy":3999,"Cress":4000,"Gre":4001,"Ne":4002,"None":4003,"WAT":4004,"cere":4005,"dings":4006,"doom":4007,"ible":4008,"list":4009,"langu":4010,"nine":4011,"nought":4012,"naked":4013,"wings":4014,"iter":4015,"ref":4016,"Three":4017,"Thom":4018,"lod":4019,"tier":4020,"ARCH":4021,"disgu":4022,"vices":4023,"desperate":4024,"LAIN":4025,"heavenly":4026,"Marcus":4027,"LUCETTA":4028,"charity":4029,"drops":4030,"CELOT":4031,"LAUNCELOT":4032,"Protector":4033,"satisfied":4034,"innocent":4035,"utenant":4036,"Cupid":4037,"Thomas":4038,"?'":4039,"?-":4040,"Fear":4041,"Nature":4042,"OX":4043,"Pet":4044,"ball":4045,"dit":4046,"iest":4047,"mil":4048,"mild":4049,"ns":4050,"rat":4051,"squ":4052,"slaughter":4053,"tread":4054,"vol":4055,"incl":4056,"arti":4057,"arded":4058,"meant":4059,"melt":4060,"ution":4061,"ainted":4062,"faces":4063,"shri":4064,"ards":4065,"taught":4066,"CHAM":4067,"lovely":4068,"prosper":4069,"BERLAIN":4070,"March":4071,"prevent":4072,"void":4073,"tract":4074,"Caius":4075,"begins":4076,"anca":4077,"bride":4078,"sickness":4079,"traitors":4080,"humbly":4081,"castle":4082,"sieur":4083,"officer":4084,"ducats":4085,"treasure":4086,"realm":4087,"Montague":4088,"Cressid":4089,"CHAMBERLAIN":4090,"Humph":4091,"OC":4092,"da":4093,"fla":4094,"gree":4095,"jour":4096,"ni":4097,"ned":4098,"pair":4099,"ishop":4100,"envy":4101,"member":4102,"below":4103,"rible":4104,"whore":4105,"advis":4106,"rule":4107,"taking":4108,"saying":4109,"prophe":4110,"vious":4111,"ILIUS":4112,"undone":4113,"DIANA":4114,"guess":4115,"denied":4116,"Capu":4117,"strain":4118,"freely":4119,"painted":4120,"cries":4121,"profit":4122,"mirth":4123,"despair":4124,"waste":4125,"maintain":4126,"SAY":4127,"acquaint":4128,"Wales":4129,"dishonour":4130,"storm":4131,"PHILIP":4132,"Den":4133,"Ge":4134,"Mal":4135,"Might":4136,"Morti":4137,"Os":4138,"SS":4139,"bought":4140,"cu":4141,"cing":4142,"fro":4143,"lamb":4144,"pie":4145,"sour":4146,"swell":4147,"invent":4148,"arri":4149,"esti":4150,"haps":4151,"becomes":4152,"dep":4153,"dew":4154,"ria":4155,"tidings":4156,"suck":4157,"convey":4158,"bled":4159,"ROSS":4160,"earnest":4161,"disdain":4162,"greatest":4163,"Doctor":4164,"tyran":4165,"party":4166,"MERLE":4167,"Shallow":4168,"brings":4169,"stock":4170,"object":4171,"armour":4172,"crack":4173,"uteous":4174,"knees":4175,"empty":4176,"burning":4177,"Whiles":4178,"AUMERLE":4179,"treach":4180,"Hastings":4181,"girl":4182,"throat":4183,"authority":4184,"Bianca":4185,"Humphrey":4186,"Capulet":4187,"Old":4188,"TCH":4189,"UPH":4190,"WER":4191,"Whither":4192,"bunes":4193,"eag":4194,"honey":4195,"pat":4196,"ray":4197,"vish":4198,"ane":4199,"isbury":4200,"enforce":4201,"stable":4202,"search":4203,"forbear":4204,"rob":4205,"lig":4206,"lio":4207,"ades":4208,"estate":4209,"estee":4210,"shrew":4211,"hollow":4212,"Help":4213,"proclaim":4214,"disgrace":4215,"disposition":4216,"perj":4217,"Pres":4218,"gentlewoman":4219,"flower":4220,"flourish":4221,"pping":4222,"tedious":4223,"deadly":4224,"meeting":4225,"Glend":4226,"WITCH":4227,"winds":4228,"salt":4229,"streets":4230,"PUCK":4231,"sighs":4232,"horns":4233,"modesty":4234,"figure":4235,"garden":4236,"Salisbury":4237,"Mortimer":4238,"AVILLE":4239,"Cle":4240,"CLA":4241,"NEST":4242,"OUT":4243,"Octa":4244,"RA":4245,"Sound":4246,"SUR":4247,"bud":4248,"bark":4249,"bility":4250,"equal":4251,"names":4252,"render":4253,"wink":4254,"thick":4255,"err":4256,"metri":4257,"noon":4258,"ghost":4259,"adv":4260,"willing":4261,"shore":4262,"pron":4263,"poli":4264,"commission":4265,"shed":4266,"appreh":4267,"early":4268,"bred":4269,"CATES":4270,"merch":4271,"mischief":4272,"oler":4273,"PID":4274,"volio":4275,"Shakes":4276,"Thanks":4277,"begg":4278,"besides":4279,"virtues":4280,"Demetri":4281,"LONGAVILLE":4282,"appears":4283,"human":4284,"despite":4285,"urious":4286,"OLIVER":4287,"divine":4288,"limbs":4289,"suspect":4290,"Egypt":4291,"George":4292,"NESTOR":4293,"CATESBY":4294,"Demetrius":4295,"EARL":4296,"GREY":4297,"Sings":4298,"UDIO":4299,"boot":4300,"etern":4301,"fin":4302,"fed":4303,"hung":4304,"ient":4305,"rhy":4306,"sway":4307,"sore":4308,"tance":4309,"tort":4310,"vity":4311,"zz":4312,"orous":4313,"vex":4314,"leag":4315,"belie":4316,"ced":4317,"Andronic":4318,"whores":4319,"ado":4320,"uses":4321,"raise":4322,"tily":4323,"ONSO":4324,"THURIO":4325,"ALONSO":4326,"ISSA":4327,"spare":4328,"sometimes":4329,"plead":4330,"strang":4331,"Franc":4332,"prepare":4333,"oppos":4334,"gious":4335,"Norfolk":4336,"griev":4337,"garments":4338,"clothe":4339,"tempest":4340,"laws":4341,"smooth":4342,"window":4343,"renown":4344,"attendants":4345,"vengeance":4346,"bird":4347,"beaten":4348,"Truly":4349,"suddenly":4350,"ignorant":4351,"llenge":4352,"Rosalind":4353,"NERISSA":4354,"CLAUDIO":4355,"Andronicus":4356,"Francis":4357,"Bra":4358,"Dear":4359,"Each":4360,"Ly":4361,"Rep":4362,"Wind":4363,"aim":4364,"brows":4365,"cli":4366,"pent":4367,"sits":4368,"sides":4369,"thorn":4370,"oured":4371,"iny":4372,"inher":4373,"atio":4374,"forfeit":4375,"alas":4376,"INCH":4377,"tied":4378,"shallow":4379,"appare":4380,"therein":4381,"accord":4382,"plant":4383,"fathers":4384,"Anti":4385,"fiery":4386,"INCE":4387,"PATRO":4388,"prize":4389,"QUINCE":4390,"voy":4391,"ctions":4392,"challenge":4393,"compass":4394,"following":4395,"followers":4396,"Ros":4397,"Roderi":4398,"confer":4399,"tonight":4400,"turns":4401,"Leave":4402,"build":4403,"CLUS":4404,"Horatio":4405,"wont":4406,"flowers":4407,"Laertes":4408,"violent":4409,"kinsman":4410,"complex":4411,"contrary":4412,"amaz":4413,"conduct":4414,"furnish":4415,"PATROCLUS":4416,"Roderigo":4417,"BIA":4418,"PPA":4419,"PTA":4420,"ULO":4421,"Watch":4422,"pill":4423,"pic":4424,"passa":4425,"slight":4426,"thrown":4427,"rede":4428,"behalf":4429,"assure":4430,"devise":4431,"degree":4432,"ALCI":4433,"sacred":4434,"RIPPA":4435,"provo":4436,"sweat":4437,"TRINC":4438,"account":4439,"CAPTA":4440,"monu":4441,"merri":4442,"scri":4443,"score":4444,"gues":4445,"used":4446,"chair":4447,"undertake":4448,"cursed":4449,"Hermia":4450,"hark":4451,"posed":4452,"AGRIPPA":4453,"gener":4454,"dumb":4455,"maids":4456,"Peter":4457,"custom":4458,"rash":4459,"ambition":4460,"dares":4461,"imagin":4462,"portion":4463,"gifts":4464,"Between":4465,"Brother":4466,"CONSTABLE":4467,"victory":4468,"BIADES":4469,"ALCIBIADES":4470,"TRINCULO":4471,"CAPTAIN":4472,"FERD":4473,"Has":4474,"Makes":4475,"Pyra":4476,"bill":4477,"bind":4478,"crow":4479,"fret":4480,"iliar":4481,"pu":4482,"rush":4483,"thie":4484,"erve":4485,"chide":4486,"cop":4487,"dogs":4488,"INAND":4489,"peare":4490,"idence":4491,"shr":4492,"illo":4493,"concer":4494,"contempt":4495,"sire":4496,"modest":4497,"CHIR":4498,"hereafter":4499,"spake":4500,"Behold":4501,"ounce":4502,"brook":4503,"parted":4504,"cles":4505,"dying":4506,"brains":4507,"native":4508,"sleeping":4509,"Once":4510,"sounds":4511,"Capi":4512,"dreams":4513,"murd":4514,"frame":4515,"dding":4516,"HERMI":4517,"image":4518,"MISTR":4519,"reputation":4520,"durst":4521,"WATCH":4522,"ARCHBISHOP":4523,"policy":4524,"Shakespeare":4525,"FERDINAND":4526,"Pyramus":4527,"CHIRON":4528,"HERMIONE":4529,"MISTRESS":4530,"Burg":4531,"FO":4532,"NYM":4533,"Play":4534,"Plan":4535,"Sat":4536,"Whe":4537,"WELL":4538,"chaste":4539,"dagger":4540,"fil":4541,"lu":4542,"rent":4543,"smo":4544,"vour":4545,"ths":4546,"ining":4547,"inite":4548,"inform":4549,"token":4550,"store":4551,"forces":4552,"hid":4553,"iron":4554,"root":4555,"ripe":4556,"suffi":4557,"confirm":4558,"comb":4559,"tagen":4560,"bodies":4561,"worn":4562,"seeing":4563,"discre":4564,"undy":4565,"prevail":4566,"DOW":4567,"knaves":4568,"WIDOW":4569,"MENAS":4570,"bridge":4571,"prisoners":4572,"Cannot":4573,"groan":4574,"desert":4575,"picture":4576,"shortly":4577,"reverence":4578,"regard":4579,"About":4580,"Burgundy":4581,"Plantagen":4582,"El":4583,"EPER":4584,"Fe":4585,"Just":4586,"Many":4587,"NI":4588,"cave":4589,"gon":4590,"knot":4591,"sings":4592,"twill":4593,"ws":4594,"ensi":4595,"attended":4596,"stan":4597,"stream":4598,"hazard":4599,"seest":4600,"belly":4601,"beyond":4602,"utes":4603,"roll":4604,"rock":4605,"delay":4606,"device":4607,"deceive":4608,"deceiv":4609,"key":4610,"alo":4611,"edge":4612,"advice":4613,"admir":4614,"admit":4615,"ERIO":4616,"until":4617,"lying":4618,"herald":4619,"boast":4620,"ult":4621,"LEPID":4622,"discover":4623,"perforce":4624,"offended":4625,"speaking":4626,"Sold":4627,"fairly":4628,"courtier":4629,"KEEPER":4630,"prefer":4631,"ladyship":4632,"SALERIO":4633,"atience":4634,"smiles":4635,"vision":4636,"pack":4637,"wax":4638,"contented":4639,"wallow":4640,"affli":4641,"sky":4642,"damned":4643,"fingers":4644,"elder":4645,"Gentlemen":4646,"infinite":4647,"odds":4648,"Camillo":4649,"OCTA":4650,"Capitol":4651,"LEPIDUS":4652,"'?":4653,"Bass":4654,"Gra":4655,"Him":4656,"Pad":4657,"cou":4658,"cam":4659,"cue":4660,"mill":4661,"thur":4662,"ina":4663,"intell":4664,"ising":4665,"att":4666,"stick":4667,"havi":4668,"sees":4669,"owl":4670,"forsooth":4671,"weeds":4672,"alter":4673,"soci":4674,"ERO":4675,"doms":4676,"blown":4677,"lets":4678,"apart":4679,"appet":4680,"woes":4681,"thinking":4682,"nights":4683,"glorious":4684,"rings":4685,"graces":4686,"Princess":4687,"wrought":4688,"prick":4689,"prey":4690,"curs":4691,"Although":4692,"farther":4693,"Arthur":4694,"Lavin":4695,"crave":4696,"sorrows":4697,"blessing":4698,"familiar":4699,"fatal":4700,"Greek":4701,"Senate":4702,"cuckold":4703,"numbers":4704,"Clown":4705,"Plantagenet":4706,"Bassanio":4707,"Ap":4708,"Dun":4709,"Mars":4710,"Soft":4711,"Wr":4712,"Wit":4713,"afe":4714,"alike":4715,"mong":4716,"pour":4717,"pau":4718,"snow":4719,"tar":4720,"tall":4721,"wreck":4722,"inv":4723,"orch":4724,"sty":4725,"stret":4726,"lied":4727,"aly":4728,"raid":4729,"rail":4730,"unknown":4731,"tive":4732,"contro":4733,"prise":4734,"comfor":4735,"OLD":4736,"special":4737,"spar":4738,"displeasure":4739,"afraid":4740,"glas":4741,"fairy":4742,"fairest":4743,"friendship":4744,"stranger":4745,"fier":4746,"assad":4747,"bawd":4748,"puts":4749,"dearly":4750,"charg":4751,"everything":4752,"sander":4753,"carried":4754,"GOWER":4755,"repair":4756,"substance":4757,"villains":4758,"penny":4759,"COLM":4760,"Lucentio":4761,"leness":4762,"MALCOLM":4763,"acquainted":4764,"midnight":4765,"conquer":4766,"extrem":4767,"Brook":4768,"Douglas":4769,"bounty":4770,"pointed":4771,"stroke":4772,"OFFICER":4773,"Banquo":4774,"practice":4775,"clothes":4776,"Lysander":4777,"complexion":4778,"Whether":4779,"Padua":4780,"Lavinia":4781,"AE":4782,"AUS":4783,"Bre":4784,"Came":4785,"Fall":4786,"Full":4787,"Much":4788,"Tran":4789,"bran":4790,"cend":4791,"event":4792,"length":4793,"pite":4794,"yo":4795,"inst":4796,"isle":4797,"ator":4798,"vet":4799,"forc":4800,"coat":4801,"unate":4802,"END":4803,"willingly":4804,"ORLE":4805,"peers":4806,"nephe":4807,"super":4808,"seless":4809,"tame":4810,"tast":4811,"teous":4812,"worm":4813,"LOV":4814,"wholes":4815,"divi":4816,"vius":4817,"fox":4818,"tells":4819,"mond":4820,"privile":4821,"Hereford":4822,"bade":4823,"ships":4824,"ATTEN":4825,"kindly":4826,"MARIANA":4827,"confound":4828,"knit":4829,"lasting":4830,"CASCA":4831,"mile":4832,"countrymen":4833,"barren":4834,"attending":4835,"PARIS":4836,"wounded":4837,"Welsh":4838,"affections":4839,"CONSTANCE":4840,"Flor":4841,"Pistol":4842,"Diome":4843,"mourn":4844,"Music":4845,"benefit":4846,"weapons":4847,"negle":4848,"Milan":4849,"purposes":4850,"monument":4851,"ORLEANS":4852,"ATTEND":4853,"AY":4854,"Adie":4855,"Cry":4856,"Every":4857,"Emi":4858,"GUN":4859,"Ghost":4860,"Host":4861,"Ja":4862,"Kather":4863,"RAT":4864,"Send":4865,"SAND":4866,"WINCH":4867,"aded":4868,"bent":4869,"bite":4870,"chast":4871,"eight":4872,"fron":4873,"fidius":4874,"lun":4875,"odd":4876,"phi":4877,"ped":4878,"sink":4879,"swallow":4880,"tory":4881,"tarry":4882,"wants":4883,"island":4884,"stat":4885,"deer":4886,"also":4887,"edi":4888,"ety":4889,"morn":4890,"moment":4891,"mult":4892,"TIS":4893,"approve":4894,"mpet":4895,"Young":4896,"handker":4897,"hearted":4898,"tres":4899,"Does":4900,"scene":4901,"Remember":4902,"babe":4903,"places":4904,"check":4905,"charm":4906,"whither":4907,"reading":4908,"sentence":4909,"minute":4910,"grey":4911,"POET":4912,"DAUPH":4913,"calm":4914,"hateful":4915,"favours":4916,"banishment":4917,"books":4918,"solute":4919,"conceit":4920,"ignorance":4921,"grieve":4922,"whisper":4923,"SIMPLE":4924,"pieces":4925,"whoreson":4926,"apparel":4927,"Soldiers":4928,"wholesome":4929,"ATTENDANT":4930,"Adieu":4931,"Emilia":4932,"WINCHESTER":4933,"DAUPHIN":4934,"BED":4935,"DOR":4936,"Em":4937,"Find":4938,"Father":4939,"Kne":4940,"Knock":4941,"Osw":4942,"Str":4943,"WBR":4944,"bag":4945,"iol":4946,"mood":4947,"nice":4948,"pil":4949,"pted":4950,"sought":4951,"ware":4952,"west":4953,"inches":4954,"nobly":4955,"retire":4956,"beam":4957,"chio":4958,"asp":4959,"deb":4960,"dece":4961,"weather":4962,"adventure":4963,"cope":4964,"felt":4965,"feather":4966,"ruchio":4967,"potent":4968,"bolt":4969,"moreland":4970,"LEY":4971,"aged":4972,"acy":4973,"accuse":4974,"market":4975,"abhor":4976,"LAW":4977,"scur":4978,"betwixt":4979,"prayer":4980,"trade":4981,"giving":4982,"finds":4983,"parent":4984,"afterwards":4985,"runs":4986,"engers":4987,"bush":4988,"MOWBR":4989,"devils":4990,"Didst":4991,"observ":4992,"zeal":4993,"deserv":4994,"calf":4995,"Hail":4996,"Coriol":4997,"bottom":4998,"pitch":4999,"instrument":5000,"months":5001,"companion":5002,"Strike":5003,"Aufidius":5004,"rotten":5005,"Westmoreland":5006,"Offic":5007,"twain":5008,"Petruchio":5009,"SURREY":5010,"Windsor":5011,"inherit":5012,"appetite":5013,"fierce":5014,"BEDFORD":5015,"MOWBRAY":5016,"Coriolanus":5017,"Bora":5018,"Drom":5019,"Dian":5020,"Gr":5021,"GNI":5022,"JESSI":5023,"OBER":5024,"Pat":5025,"Sp":5026,"Sleep":5027,"Tur":5028,"blo":5029,"dst":5030,"dows":5031,"fate":5032,"fran":5033,"rt":5034,"sli":5035,"inous":5036,"infect":5037,"ating":5038,"arrest":5039,"onius":5040,"stage":5041,"nobles":5042,"recover":5043,"leans":5044,"belong":5045,"begot":5046,"hie":5047,"ala":5048,"although":5049,"unfold":5050,"ANLEY":5051,"INTER":5052,"Toby":5053,"STANLEY":5054,"moe":5055,"ALEX":5056,"blunt":5057,"Thisby":5058,"marks":5059,"scape":5060,"misery":5061,"wrest":5062,"udge":5063,"impossible":5064,"joint":5065,"cler":5066,"followed":5067,"slew":5068,"stead":5069,"pleasures":5070,"pract":5071,"banqu":5072,"villainy":5073,"sends":5074,"stronger":5075,"MAYOR":5076,"craft":5077,"Richmond":5078,"clai":5079,"silent":5080,"defence":5081,"KATHERINE":5082,"darkness":5083,"entertainment":5084,"Sici":5085,"vouchsafe":5086,"yester":5087,"drums":5088,"dignity":5089,"difference":5090,"advance":5091,"eternal":5092,"thieves":5093,"EROS":5094,"Empress":5095,"Dromio":5096,"JESSICA":5097,"OBERON":5098,"Cousin":5099,"Hon":5100,"IT":5101,"Sl":5102,"Tr":5103,"TUS":5104,"VAR":5105,"Vill":5106,"avoid":5107,"cand":5108,"glove":5109,"lis":5110,"mate":5111,"mask":5112,"pate":5113,"paint":5114,"sins":5115,"tles":5116,"atra":5117,"stab":5118,"height":5119,"nobility":5120,"haunt":5121,"leap":5122,"befall":5123,"Through":5124,"weal":5125,"wears":5126,"wither":5127,"coz":5128,"raven":5129,"unce":5130,"unnatural":5131,"amiss":5132,"pomp":5133,"complain":5134,"bleed":5135,"aptis":5136,"thereof":5137,"wolf":5138,"vessel":5139,"prote":5140,"proportion":5141,"spit":5142,"breach":5143,"desir":5144,"serves":5145,"trun":5146,"fairer":5147,"heartily":5148,"north":5149,"opatra":5150,"gress":5151,"charac":5152,"Edgar":5153,"Robert":5154,"slept":5155,"pleasant":5156,"cares":5157,"banished":5158,"sleeps":5159,"beauteous":5160,"hanging":5161,"Arch":5162,"contents":5163,"hardly":5164,"groans":5165,"Bohe":5166,"mouths":5167,"huge":5168,"Priam":5169,"Polonius":5170,"torment":5171,"Wife":5172,"basket":5173,"Verona":5174,"usurp":5175,"Scotland":5176,"decay":5177,"language":5178,"milk":5179,"acquaintance":5180,"shrewd":5181,"Cleopatra":5182,"stretch":5183,"Diomed":5184,"Ger":5185,"Gen":5186,"GILIA":5187,"IOR":5188,"IGNI":5189,"LANT":5190,"Mother":5191,"PLANT":5192,"Res":5193,"bi":5194,"bab":5195,"freed":5196,"hous":5197,"ip":5198,"mm":5199,"slip":5200,"scept":5201,"anti":5202,"envious":5203,"hall":5204,"hail":5205,"reward":5206,"reach":5207,"rejo":5208,"rebell":5209,"bels":5210,"irt":5211,"decl":5212,"soms":5213,"ENET":5214,"male":5215,"mage":5216,"shun":5217,"contain":5218,"pot":5219,"poet":5220,"pocket":5221,"ified":5222,"knowing":5223,"sacri":5224,"bler":5225,"peri":5226,"perish":5227,"marvel":5228,"Italy":5229,"abide":5230,"friendly":5231,"LAV":5232,"mistake":5233,"assist":5234,"tled":5235,"PAINTER":5236,"guarded":5237,"angels":5238,"Hercul":5239,"REIGNI":5240,"surely":5241,"Until":5242,"VERS":5243,"AGENET":5244,"senses":5245,"visible":5246,"commanded":5247,"Launce":5248,"coron":5249,"corre":5250,"Luci":5251,"Boy":5252,"birds":5253,"BURGUN":5254,"gged":5255,"slaves":5256,"skin":5257,"feeling":5258,"creatures":5259,"SENIOR":5260,"Troyan":5261,"CLIFF":5262,"lusty":5263,"remains":5264,"addition":5265,"Among":5266,"VIRGILIA":5267,"reveng":5268,"jealousy":5269,"Blunt":5270,"tailor":5271,"DOLL":5272,"mediate":5273,"esteem":5274,"passage":5275,"discretion":5276,"yoke":5277,"nephew":5278,"RATCLIFF":5279,"banquet":5280,"Villain":5281,"PLANTAGENET":5282,"Hercules":5283,"REIGNIER":5284,"BURGUNDY":5285,"**":5286,"Apo":5287,"Cas":5288,"Chi":5289,"Jup":5290,"MOND":5291,"Nap":5292,"PETER":5293,"Sit":5294,"Sing":5295,"Sure":5296,"VEN":5297,"Wo":5298,"bours":5299,"lin":5300,"lat":5301,"naught":5302,"oak":5303,"task":5304,"wak":5305,"attempt":5306,"behavi":5307,"chid":5308,"asy":5309,"formed":5310,"uties":5311,"robb":5312,"oots":5313,"doctor":5314,"unhappy":5315,"ambit":5316,"INIA":5317,"conven":5318,"CHANT":5319,"appointed":5320,"LODO":5321,"cies":5322,"dient":5323,"accept":5324,"IRAS":5325,"monarch":5326,"services":5327,"undo":5328,"lieutenant":5329,"SC_":5330,"QUO":5331,"OTHSAY":5332,"MERCHANT":5333,"tricks":5334,"travel":5335,"gild":5336,"cheap":5337,"harsh":5338,"VICO":5339,"cloak":5340,"stays":5341,"SOOTHSAY":5342,"subtle":5343,"faithful":5344,"RICHMOND":5345,"falsehood":5346,"visage":5347,"spot":5348,"hangs":5349,"pense":5350,"passing":5351,"Having":5352,"written":5353,"signs":5354,"secure":5355,"Julia":5356,"frail":5357,"Worthy":5358,"beasts":5359,"uries":5360,"SILVIUS":5361,"Guil":5362,"Guild":5363,"reckon":5364,"BANQUO":5365,"necessity":5366,"Gives":5367,"committed":5368,"wondrous":5369,"GAUNT":5370,"Hubert":5371,"fifty":5372,"determin":5373,"circumstance":5374,"tyranny":5375,"OUTLAW":5376,"rhyme":5377,"league":5378,"pause":5379,"Tranio":5380,"handkerchief":5381,"Bohemia":5382,"LAVINIA":5383,"Jupiter":5384,"ambitious":5385,"LODOVICO":5386,"SOOTHSAYER":5387,"Agame":5388,"Baptis":5389,"CAN":5390,"HUM":5391,"LAR":5392,"Sta":5393,"Tut":5394,"Tam":5395,"WO":5396,"aving":5397,"bble":5398,"cool":5399,"drew":5400,"goose":5401,"lain":5402,"lines":5403,"nar":5404,"nam":5405,"nation":5406,"pup":5407,"sine":5408,"swer":5409,"ums":5410,"vous":5411,"armed":5412,"stamp":5413,"hears":5414,"repe":5415,"ros":5416,"wedding":5417,"soever":5418,"dozen":5419,"INS":5420,"ordin":5421,"aine":5422,"pear":5423,"peas":5424,"mag":5425,"lap":5426,"arts":5427,"illon":5428,"sions":5429,"combat":5430,"mul":5431,"ELBO":5432,"qua":5433,"outs":5434,"venom":5435,"sple":5436,"disease":5437,"otherwise":5438,"bread":5439,"design":5440,"absent":5441,"Anon":5442,"DITA":5443,"partly":5444,"lief":5445,"achie":5446,"PERDITA":5447,"fortunate":5448,"SERVING":5449,"parley":5450,"irect":5451,"plays":5452,"justly":5453,"pawn":5454,"POINS":5455,"Pos":5456,"spoil":5457,"creep":5458,"humours":5459,"bravely":5460,"gait":5461,"satisfaction":5462,"MURTHER":5463,"Quick":5464,"savage":5465,"exped":5466,"physic":5467,"miserable":5468,"example":5469,"provided":5470,"tribute":5471,"Grecian":5472,"Casca":5473,"Naples":5474,"Baptista":5475,"LARTIUS":5476,"ELBOW":5477,"!\"":5478,"Gaunt":5479,"Other":5480,"PEM":5481,"Porti":5482,"Run":5483,"Rather":5484,"Ur":5485,"cise":5486,"eve":5487,"gid":5488,"vul":5489,"thum":5490,"eril":5491,"inward":5492,"attain":5493,"arus":5494,"toil":5495,"sting":5496,"stub":5497,"remor":5498,"record":5499,"choler":5500,"assu":5501,"ldom":5502,"roses":5503,"deput":5504,"liqu":5505,"term":5506,"whit":5507,"cozen":5508,"alle":5509,"urs":5510,"ANIA":5511,"amity":5512,"ENCON":5513,"logue":5514,"tick":5515,"ARTH":5516,"mak":5517,"suits":5518,"shown":5519,"godd":5520,"ALENCON":5521,"bleeding":5522,"RIVERS":5523,"tooth":5524,"shoulders":5525,"audience":5526,"Goths":5527,"distra":5528,"perfection":5529,"perhaps":5530,"serpent":5531,"gently":5532,"Orleans":5533,"Marg":5534,"shire":5535,"imprison":5536,"pursu":5537,"caught":5538,"curst":5539,"brand":5540,"bray":5541,"earthly":5542,"draws":5543,"WILLIAMS":5544,"strife":5545,"YOU":5546,"ACT_":5547,"wisely":5548,"crease":5549,"deserves":5550,"CORIN":5551,"leads":5552,"TITANIA":5553,"Mean":5554,"mnon":5555,"Commend":5556,"petition":5557,"liberal":5558,"possession":5559,"conquest":5560,"Regan":5561,"drive":5562,"Goneril":5563,"officers":5564,"conjure":5565,"saucy":5566,"consul":5567,"journey":5568,"Malvolio":5569,"torture":5570,"conference":5571,"picion":5572,"redeem":5573,"LOVELL":5574,"sceptre":5575,"Agamemnon":5576,"Posthum":5577,"PEMBROKE":5578,"Portia":5579,"ARTHUR":5580,"goddess":5581,"Posthumus":5582,"BL":5583,"Car":5584,"Dies":5585,"Hort":5586,"Ire":5587,"Isa":5588,"Kill":5589,"VINC":5590,"aul":5591,"bay":5592,"bru":5593,"bul":5594,"bishop":5595,"climb":5596,"hun":5597,"mart":5598,"mass":5599,"oce":5600,"pho":5601,"pace":5602,"rend":5603,"swo":5604,"ued":5605,"yard":5606,"arning":5607,"recei":5608,"rebels":5609,"bey":5610,"begu":5611,"belov":5612,"uts":5613,"detest":5614,"soil":5615,"advise":5616,"dote":5617,"unworthy":5618,"wills":5619,"geon":5620,"Tom":5621,"rul":5622,"compl":5623,"commod":5624,"hole":5625,"tem":5626,"quis":5627,"quire":5628,"quench":5629,"shoulder":5630,"perf":5631,"exchange":5632,"offices":5633,"plent":5634,"heav":5635,"heavi":5636,"abus":5637,"looking":5638,"scour":5639,"redress":5640,"ABANTI":5641,"BRABANTI":5642,"enterprise":5643,"whip":5644,"kindred":5645,"Lewis":5646,"prais":5647,"smiling":5648,"bank":5649,"joyful":5650,"youthful":5651,"Something":5652,"wishes":5653,"observe":5654,"palm":5655,"kisses":5656,"delia":5657,"cription":5658,"Cordelia":5659,"obedient":5660,"hairs":5661,"towns":5662,"mount":5663,"destroy":5664,"urio":5665,"nails":5666,"trees":5667,"message":5668,"resolv":5669,"siege":5670,"DOLABELLA":5671,"daily":5672,"depend":5673,"merchant":5674,"orchard":5675,"privilege":5676,"Slender":5677,"freedom":5678,"spleen":5679,"MURTHERER":5680,"Hortensi":5681,"Ireland":5682,"VINCENTIO":5683,"BRABANTIO":5684,"Balth":5685,"Down":5686,"Fly":5687,"Live":5688,"Neither":5689,"Open":5690,"Ophe":5691,"Right":5692,"Twere":5693,"WAL":5694,"coff":5695,"crest":5696,"east":5697,"ians":5698,"iled":5699,"ju":5700,"lent":5701,"nes":5702,"tut":5703,"wander":5704,"zing":5705,"error":5706,"inch":5707,"invisible":5708,"ank":5709,"enstern":5710,"aries":5711,"stu":5712,"recomp":5713,"learning":5714,"aspect":5715,"asham":5716,"fores":5717,"hip":5718,"del":5719,"likes":5720,"wept":5721,"week":5722,"terror":5723,"uring":5724,"amen":5725,"feat":5726,"peer":5727,"nel":5728,"shines":5729,"shoot":5730,"conceive":5731,"pris":5732,"wot":5733,"foreign":5734,"Noble":5735,"spurn":5736,"breeding":5737,"scru":5738,"Princes":5739,"URTH":5740,"warri":5741,"grat":5742,"sses":5743,"began":5744,"park":5745,"younger":5746,"pleasing":5747,"fares":5748,"running":5749,"yellow":5750,"duff":5751,"senators":5752,"higher":5753,"SERVANTS":5754,"weeps":5755,"lately":5756,"growing":5757,"delivered":5758,"corse":5759,"groom":5760,"granted":5761,"Macduff":5762,"torch":5763,"famous":5764,"troubled":5765,"continue":5766,"pinch":5767,"injury":5768,"points":5769,"weapon":5770,"GAOL":5771,"tremble":5772,"troops":5773,"OXFORD":5774,"invention":5775,"FOURTH":5776,"Else":5777,"afeard":5778,"Katherine":5779,"ATTENDANTS":5780,"VARRO":5781,"houses":5782,"Guildenstern":5783,"stubborn":5784,"remorse":5785,"Hortensio":5786,"Ophelia":5787,"),":5788,"BOTH":5789,"CT":5790,"Cha":5791,"EB":5792,"EBE":5793,"GARDIN":5794,"Mant":5795,"Rous":5796,"Ser":5797,"bore":5798,"cation":5799,"ec":5800,"equ":5801,"hatch":5802,"iance":5803,"ided":5804,"pas":5805,"scope":5806,"tu":5807,"zo":5808,"thin":5809,"ined":5810,"increase":5811,"ency":5812,"lling":5813,"rear":5814,"sex":5815,"forms":5816,"roo":5817,"robe":5818,"deaf":5819,"load":5820,"peev":5821,"shapes":5822,"sies":5823,"polit":5824,"theirs":5825,"spy":5826,"space":5827,"ache":5828,"ples":5829,"absolute":5830,"graves":5831,"PHEBE":5832,"wrink":5833,"ornament":5834,"newly":5835,"price":5836,"oppress":5837,"imble":5838,"chas":5839,"curses":5840,"braw":5841,"whiles":5842,"needful":5843,"Provo":5844,"breaking":5845,"grew":5846,"ancing":5847,"ancest":5848,"strive":5849,"strongly":5850,"commands":5851,"wail":5852,"fields":5853,"quarter":5854,"petty":5855,"knights":5856,"hostess":5857,"ashes":5858,"fleet":5859,"resolution":5860,"divor":5861,"Better":5862,"evils":5863,"Greeks":5864,"suspicion":5865,"corrupt":5866,"Return":5867,"accident":5868,"pilgri":5869,"giddy":5870,"ocean":5871,"GARDINER":5872,"peevish":5873,"Four":5874,"FENT":5875,"GUE":5876,"Imp":5877,"Item":5878,"Mow":5879,"Pand":5880,"PED":5881,"SLY":5882,"blast":5883,"don":5884,"gather":5885,"hated":5886,"hounds":5887,"ope":5888,"pence":5889,"rhe":5890,"ratch":5891,"slay":5892,"erous":5893,"inted":5894,"theme":5895,"ories":5896,"metal":5897,"stit":5898,"straw":5899,"reli":5900,"reco":5901,"beloved":5902,"forswear":5903,"hire":5904,"notice":5905,"dea":5906,"liking":5907,"lift":5908,"withdraw":5909,"cox":5910,"rase":5911,"rapier":5912,"unkind":5913,"ANMER":5914,"INOR":5915,"loso":5916,"fever":5917,"feign":5918,"shadows":5919,"butcher":5920,"ruction":5921,"shook":5922,"conspir":5923,"prus":5924,"tap":5925,"ELINOR":5926,"headed":5927,"telling":5928,"ably":5929,"serious":5930,"fice":5931,"flat":5932,"Read":5933,"shift":5934,"travell":5935,"purchase":5936,"clus":5937,"cloud":5938,"current":5939,"rightly":5940,"Thane":5941,"BEAU":5942,"DOCT":5943,"confusion":5944,"steep":5945,"praises":5946,"kna":5947,"happily":5948,"joys":5949,"thankful":5950,"strumpet":5951,"ULL":5952,"ULPH":5953,"delicate":5954,"interest":5955,"commons":5956,"commonwealth":5957,"value":5958,"waters":5959,"PANDULPH":5960,"drinking":5961,"CRANMER":5962,"mettle":5963,"SOLANIO":5964,"pitiful":5965,"Council":5966,"Monsieur":5967,"stoop":5968,"Worcester":5969,"easily":5970,"ambassad":5971,"burst":5972,"received":5973,"cherish":5974,"conclusion":5975,"conditions":5976,"preparation":5977,"OFFICERS":5978,"assurance":5979,"provide":5980,"Alexand":5981,"haply":5982,"directly":5983,"Cyprus":5984,"Saturn":5985,"philoso":5986,"Officers":5987,"Sicilia":5988,"rebellion":5989,"Launcelot":5990,"Tamora":5991,"FENTON":5992,"Mowbray":5993,"PEDANT":5994,"DOCTOR":5995,"15":5996,"Abo":5997,"Bor":5998,"Bless":5999,"Cer":6000,"Cour":6001,"Drum":6002,"East":6003,"Eros":6004,"Hy":6005,"Jes":6006,"Lep":6007,"Making":6008,"NATH":6009,"Ox":6010,"Paul":6011,"Swear":6012,"Ten":6013,"TRI":6014,"Winches":6015,"ail":6016,"dine":6017,"date":6018,"dame":6019,"kno":6020,"miles":6021,"vass":6022,"xen":6023,"zy":6024,"ero":6025,"anie":6026,"ative":6027,"strew":6028,"stale":6029,"heap":6030,"nod":6031,"hal":6032,"remove":6033,"sets":6034,"veins":6035,"owne":6036,"forty":6037,"noted":6038,"rope":6039,"alarum":6040,"advers":6041,"coll":6042,"ERICK":6043,"rack":6044,"unity":6045,"ANIEL":6046,"idus":6047,"manhood":6048,"shade":6049,"contri":6050,"contract":6051,"moving":6052,"mogen":6053,"compe":6054,"box":6055,"bosoms":6056,"EDERICK":6057,"agree":6058,"proph":6059,"disco":6060,"discharge":6061,"distance":6062,"perchance":6063,"experi":6064,"access":6065,"gnant":6066,"parting":6067,"flout":6068,"tribunes":6069,"mightst":6070,"pursue":6071,"Cade":6072,"keeping":6073,"compound":6074,"begun":6075,"falling":6076,"afternoon":6077,"clean":6078,"closet":6079,"carri":6080,"busy":6081,"husbands":6082,"breaks":6083,"strikes":6084,"Dead":6085,"phrase":6086,"mian":6087,"barbar":6088,"crying":6089,"FREDERICK":6090,"igence":6091,"bottle":6092,"Comes":6093,"cape":6094,"gaze":6095,"beholding":6096,"woeful":6097,"cowards":6098,"Hotspur":6099,"thirty":6100,"instruct":6101,"instruments":6102,"eldest":6103,"amongst":6104,"supply":6105,"throats":6106,"conclude":6107,"jewels":6108,"Berowne":6109,"physician":6110,"censure":6111,"refuse":6112,"eagle":6113,"hungry":6114,"Justice":6115,"beams":6116,"Turk":6117,"Archbishop":6118,"Apollo":6119,"recompense":6120,"Lepidus":6121,"NATHANIEL":6122,"Oxford":6123,"Winchester":6124,".\"":6125,"BRI":6126,"CROM":6127,"Dra":6128,"DICK":6129,"EUTEN":6130,"Imogen":6131,"Lor":6132,"Lend":6133,"Pur":6134,"Pho":6135,"Touch":6136,"boots":6137,"cine":6138,"cull":6139,"couch":6140,"crant":6141,"eded":6142,"gers":6143,"hue":6144,"icians":6145,"mation":6146,"pac":6147,"rouse":6148,"saint":6149,"south":6150,"wand":6151,"wart":6152,"waking":6153,"oracle":6154,"arise":6155,"ital":6156,"seize":6157,"seldom":6158,"beheld":6159,"chin":6160,"utch":6161,"Thers":6162,"roclus":6163,"devo":6164,"lier":6165,"limit":6166,"terrible":6167,"ently":6168,"coin":6169,"vert":6170,"tie":6171,"pearl":6172,"manif":6173,"rupt":6174,"ALICE":6175,"wore":6176,"ctors":6177,"bleness":6178,"apace":6179,"appla":6180,"apparent":6181,"likely":6182,"likewise":6183,"SILEN":6184,"process":6185,"disci":6186,"dispos":6187,"dissem":6188,"perpet":6189,"mbers":6190,"swee":6191,"Exeter":6192,"trench":6193,"fairies":6194,"ica":6195,"kingly":6196,"deaths":6197,"lesser":6198,"Orland":6199,"immediate":6200,"rescue":6201,"giance":6202,"ioli":6203,"lights":6204,"lightning":6205,"couldst":6206,"compar":6207,"curtain":6208,"brace":6209,"Rosen":6210,"LIEUTEN":6211,"Lead":6212,"matters":6213,"stopp":6214,"cutio":6215,"Proceed":6216,"sounded":6217,"Canst":6218,"Laur":6219,"royalty":6220,"acts":6221,"surfeit":6222,"survey":6223,"signior":6224,"Corioli":6225,"aboard":6226,"miracle":6227,"actions":6228,"swain":6229,"Mercutio":6230,"Titinius":6231,"grandsire":6232,"Pisanio":6233,"Comp":6234,"government":6235,"Giving":6236,"loyalty":6237,"turb":6238,"ceremony":6239,"inclin":6240,"treacherous":6241,"Glendower":6242,"opposite":6243,"intelligence":6244,"society":6245,"extremity":6246,"neglect":6247,"Jaqu":6248,"Patroclus":6249,"claims":6250,"General":6251,"behaviour":6252,"Isabel":6253,"Rousillon":6254,"CROMWELL":6255,"crantz":6256,"Thersites":6257,"SILENCE":6258,"Orlando":6259,"Rosencrantz":6260,"LIEUTENANT":6261,"Aar":6262,"Aene":6263,"Adam":6264,"Cur":6265,"CANT":6266,"Cons":6267,"Ever":6268,"FA":6269,"Gall":6270,"Greg":6271,"Happ":6272,"Mort":6273,"Pub":6274,"Patience":6275,"SN":6276,"Samp":6277,"Tra":6278,"UG":6279,"ah":6280,"ali":6281,"blot":6282,"frank":6283,"gru":6284,"gage":6285,"ired":6286,"liness":6287,"mish":6288,"nap":6289,"nimble":6290,"pull":6291,"rish":6292,"tus":6293,"wers":6294,"thread":6295,"org":6296,"itch":6297,"recon":6298,"rebel":6299,"vels":6300,"level":6301,"wil":6302,"beds":6303,"owes":6304,"Things":6305,"roof":6306,"liament":6307,"keen":6308,"aloud":6309,"etch":6310,"coats":6311,"ERBURY":6312,"ragged":6313,"urge":6314,"ENAS":6315,"locks":6316,"share":6317,"moral":6318,"tax":6319,"board":6320,"working":6321,"Excell":6322,"blish":6323,"COUR":6324,"distress":6325,"diseas":6326,"Bel":6327,"exile":6328,"ECENAS":6329,"swears":6330,"angers":6331,"MAECENAS":6332,"Answer":6333,"grac":6334,"lting":6335,"file":6336,"fearing":6337,"sweetly":6338,"Revenge":6339,"fires":6340,"shield":6341,"trifle":6342,"grass":6343,"rights":6344,"natures":6345,"beside":6346,"garland":6347,"kills":6348,"UNG":6349,"ville":6350,"stocks":6351,"henceforth":6352,"YOUNG":6353,"strangely":6354,"ANTIGON":6355,"deserving":6356,"vanish":6357,"except":6358,"suitor":6359,"Seek":6360,"burns":6361,"defy":6362,"signify":6363,"sovereignty":6364,"quarre":6365,"County":6366,"weakness":6367,"destruction":6368,"iety":6369,"fantast":6370,"doublet":6371,"ctive":6372,"satisfy":6373,"effects":6374,"axe":6375,"Davy":6376,"conceal":6377,"Gentleman":6378,"GUARD":6379,"Messala":6380,"Charmian":6381,"Silence":6382,"Helena":6383,"Servants":6384,"persuade":6385,"MONTANO":6386,"clamation":6387,"Hugh":6388,"steps":6389,"funeral":6390,"flame":6391,"Denmark":6392,"Osr":6393,"Octavius":6394,"grievous":6395,"imagination":6396,"copy":6397,"Break":6398,"front":6399,"deceit":6400,"trunk":6401,"rejoice":6402,"vulgar":6403,"allegiance":6404,"Mantua":6405,"Alexandria":6406,"aniel":6407,"discipl":6408,"Aaron":6409,"Aeneas":6410,"CANTERBURY":6411,"ANTIGONUS":6412,"BBO":6413,"CY":6414,"Cal":6415,"Dor":6416,"Gar":6417,"HY":6418,"ITH":6419,"ILO":6420,"Kiss":6421,"New":6422,"Pers":6423,"Pluck":6424,"Sm":6425,"Ye":6426,"bin":6427,"brown":6428,"bits":6429,"cook":6430,"cudge":6431,"ix":6432,"lark":6433,"mould":6434,"push":6435,"sbury":6436,"ym":6437,"enzo":6438,"endea":6439,"arums":6440,"today":6441,"meth":6442,"stout":6443,"haw":6444,"itable":6445,"repose":6446,"sey":6447,"chan":6448,"cep":6449,"cet":6450,"Thurio":6451,"liken":6452,"lions":6453,"altogether":6454,"riot":6455,"coast":6456,"dove":6457,"rais":6458,"aming":6459,"amends":6460,"lots":6461,"willow":6462,"sugg":6463,"lace":6464,"consequ":6465,"moves":6466,"mud":6467,"ELY":6468,"worms":6469,"works":6470,"knowest":6471,"blue":6472,"appoint":6473,"thereby":6474,"seeks":6475,"sirs":6476,"SIANUS":6477,"mended":6478,"split":6479,"spread":6480,"dismiss":6481,"offences":6482,"timely":6483,"plan":6484,"angle":6485,"answers":6486,"LADI":6487,"PHILO":6488,"flu":6489,"guide":6490,"sweetest":6491,"baw":6492,"AMUS":6493,"beget":6494,"talking":6495,"bidding":6496,"steward":6497,"GOBBO":6498,"temple":6499,"GHOST":6500,"capable":6501,"kissing":6502,"bargain":6503,"medit":6504,"exceeding":6505,"burnt":6506,"walks":6507,"humor":6508,"pays":6509,"PORTER":6510,"eaten":6511,"wheel":6512,"qualities":6513,"wonderful":6514,"severally":6515,"BASSIANUS":6516,"drunken":6517,"secrets":6518,"Athenian":6519,"proceeding":6520,"grandam":6521,"ugly":6522,"Servant":6523,"pierce":6524,"dukedom":6525,"imperial":6526,"lodging":6527,"Octavia":6528,"pronounce":6529,"according":6530,"Fellow":6531,"couple":6532,"comforts":6533,"scurvy":6534,"ALEXAS":6535,"clerk":6536,"yesterday":6537,"expedition":6538,"deputy":6539,"beguile":6540,"WALES":6541,"GAOLER":6542,"Lorenzo":6543,"LADIES":6544,"10":6545,"Ape":6546,"Black":6547,"Clo":6548,"CUR":6549,"Cates":6550,"DRA":6551,"Els":6552,"Five":6553,"Grem":6554,"Grum":6555,"Hap":6556,"Mur":6557,"Mic":6558,"NOX":6559,"Over":6560,"Son":6561,"Sup":6562,"Stoo":6563,"bere":6564,"bone":6565,"foun":6566,"threw":6567,"inore":6568,"instance":6569,"atic":6570,"andal":6571,"stal":6572,"hack":6573,"hael":6574,"reproach":6575,"betimes":6576,"asion":6577,"forsake":6578,"iring":6579,"utt":6580,"lim":6581,"withstanding":6582,"solic":6583,"river":6584,"adle":6585,"alliance":6586,"amorous":6587,"verty":6588,"lodge":6589,"tified":6590,"ORGE":6591,"peep":6592,"ONIUS":6593,"manage":6594,"mantus":6595,"lame":6596,"shout":6597,"STER":6598,"converse":6599,"constan":6600,"upright":6601,"poster":6602,"poverty":6603,"moan":6604,"hose":6605,"goods":6606,"indign":6607,"blance":6608,"apes":6609,"forehead":6610,"prob":6611,"prodig":6612,"discord":6613,"diet":6614,"exer":6615,"afoot":6616,"accent":6617,"serving":6618,"kingdoms":6619,"scal":6620,"scratch":6621,"Whereof":6622,"council":6623,"called":6624,"madman":6625,"Fran":6626,"bald":6627,"PERCY":6628,"shill":6629,"preserve":6630,"GEORGE":6631,"impress":6632,"immortal":6633,"settled":6634,"keeper":6635,"cursions":6636,"bragg":6637,"parce":6638,"besee":6639,"reasonable":6640,"youngest":6641,"carries":6642,"vaunt":6643,"senseless":6644,"Prosper":6645,"DERBY":6646,"Deliver":6647,"penit":6648,"Sub":6649,"careful":6650,"breathing":6651,"verses":6652,"Shrew":6653,"create":6654,"Constable":6655,"sisters":6656,"sadness":6657,"LENNOX":6658,"touches":6659,"dowry":6660,"writes":6661,"yielded":6662,"lads":6663,"pipe":6664,"Command":6665,"wooing":6666,"pitied":6667,"sufferance":6668,"hideous":6669,"bonds":6670,"heirs":6671,"direction":6672,"nail":6673,"succeed":6674,"resolve":6675,"churl":6676,"Beseech":6677,"murderer":6678,"elements":6679,"schol":6680,"Cornwall":6681,"mutiny":6682,"conclu":6683,"instantly":6684,"explo":6685,"greeting":6686,"necessary":6687,"expectation":6688,"injuries":6689,"strokes":6690,"roaring":6691,"wager":6692,"varlet":6693,"ministers":6694,"Tribunes":6695,"determine":6696,"treachery":6697,"ligence":6698,"perjur":6699,"beggars":6700,"renowned":6701,"blos":6702,"character":6703,"convenient":6704,"Above":6705,"likeness":6706,"Apemantus":6707,"CURTIS":6708,"Catesby":6709,"Elsinore":6710,"Gremio":6711,"Grumio":6712,"Michael":6713,"CU":6714,"CIN":6715,"Fetch":6716,"Gri":6717,"House":6718,"Im":6719,"Jess":6720,"Jud":6721,"LL":6722,"Murther":6723,"Ned":6724,"Nym":6725,"Saw":6726,"Zounds":6727,"cence":6728,"dat":6729,"fur":6730,"fty":6731,"hare":6732,"hound":6733,"lower":6734,"opp":6735,"rar":6736,"ssi":6737,"sanc":6738,"yr":6739,"insol":6740,"anley":6741,"wipe":6742,"belike":6743,"chery":6744,"notes":6745,"Thine":6746,"rial":6747,"adul":6748,"domin":6749,"ANTH":6750,"amend":6751,"amond":6752,"manly":6753,"shal":6754,"THO":6755,"moder":6756,"ALA":6757,"ALD":6758,"Enough":6759,"quaint":6760,"sheet":6761,"mpets":6762,"proves":6763,"cially":6764,"diest":6765,"divers":6766,"Ant":6767,"sces":6768,"hasty":6769,"bait":6770,"trim":6771,"Cawd":6772,"Almost":6773,"whipt":6774,"Joan":6775,"tales":6776,"sleeve":6777,"cloth":6778,"carriage":6779,"horrible":6780,"throng":6781,"doub":6782,"Stanley":6783,"duce":6784,"sensible":6785,"impedi":6786,"beaut":6787,"MESSALA":6788,"promised":6789,"riches":6790,"sitting":6791,"summon":6792,"Methought":6793,"doubtful":6794,"writing":6795,"fourteen":6796,"requite":6797,"gallows":6798,"Perchance":6799,"suppose":6800,"speeches":6801,"safely":6802,"acknow":6803,"Stands":6804,"bowels":6805,"HERALD":6806,"flattery":6807,"poral":6808,"conqueror":6809,"testi":6810,"infant":6811,"innocence":6812,"mourning":6813,"snatch":6814,"Accord":6815,"Steph":6816,"fixed":6817,"Volsces":6818,"disguised":6819,"nicious":6820,"merrily":6821,"OCTAVIUS":6822,"piteous":6823,"divide":6824,"Kneel":6825,"Grati":6826,"babes":6827,"VENICE":6828,"narrow":6829,"sinews":6830,"scruple":6831,"divorce":6832,"Laurence":6833,"Publius":6834,"constancy":6835,"Jessica":6836,"Cawdor":6837,"'!":6838,"16":6839,"Ari":6840,"Amb":6841,"BAL":6842,"Bassi":6843,"Barn":6844,"Besh":6845,"Bishop":6846,"CIS":6847,"Col":6848,"Die":6849,"Hie":6850,"Lies":6851,"NA":6852,"Oli":6853,"PRI":6854,"Twill":6855,"Toward":6856,"VY":6857,"YS":6858,"awe":6859,"bac":6860,"buke":6861,"ebb":6862,"gorge":6863,"loo":6864,"lus":6865,"nup":6866,"path":6867,"rated":6868,"rites":6869,"san":6870,"zes":6871,"inct":6872,"inate":6873,"infer":6874,"infection":6875,"ony":6876,"methought":6877,"hedge":6878,"itors":6879,"seed":6880,"seiz":6881,"myster":6882,"notwithstanding":6883,"devis":6884,"livery":6885,"wet":6886,"keys":6887,"aloft":6888,"alack":6889,"sober":6890,"etell":6891,"history":6892,"rag":6893,"ram":6894,"unjust":6895,"unkindness":6896,"ANCIS":6897,"amour":6898,"ests":6899,"butter":6900,"ending":6901,"contemp":6902,"constru":6903,"gossi":6904,"holi":6905,"teth":6906,"text":6907,"indiffer":6908,"boar":6909,"canker":6910,"asters":6911,"herein":6912,"proclamation":6913,"spark":6914,"Ask":6915,"dismal":6916,"Beg":6917,"division":6918,"afar":6919,"breeds":6920,"MAS":6921,"marvell":6922,"tran":6923,"unders":6924,"DULL":6925,"counsell":6926,"evermore":6927,"umn":6928,"plac":6929,"preced":6930,"shipp":6931,"nobleman":6932,"jot":6933,"resign":6934,"dearer":6935,"charms":6936,"Ross":6937,"confident":6938,"players":6939,"surety":6940,"backs":6941,"backward":6942,"crowned":6943,"subdu":6944,"subscri":6945,"atient":6946,"stole":6947,"worthiness":6948,"swearing":6949,"Arm":6950,"careless":6951,"promises":6952,"craves":6953,"deserts":6954,"DAVY":6955,"sights":6956,"FRANCIS":6957,"salute":6958,"require":6959,"Hadst":6960,"suppos":6961,"Trumpets":6962,"stirring":6963,"beastly":6964,"troubles":6965,"titles":6966,"Talk":6967,"middle":6968,"Venus":6969,"marching":6970,"dainty":6971,"incu":6972,"cruelty":6973,"Walter":6974,"wenches":6975,"changes":6976,"grieves":6977,"merely":6978,"corner":6979,"employment":6980,"amaze":6981,"feeble":6982,"miseries":6983,"virginity":6984,"punishment":6985,"Alexander":6986,"Philip":6987,"prosperous":6988,"prophet":6989,"estimation":6990,"voyage":6991,"concerns":6992,"OCTAVIA":6993,"Duncan":6994,"Witness":6995,"SANDYS":6996,"chastity":6997,"trespass":6998,"candle":6999,"sacrifice":7000,"correction":7001,"peasant":7002,"Provost":7003,"religious":7004,"Jesu":7005,"prophesy":7006,"perpetual":7007,"Cloten":7008,"probation":7009,"Shrewsbury":7010,"CINNA":7011,"opport":7012,"THOMAS":7013,"According":7014,"Gratiano":7015,"Bassianus":7016,"Beshrew":7017,"bachel":7018,"nuptial":7019,"AIN":7020,"AED":7021,"Cin":7022,"Cut":7023,"Grey":7024,"MUS":7025,"Nep":7026,"Phe":7027,"PCO":7028,"POLY":7029,"PANTH":7030,"Sur":7031,"SMAN":7032,"TRIB":7033,"Takes":7034,"Use":7035,"Uly":7036,"VII":7037,"ciful":7038,"duties":7039,"fts":7040,"gour":7041,"gap":7042,"hoo":7043,"ky":7044,"mity":7045,"nigh":7046,"oman":7047,"pper":7048,"pang":7049,"sill":7050,"tard":7051,"vive":7052,"ylock":7053,"inte":7054,"issu":7055,"escape":7056,"hey":7057,"heal":7058,"reap":7059,"separ":7060,"beats":7061,"beware":7062,"chronic":7063,"ays":7064,"Throw":7065,"roth":7066,"rogues":7067,"deck":7068,"depos":7069,"devour":7070,"lipp":7071,"terr":7072,"alty":7073,"alms":7074,"eder":7075,"enton":7076,"adies":7077,"etext":7078,"ERIA":7079,"rages":7080,"ravish":7081,"uni":7082,"ENETTA":7083,"losing":7084,"loathe":7085,"tiers":7086,"tired":7087,"ARIO":7088,"ORUS":7089,"estor":7090,"conbridge":7091,"muse":7092,"ELAUS":7093,"cts":7094,"ular":7095,"aph":7096,"dispose":7097,"Belike":7098,"muster":7099,"vio":7100,"vied":7101,"pernicious":7102,"handsome":7103,"isement":7104,"afford":7105,"nightly":7106,"arson":7107,"merle":7108,"strate":7109,"mistook":7110,"PHREY":7111,"Proud":7112,"retreat":7113,"everlasting":7114,"omit":7115,"SCARUS":7116,"Reign":7117,"umes":7118,"presume":7119,"lived":7120,"tried":7121,"trifl":7122,"GEON":7123,"household":7124,"giant":7125,"grate":7126,"restor":7127,"restore":7128,"compli":7129,"compare":7130,"tents":7131,"charged":7132,"hourly":7133,"harbour":7134,"mothers":7135,"lays":7136,"Uncle":7137,"Moon":7138,"burial":7139,"greed":7140,"Pope":7141,"MENELAUS":7142,"caps":7143,"soundly":7144,"obtain":7145,"sickly":7146,"Shylock":7147,"meddle":7148,"vanity":7149,"chosen":7150,"leading":7151,"silk":7152,"aws":7153,"bounds":7154,"Meet":7155,"drinks":7156,"VALERIA":7157,"saved":7158,"BUSHY":7159,"skull":7160,"Trust":7161,"blessings":7162,"Mont":7163,"pestil":7164,"scorns":7165,"bondage":7166,"bastian":7167,"execute":7168,"executed":7169,"treasons":7170,"extreme":7171,"SENATORS":7172,"mannerly":7173,"Albany":7174,"election":7175,"departure":7176,"JAQUENETTA":7177,"legions":7178,"Rosaline":7179,"waiting":7180,"Sebastian":7181,"onae":7182,"Strikes":7183,"intents":7184,"semblance":7185,"complete":7186,"PHILARIO":7187,"Aumerle":7188,"MONTAGUE":7189,"mountains":7190,"shoe":7191,"shoes":7192,"SIMPCO":7193,"matis":7194,"guiltless":7195,"Lieutenant":7196,"guests":7197,"borrowed":7198,"balls":7199,"errand":7200,"puiss":7201,"filthy":7202,"sufficient":7203,"million":7204,"AEGEON":7205,"AUSTRI":7206,"Florence":7207,"coronation":7208,"gilded":7209,"HUMPHREY":7210,"Quickly":7211,"liquor":7212,"ancestors":7213,"ULLUS":7214,"knocks":7215,"vassal":7216,"barbarous":7217,"Dramatis":7218,"diseases":7219,"Garter":7220,"Personae":7221,"Murder":7222,"scholar":7223,"Olivia":7224,"sanct":7225,"PANTHINO":7226,"TRIBUN":7227,"Ulysses":7228,"integr":7229,"SIMPCOX":7230,"AUSTRIA":7231,"12":7232,"Bri":7233,"BIN":7234,"Bull":7235,"BESS":7236,"Crom":7237,"DONE":7238,"Fle":7239,"Ful":7240,"Har":7241,"HIP":7242,"Moun":7243,"Maine":7244,"Ner":7245,"NCAN":7246,"Nestor":7247,"OVER":7248,"Rey":7249,"Tear":7250,"Twixt":7251,"Urs":7252,"VE":7253,"Virt":7254,"Yield":7255,"ben":7256,"coo":7257,"dower":7258,"drows":7259,"diff":7260,"dancing":7261,"fant":7262,"fray":7263,"ime":7264,"jump":7265,"lorn":7266,"pine":7267,"treat":7268,"vine":7269,"vast":7270,"wre":7271,"yon":7272,"zon":7273,"enc":7274,"enmity":7275,"arro":7276,"lla":7277,"esp":7278,"ester":7279,"stum":7280,"stake":7281,"stuck":7282,"states":7283,"nobler":7284,"hallow":7285,"removed":7286,"ingrat":7287,"leas":7288,"beit":7289,"became":7290,"asse":7291,"forman":7292,"hir":7293,"utmost":7294,"ross":7295,"robes":7296,"rocks":7297,"decre":7298,"lihood":7299,"ourself":7300,"edu":7301,"soe":7302,"entrance":7303,"etc":7304,"raging":7305,"unch":7306,"INTUS":7307,"loqu":7308,"Thee":7309,"mantle":7310,"mankind":7311,"maker":7312,"ckle":7313,"neat":7314,"sustain":7315,"rue":7316,"conver":7317,"print":7318,"pox":7319,"holp":7320,"outrage":7321,"shel":7322,"sheets":7323,"ROOP":7324,"ROBIN":7325,"sails":7326,"cannon":7327,"Fore":7328,"astard":7329,"inking":7330,"wol":7331,"prover":7332,"prologue":7333,"distemper":7334,"disturb":7335,"Beau":7336,"dious":7337,"diamond":7338,"pledge":7339,"expense":7340,"elbow":7341,"affright":7342,"pless":7343,"CAMPE":7344,"desc":7345,"descend":7346,"mont":7347,"Ang":7348,"hearse":7349,"scandal":7350,"mischance":7351,"lts":7352,"DUNCAN":7353,"counted":7354,"flint":7355,"courses":7356,"SCROOP":7357,"ABBESS":7358,"prays":7359,"QUINTUS":7360,"longing":7361,"imit":7362,"purge":7363,"setting":7364,"resem":7365,"ATE":7366,"iot":7367,"clown":7368,"champ":7369,"MARTIUS":7370,"IANS":7371,"garter":7372,"airs":7373,"STAFFORD":7374,"harvest":7375,"confeder":7376,"reply":7377,"minded":7378,"evening":7379,"Prove":7380,"windows":7381,"grees":7382,"fighting":7383,"Wouldst":7384,"nearer":7385,"hangman":7386,"capti":7387,"penance":7388,"appeal":7389,"wald":7390,"deserved":7391,"Conf":7392,"countryman":7393,"Mayor":7394,"attendant":7395,"certainly":7396,"awn":7397,"droop":7398,"ladder":7399,"Cominius":7400,"relish":7401,"thrift":7402,"speedy":7403,"creation":7404,"stool":7405,"destiny":7406,"imag":7407,"colm":7408,"drift":7409,"Messenger":7410,"starve":7411,"eleven":7412,"Greece":7413,"Doug":7414,"blushing":7415,"delights":7416,"Six":7417,"demands":7418,"persuaded":7419,"medicine":7420,"Milford":7421,"ceremon":7422,"articles":7423,"prevented":7424,"Malcolm":7425,"arriv":7426,"perjury":7427,"Present":7428,"smoke":7429,"Write":7430,"mongst":7431,"style":7432,"control":7433,"lungs":7434,"multitude":7435,"Knocking":7436,"franch":7437,"infected":7438,"tutor":7439,"Chamber":7440,"coxcomb":7441,"Phoe":7442,"Excellent":7443,"consequence":7444,"fountain":7445,"prodigal":7446,"Judas":7447,"precedent":7448,"Cinna":7449,"Neptune":7450,"POLYTA":7451,"integrity":7452,"HIPPOLYTA":7453,"OVERDONE":7454,"CAMPEIUS":7455,",-":7456,"Apri":7457,"Bed":7458,"Cesar":7459,"Dr":7460,"Dar":7461,"DREY":7462,"Duch":7463,"Fenton":7464,"Ill":7465,"JU":7466,"Light":7467,"MILL":7468,"Near":7469,"Pre":7470,"RUG":7471,"Sn":7472,"Tush":7473,"Vin":7474,"Wed":7475,"YRE":7476,"cab":7477,"crows":7478,"eous":7479,"eats":7480,"egg":7481,"flock":7482,"gment":7483,"ician":7484,"lur":7485,"lam":7486,"mire":7487,"nut":7488,"os":7489,"plight":7490,"rene":7491,"tun":7492,"wakes":7493,"anch":7494,"anim":7495,"issa":7496,"encon":7497,"encount":7498,"atta":7499,"toe":7500,"sters":7501,"noblest":7502,"ofty":7503,"haught":7504,"habits":7505,"rebuke":7506,"leather":7507,"chose":7508,"forlorn":7509,"road":7510,"weed":7511,"kets":7512,"rival":7513,"dole":7514,"ample":7515,"ENBURY":7516,"tile":7517,"peach":7518,"shames":7519,"sullen":7520,"butt":7521,"rub":7522,"ruffi":7523,"THYRE":7524,"constable":7525,"princess":7526,"mocks":7527,"tages":7528,"quake":7529,"anting":7530,"ROMAN":7531,"Except":7532,"bliss":7533,"mph":7534,"specta":7535,"procure":7536,"performan":7537,"extend":7538,"offers":7539,"MAMILL":7540,"description":7541,"abund":7542,"gentleness":7543,"Any":7544,"Angi":7545,"grain":7546,"partner":7547,"Whereto":7548,"Sirs":7549,"courteous":7550,"Ready":7551,"Receive":7552,"ABHOR":7553,"pregnant":7554,"putting":7555,"BRAK":7556,"chall":7557,"Alarums":7558,"Alencon":7559,"charitable":7560,"whipp":7561,"reads":7562,"Robin":7563,"garment":7564,"Hermi":7565,"harmony":7566,"fellowship":7567,"horrid":7568,"tempted":7569,"thren":7570,"minate":7571,"bras":7572,"brass":7573,"VERNON":7574,"berg":7575,"thousands":7576,"CASSAND":7577,"impatience":7578,"SONG":7579,"Sometime":7580,"singing":7581,"strict":7582,"False":7583,"Peto":7584,"persons":7585,"creant":7586,"Content":7587,"wanting":7588,"battles":7589,"vanqu":7590,"trusty":7591,"sadly":7592,"Frenchmen":7593,"dreamt":7594,"slumber":7595,"relent":7596,"AUDREY":7597,"profane":7598,"confession":7599,"velvet":7600,"despise":7601,"Juno":7602,"counsels":7603,"whel":7604,"embra":7605,"joints":7606,"respects":7607,"famish":7608,"messengers":7609,"porter":7610,"understanding":7611,"Betwixt":7612,"Verg":7613,"neighbours":7614,"continent":7615,"grandfather":7616,"frowns":7617,"changing":7618,"violence":7619,"grossly":7620,"helm":7621,"persuasion":7622,"witchcraft":7623,"symp":7624,"digest":7625,"honorable":7626,"bending":7627,"Vols":7628,"affected":7629,"bully":7630,"ballad":7631,"squire":7632,"article":7633,"Oswald":7634,"swelling":7635,"patri":7636,"aloof":7637,"divided":7638,"belongs":7639,"practise":7640,"painting":7641,"stabb":7642,"Lucilius":7643,"linen":7644,"achieve":7645,"Meantime":7646,"hunger":7647,"politic":7648,"rheum":7649,"devotion":7650,"exercise":7651,"bachelor":7652,"Phebe":7653,"Cromwell":7654,"Fulvia":7655,"Nerissa":7656,"ingratitude":7657,"imagine":7658,"April":7659,"Cesario":7660,"Duchess":7661,"RUGBY":7662,"Vincentio":7663,"THYREUS":7664,"MAMILLIUS":7665,"Angiers":7666,"ABHORSON":7667,"BRAKENBURY":7668,"Hermione":7669,"CASSANDRA":7670,"BAND":7671,"Che":7672,"DGE":7673,"End":7674,"Fif":7675,"Free":7676,"Gain":7677,"GRE":7678,"Gads":7679,"ILE":7680,"Last":7681,"Ladies":7682,"Masters":7683,"Part":7684,"Prep":7685,"Rut":7686,"Syra":7687,"Vouch":7688,"ZAN":7689,"block":7690,"dangers":7691,"emul":7692,"ffl":7693,"gilt":7694,"hook":7695,"hates":7696,"ives":7697,"jou":7698,"latter":7699,"lute":7700,"lofty":7701,"nun":7702,"nourish":7703,"pple":7704,"patter":7705,"pounds":7706,"tum":7707,"vap":7708,"wring":7709,"inth":7710,"infirm":7711,"intended":7712,"anks":7713,"enrich":7714,"tock":7715,"tomorrow":7716,"heel":7717,"heinous":7718,"remov":7719,"lewd":7720,"bethink":7721,"assay":7722,"utation":7723,"Thrice":7724,"Thurs":7725,"dedi":7726,"defect":7727,"lian":7728,"lily":7729,"lids":7730,"web":7731,"ribs":7732,"Whence":7733,"coal":7734,"covet":7735,"allay":7736,"rails":7737,"unseen":7738,"aints":7739,"female":7740,"sham":7741,"maj":7742,"magn":7743,"herd":7744,"sums":7745,"ruth":7746,"shores":7747,"ills":7748,"contend":7749,"consum":7750,"sive":7751,"poke":7752,"taunt":7753,"homage":7754,"indirect":7755,"worser":7756,"likelihood":7757,"aggers":7758,"inks":7759,"SIWARD":7760,"wered":7761,"dissol":7762,"Beyond":7763,"ILOR":7764,"acles":7765,"angling":7766,"answered":7767,"brethren":7768,"CAPH":7769,"marble":7770,"descent":7771,"Anjou":7772,"Dover":7773,"merciful":7774,"mistrust":7775,"tainted":7776,"oughs":7777,"Regent":7778,"priz":7779,"prime":7780,"baby":7781,"tendom":7782,"pressed":7783,"purg":7784,"reserv":7785,"ADAM":7786,"restrain":7787,"undergo":7788,"LUCY":7789,"LUCILIUS":7790,"parents":7791,"grim":7792,"welkin":7793,"bands":7794,"isons":7795,"forthwith":7796,"killing":7797,"pleases":7798,"ranks":7799,"TEZAN":7800,"hush":7801,"lacks":7802,"tempor":7803,"substit":7804,"stops":7805,"wearing":7806,"Project":7807,"worthless":7808,"Lives":7809,"waves":7810,"growth":7811,"humility":7812,"THISBY":7813,"GENTLEMEN":7814,"consort":7815,"leader":7816,"suitors":7817,"silken":7818,"plainly":7819,"crimes":7820,"emperor":7821,"surpris":7822,"rising":7823,"yielding":7824,"profound":7825,"skir":7826,"Benvolio":7827,"Monmouth":7828,"mounted":7829,"Worth":7830,"nymph":7831,"jests":7832,"flattering":7833,"torches":7834,"cheerful":7835,"ctious":7836,"softly":7837,"smallest":7838,"baseness":7839,"Tyb":7840,"Albans":7841,"continu":7842,"revenue":7843,"crush":7844,"succession":7845,"HUGH":7846,"visitation":7847,"rascals":7848,"bounteous":7849,"dwells":7850,"anointed":7851,"Adv":7852,"hunting":7853,"wonders":7854,"conjur":7855,"fifteen":7856,"transform":7857,"Half":7858,"hatred":7859,"profession":7860,"Philipp":7861,"function":7862,"tyrann":7863,"ligion":7864,"buds":7865,"pronoun":7866,"apprehend":7867,"bootless":7868,"Brave":7869,"cliff":7870,"Antipho":7871,"amazed":7872,"Appear":7873,"invite":7874,"branch":7875,"statue":7876,"DORSET":7877,"Diana":7878,"Honour":7879,"Trincu":7880,"Lucio":7881,"ordinary":7882,"SERVINGMAN":7883,"swoon":7884,"commodity":7885,"scourge":7886,"Pandarus":7887,"ambassador":7888,"Paulina":7889,"BRIDGE":7890,"Happy":7891,"wilful":7892,"COURTEZAN":7893,"quarrels":7894,"Haply":7895,"concluded":7896,"exploit":7897,"blossom":7898,"adulter":7899,"Stephano":7900,"Ariel":7901,"mystery":7902,"AEDILE":7903,"silly":7904,"univers":7905,"TRIBUNES":7906,"drowsy":7907,"BANDIT":7908,"Fifth":7909,"GREEN":7910,"Prepare":7911,"Rutland":7912,"Thursday":7913,"CAPHIS":7914,"Trinculo":7915,"Aud":7916,"Awake":7917,"Best":7918,"Bard":7919,"Cost":7920,"Citizens":7921,"Der":7922,"Direct":7923,"Emb":7924,"IEN":7925,"Ita":7926,"MINIUS":7927,"NY":7928,"NEL":7929,"Name":7930,"NUR":7931,"OGUE":7932,"Pal":7933,"Pity":7934,"PSA":7935,"SW":7936,"Teach":7937,"Vi":7938,"bate":7939,"bath":7940,"bune":7941,"bide":7942,"dried":7943,"dash":7944,"eun":7945,"gli":7946,"gloves":7947,"lings":7948,"mouse":7949,"nuncle":7950,"ox":7951,"pend":7952,"sall":7953,"slo":7954,"slau":7955,"scold":7956,"tam":7957,"uary":7958,"wan":7959,"throws":7960,"ert":7961,"inde":7962,"inhabit":7963,"anno":7964,"thest":7965,"ension":7966,"envoy":7967,"atus":7968,"arrant":7969,"espe":7970,"toad":7971,"meed":7972,"nobody":7973,"hale":7974,"itive":7975,"revel":7976,"vein":7977,"leek":7978,"chi":7979,"asar":7980,"fords":7981,"aye":7982,"uture":7983,"Thunder":7984,"rod":7985,"defeat":7986,"degrees":7987,"lik":7988,"lime":7989,"lixen":7990,"wea":7991,"terbury":7992,"added":7993,"rags":7994,"unction":7995,"vernor":7996,"tio":7997,"feature":7998,"pel":7999,"idly":8000,"heriff":8001,"fawn":8002,"geons":8003,"sula":8004,"Together":8005,"Topas":8006,"shop":8007,"ardine":8008,"conta":8009,"upbra":8010,"motive":8011,"moiety":8012,"composition":8013,"tavern":8014,"OLOGUE":8015,"quant":8016,"quity":8017,"CHORUS":8018,"outlive":8019,"ulous":8020,"thereto":8021,"seeking":8022,"LEIUS":8023,"truer":8024,"trude":8025,"Wear":8026,"spell":8027,"discontent":8028,"distin":8029,"dim":8030,"vial":8031,"perio":8032,"plex":8033,"excus":8034,"exact":8035,"ILD":8036,"sweep":8037,"howl":8038,"foil":8039,"MATIS":8040,"PROCU":8041,"Oft":8042,"desol":8043,"whereon":8044,"Doll":8045,"stray":8046,"fiance":8047,"fluous":8048,"courts":8049,"tsy":8050,"holding":8051,"warning":8052,"bail":8053,"bearer":8054,"purple":8055,"pursuit":8056,"ATSW":8057,"eff":8058,"clay":8059,"curity":8060,"enters":8061,"whir":8062,"everywhere":8063,"talents":8064,"commends":8065,"harms":8066,"REW":8067,"confine":8068,"confidence":8069,"playing":8070,"steed":8071,"sands":8072,"horror":8073,"overthrow":8074,"engthen":8075,"minion":8076,"minster":8077,"minable":8078,"minutes":8079,"banks":8080,"falsely":8081,"vault":8082,"built":8083,"PROLOGUE":8084,"impatient":8085,"MOPSA":8086,"Polixen":8087,"worthiest":8088,"proved":8089,"phes":8090,"obsequ":8091,"isting":8092,"passes":8093,"Canterbury":8094,"crept":8095,"prompt":8096,"custo":8097,"PERSONAE":8098,"attends":8099,"GENTLEWO":8100,"CORNEL":8101,"forced":8102,"JOY":8103,"choke":8104,"BOATSW":8105,"leaden":8106,"empire":8107,"walking":8108,"ckets":8109,"beating":8110,"deeply":8111,"reports":8112,"supposed":8113,"mocking":8114,"whet":8115,"created":8116,"wasted":8117,"cowardice":8118,"swagger":8119,"passions":8120,"stirs":8121,"feasts":8122,"flatterer":8123,"excellence":8124,"Dispatch":8125,"succour":8126,"beards":8127,"occup":8128,"resolute":8129,"Pomfret":8130,"patiently":8131,"assault":8132,"Christendom":8133,"judgement":8134,"dram":8135,"proceedings":8136,"Heavens":8137,"wedded":8138,"support":8139,"spurs":8140,"Julius":8141,"occasions":8142,"Doubt":8143,"mutual":8144,"storms":8145,"scarcely":8146,"dealing":8147,"cradle":8148,"beneath":8149,"FLAMINIUS":8150,"MONTJOY":8151,"Westminster":8152,"apply":8153,"Draws":8154,"abused":8155,"trembling":8156,"fruitful":8157,"cuckoo":8158,"loathsome":8159,"bridegroom":8160,"frost":8161,"strangers":8162,"thorns":8163,"pillow":8164,"suffice":8165,"deceived":8166,"affliction":8167,"branches":8168,"Kneels":8169,"debate":8170,"debts":8171,"frantic":8172,"practis":8173,"Chief":8174,"Women":8175,"latest":8176,"spotted":8177,"Ursula":8178,"assured":8179,"distracted":8180,"imprisonment":8181,"ACT_4":8182,"bulk":8183,"Balthasar":8184,"coffin":8185,"warriors":8186,"brawl":8187,"pilgrimage":8188,"Saturnine":8189,"159":8190,"compell":8191,"experience":8192,"manifest":8193,"sweeter":8194,"Jaques":8195,"reconci":8196,"Belmont":8197,"DRAMATIS":8198,"bereft":8199,"solicit":8200,"acknowledge":8201,"160":8202,"Barnardine":8203,"marvellous":8204,"transport":8205,"opportunity":8206,"Virtue":8207,"wolves":8208,"Phoebus":8209,"attach":8210,"performance":8211,"Gainst":8212,"Philippi":8213,"Antipholus":8214,"Italian":8215,"NURSE":8216,"eunuch":8217,"slaught":8218,"PROCULEIUS":8219,"Polixenes":8220,"GENTLEWOMAN":8221,"CORNELIUS":8222,"BOATSWAIN":8223,"'\"":8224,"',":8225,"13":8226,"Ci":8227,"Cold":8228,"Dum":8229,"Er":8230,"Eno":8231,"FL":8232,"Fit":8233,"Hol":8234,"Kind":8235,"Knight":8236,"MARD":8237,"Nell":8238,"Pl":8239,"Pu":8240,"PYR":8241,"Ra":8242,"Rou":8243,"Rug":8244,"SP":8245,"Sister":8246,"Tar":8247,"TON":8248,"Wood":8249,"Yonder":8250,"aby":8251,"apo":8252,"avar":8253,"batter":8254,"bows":8255,"dre":8256,"dung":8257,"een":8258,"eloqu":8259,"fted":8260,"furious":8261,"gun":8262,"gam":8263,"glo":8264,"gul":8265,"guts":8266,"ido":8267,"jer":8268,"lance":8269,"mers":8270,"oil":8271,"pere":8272,"sow":8273,"trow":8274,"torn":8275,"uc":8276,"zed":8277,"thumb":8278,"oub":8279,"ino":8280,"ancy":8281,"thed":8282,"ists":8283,"enius":8284,"atage":8285,"andon":8286,"toys":8287,"strings":8288,"nobleness":8289,"rein":8290,"rees":8291,"reproof":8292,"revels":8293,"religion":8294,"sepul":8295,"leaf":8296,"beguil":8297,"chop":8298,"chim":8299,"asci":8300,"asking":8301,"asunder":8302,"celes":8303,"ceeded":8304,"hides":8305,"hions":8306,"notorious":8307,"rode":8308,"deth":8309,"lid":8310,"Andrew":8311,"ridi":8312,"ridd":8313,"entire":8314,"adi":8315,"address":8316,"cod":8317,"rab":8318,"rabble":8319,"untimely":8320,"urch":8321,"tip":8322,"tiger":8323,"feeding":8324,"idleness":8325,"neath":8326,"sugar":8327,"convers":8328,"prin":8329,"prate":8330,"pole":8331,"ousins":8332,"ELE":8333,"boon":8334,"qui":8335,"canop":8336,"TIMER":8337,"Forgive":8338,"Fortin":8339,"epi":8340,"mption":8341,"produce":8342,"Got":8343,"dislike":8344,"distill":8345,"cibi":8346,"Becomes":8347,"perse":8348,"excess":8349,"excursions":8350,"offender":8351,"UTE":8352,"accompl":8353,"glow":8354,"merits":8355,"stratage":8356,"scap":8357,"scure":8358,"scars":8359,"scroll":8360,"Orsin":8361,"Remain":8362,"worldly":8363,"landed":8364,"longs":8365,"shirt":8366,"preserv":8367,"trag":8368,"mightily":8369,"AMIEN":8370,"gib":8371,"cury":8372,"curtsy":8373,"rightful":8374,"Alcibi":8375,"Norway":8376,"besie":8377,"readiness":8378,"bringing":8379,"confin":8380,"assion":8381,"presented":8382,"wronged":8383,"smith":8384,"berry":8385,"homely":8386,"happier":8387,"bantio":8388,"buzz":8389,"shameful":8390,"breakfast":8391,"worthier":8392,"highly":8393,"highest":8394,"ventur":8395,"ATHEN":8396,"sung":8397,"obliv":8398,"commandment":8399,"Rivers":8400,"flying":8401,"grove":8402,"Lodo":8403,"richer":8404,"sinane":8405,"fertile":8406,"vantages":8407,"valued":8408,"Leonatus":8409,"awak":8410,"touching":8411,"rises":8412,"dropp":8413,"croo":8414,"reported":8415,"boldly":8416,"wiser":8417,"causes":8418,"gazing":8419,"licity":8420,"culous":8421,"losses":8422,"cowardly":8423,"gladly":8424,"laughing":8425,"scarf":8426,"Mercury":8427,"region":8428,"papers":8429,"harmless":8430,"beginning":8431,"Knowing":8432,"swim":8433,"divin":8434,"MORTIMER":8435,"woods":8436,"driven":8437,"parties":8438,"forgotten":8439,"Messengers":8440,"Titan":8441,"circle":8442,"frowning":8443,"slanders":8444,"usurping":8445,"savour":8446,"approaches":8447,"Pisa":8448,"kinsmen":8449,"figures":8450,"prepared":8451,"captains":8452,"priests":8453,"companions":8454,"Henceforth":8455,"triumphant":8456,"Steward":8457,"winged":8458,"Menenius":8459,"clamour":8460,"corruption":8461,"corrupted":8462,"sauce":8463,"bigger":8464,"stomachs":8465,"disguis":8466,"advised":8467,"finish":8468,"Brabantio":8469,"provoke":8470,"bills":8471,"tokens":8472,"Approach":8473,"Dunsinane":8474,"instinct":8475,"superfluous":8476,"observance":8477,"antique":8478,"Woe":8479,"reckoning":8480,"detested":8481,"heaviness":8482,"nesday":8483,"oppression":8484,"knavery":8485,"Certain":8486,"Eastcheap":8487,"colle":8488,"fantastical":8489,"discipline":8490,"Dorset":8491,"Kisses":8492,"cudgel":8493,"endeavour":8494,"penitent":8495,"churlish":8496,"impediment":8497,"beautiful":8498,"assembly":8499,"Confess":8500,"Wednesday":8501,"ruffian":8502,"Vouchsafe":8503,"annoy":8504,"period":8505,"Enobar":8506,"FLUTE":8507,"MARDIAN":8508,"PYRAMUS":8509,"Rouen":8510,"Rugby":8511,"sepulch":8512,"ascivious":8513,"celestial":8514,"ridiculous":8515,"Fortinbras":8516,"Orsino":8517,"AMIENS":8518,"Alcibiades":8519,"oblivion":8520,"App":8521,"Bu":8522,"Base":8523,"Conce":8524,"DEN":8525,"Dest":8526,"EG":8527,"Ephes":8528,"Foul":8529,"Gone":8530,"GRI":8531,"GOT":8532,"Guten":8533,"Hum":8534,"Illy":8535,"Je":8536,"Len":8537,"Mene":8538,"NO":8539,"Ni":8540,"Ow":8541,"Pind":8542,"REL":8543,"Sy":8544,"South":8545,"Ta":8546,"TYR":8547,"Thir":8548,"Vent":8549,"avouch":8550,"bench":8551,"card":8552,"cities":8553,"dun":8554,"eves":8555,"fence":8556,"gust":8557,"gins":8558,"iable":8559,"lous":8560,"lation":8561,"mates":8562,"mute":8563,"mbel":8564,"nur":8565,"oms":8566,"rants":8567,"rist":8568,"slack":8569,"uish":8570,"vours":8571,"thigh":8572,"antic":8573,"theft":8574,"ision":8575,"enforc":8576,"enix":8577,"enfranch":8578,"arbit":8579,"arras":8580,"array":8581,"llies":8582,"towed":8583,"mew":8584,"mete":8585,"sta":8586,"stare":8587,"stiff":8588,"heath":8589,"nomin":8590,"itiff":8591,"itaph":8592,"recount":8593,"relieve":8594,"secre":8595,"security":8596,"ingrate":8597,"leaving":8598,"beck":8599,"beef":8600,"chances":8601,"assem":8602,"deem":8603,"rive":8604,"ripen":8605,"ridge":8606,"Whis":8607,"adore":8608,"adder":8609,"ussi":8610,"coil":8611,"rable":8612,"thern":8613,"unru":8614,"amn":8615,"amis":8616,"amain":8617,"tify":8618,"feats":8619,"idents":8620,"mang":8621,"mansion":8622,"heres":8623,"laus":8624,"lacke":8625,"shining":8626,"consec":8627,"constrain":8628,"goest":8629,"popul":8630,"mote":8631,"mum":8632,"tak":8633,"Whate":8634,"owner":8635,"blemish":8636,"whatsoever":8637,"Head":8638,"safer":8639,"moreover":8640,"blank":8641,"Forbear":8642,"ulate":8643,"apple":8644,"asted":8645,"epitaph":8646,"agreed":8647,"truce":8648,"truant":8649,"Weep":8650,"spect":8651,"project":8652,"progress":8653,"spa":8654,"aux":8655,"dismay":8656,"discontented":8657,"Bea":8658,"ANDREW":8659,"permit":8660,"extre":8661,"affords":8662,"accursed":8663,"broo":8664,"broach":8665,"MASTER":8666,"mary":8667,"glance":8668,"abject":8669,"ability":8670,"abbey":8671,"gentry":8672,"iction":8673,"ication":8674,"gravity":8675,"bloods":8676,"scant":8677,"miscarry":8678,"Whereon":8679,"assy":8680,"footing":8681,"taint":8682,"cally":8683,"achio":8684,"sweets":8685,"madly":8686,"Marian":8687,"Marshal":8688,"FFITH":8689,"precise":8690,"tracted":8691,"traged":8692,"oppose":8693,"impeach":8694,"resort":8695,"witty":8696,"lighted":8697,"cheese":8698,"club":8699,"restra":8700,"compet":8701,"underneath":8702,"Thank":8703,"BEIANS":8704,"parliament":8705,"bestowed":8706,"placed":8707,"airy":8708,"ffic":8709,"possi":8710,"meanest":8711,"turning":8712,"farthest":8713,"gets":8714,"getting":8715,"praised":8716,"husbandry":8717,"villainous":8718,"buff":8719,"derive":8720,"powerful":8721,"Pole":8722,"BIGOT":8723,"PLEBEIANS":8724,"Arise":8725,"brid":8726,"fitted":8727,"waist":8728,"returns":8729,"crab":8730,"TAILOR":8731,"coldly":8732,"proudest":8733,"bated":8734,"clapp":8735,"crime":8736,"Frenchman":8737,"empt":8738,"pastime":8739,"gging":8740,"payment":8741,"picious":8742,"boldness":8743,"Comfort":8744,"hinder":8745,"caus":8746,"damnation":8747,"Friend":8748,"badge":8749,"fram":8750,"bowl":8751,"embassy":8752,"chiefest":8753,"respected":8754,"instruction":8755,"proofs":8756,"acquit":8757,"Faul":8758,"balm":8759,"steals":8760,"motions":8761,"Venet":8762,"ADRIAN":8763,"Quite":8764,"Vernon":8765,"celle":8766,"drag":8767,"property":8768,"bastards":8769,"requests":8770,"revenges":8771,"knocking":8772,"helps":8773,"Blood":8774,"threats":8775,"threaten":8776,"intends":8777,"Holy":8778,"negligence":8779,"deriv":8780,"Egyp":8781,"dignities":8782,"transgress":8783,"starts":8784,"accidents":8785,"Cymbel":8786,"disguise":8787,"melted":8788,"prosperity":8789,"Cressida":8790,"journ":8791,"stockings":8792,"enforced":8793,"apprehension":8794,"believ":8795,"publish":8796,"shroud":8797,"concern":8798,"FOOL":8799,"admirable":8800,"admitted":8801,"attered":8802,"Falls":8803,"lunatic":8804,"DORCAS":8805,"Honest":8806,"lists":8807,"Gertrude":8808,"assistance":8809,"naughty":8810,"CANIDIUS":8811,"repeal":8812,"complaint":8813,"heavier":8814,"studied":8815,"warrior":8816,"ecst":8817,"philosophy":8818,"Consider":8819,"SNOUT":8820,"napkin":8821,"Small":8822,"parcel":8823,"insolence":8824,"PRIAM":8825,"holiday":8826,"indifferent":8827,"pangs":8828,"tardy":8829,"Reignier":8830,"trifles":8831,"Brief":8832,"fantasy":8833,"shelter":8834,"proverb":8835,"haughty":8836,"infirmity":8837,"universal":8838,"Audrey":8839,"quantity":8840,"Dumain":8841,"Pucelle":8842,"ATHENIAN":8843,"crooked":8844,"Enobarbus":8845,"GRIFFITH":8846,"Gutenberg":8847,"Pindarus":8848,"TYRREL":8849,"secrecy":8850,"unruly":8851,"extremes":8852,"Cymbeline":8853,"14":8854,"Bal":8855,"Burn":8856,"BAG":8857,"Bot":8858,"Bona":8859,"Bastard":8860,"Cre":8861,"Du":8862,"Dare":8863,"DIUS":8864,"DEC":8865,"Eu":8866,"Gad":8867,"Gave":8868,"Hard":8869,"Irish":8870,"Metell":8871,"Pla":8872,"Plain":8873,"Parson":8874,"Row":8875,"Rise":8876,"Spare":8877,"Tre":8878,"VENTI":8879,"Word":8880,"Wert":8881,"ae":8882,"ai":8883,"afore":8884,"avo":8885,"bars":8886,"cow":8887,"curious":8888,"daggers":8889,"emin":8890,"fford":8891,"fowl":8892,"future":8893,"gest":8894,"games":8895,"hart":8896,"iv":8897,"iment":8898,"ivity":8899,"jade":8900,"lull":8901,"nance":8902,"oll":8903,"pir":8904,"pag":8905,"pud":8906,"plots":8907,"rats":8908,"smother":8909,"twould":8910,"tish":8911,"tuous":8912,"uce":8913,"uate":8914,"wny":8915,"thood":8916,"thwart":8917,"eres":8918,"erved":8919,"inus":8920,"insu":8921,"invest":8922,"instead":8923,"orter":8924,"ensu":8925,"ensue":8926,"enlarge":8927,"attire":8928,"aring":8929,"arrows":8930,"escap":8931,"toy":8932,"mel":8933,"members":8934,"string":8935,"stances":8936,"noses":8937,"reform":8938,"relief":8939,"rehearse":8940,"recreant":8941,"seth":8942,"veil":8943,"lebr":8944,"lechery":8945,"levied":8946,"chat":8947,"celebr":8948,"forgiven":8949,"utboys":8950,"notable":8951,"rote":8952,"decease":8953,"lict":8954,"ligent":8955,"alt":8956,"adop":8957,"adverse":8958,"cob":8959,"rap":8960,"rape":8961,"uner":8962,"ANCH":8963,"neur":8964,"faster":8965,"suade":8966,"endur":8967,"prat":8968,"upward":8969,"size":8970,"poll":8971,"model":8972,"comment":8973,"taper":8974,"tables":8975,"tawny":8976,"hog":8977,"quest":8978,"CHILD":8979,"Health":8980,"Hecu":8981,"Exceed":8982,"apper":8983,"approbation":8984,"thered":8985,"RIS":8986,"earl":8987,"earn":8988,"audit":8989,"discharg":8990,"Been":8991,"Bell":8992,"Begin":8993,"somewhat":8994,"dice":8995,"diade":8996,"Inn":8997,"Thought":8998,"acity":8999,"plough":9000,"follies":9001,"IRATOR":9002,"monsieur":9003,"mson":9004,"scatter":9005,"scale":9006,"scald":9007,"fiends":9008,"tley":9009,"calling":9010,"mado":9011,"Marcell":9012,"warn":9013,"privy":9014,"plagues":9015,"tenour":9016,"vocate":9017,"vocation":9018,"Shame":9019,"purses":9020,"Cali":9021,"SERVILIUS":9022,"rests":9023,"compul":9024,"compact":9025,"curb":9026,"brag":9027,"brazen":9028,"nativity":9029,"charges":9030,"parch":9031,"parall":9032,"MARSHAL":9033,"talks":9034,"eyelids":9035,"harlot":9036,"steeds":9037,"clos":9038,"cloy":9039,"enchant":9040,"meaner":9041,"turned":9042,"villan":9043,"LIET":9044,"temples":9045,"thrall":9046,"engag":9047,"suborn":9048,"smil":9049,"berries":9050,"vale":9051,"impart":9052,"impud":9053,"Sometimes":9054,"queath":9055,"ventry":9056,"MENES":9057,"Decius":9058,"captive":9059,"capital":9060,"devilish":9061,"obst":9062,"obscure":9063,"musicians":9064,"lowly":9065,"CLEOMENES":9066,"trod":9067,"interpret":9068,"Theseus":9069,"richly":9070,"iggard":9071,"favor":9072,"crimson":9073,"Seem":9074,"surgeon":9075,"centre":9076,"fasting":9077,"pigeons":9078,"vilely":9079,"wisest":9080,"Coming":9081,"Commit":9082,"personal":9083,"Perhaps":9084,"tenderness":9085,"caitiff":9086,"gav":9087,"appearance":9088,"despis":9089,"casket":9090,"folks":9091,"hurts":9092,"fraught":9093,"CONSP":9094,"mortality":9095,"powder":9096,"dishes":9097,"plucks":9098,"stirr":9099,"judgments":9100,"daring":9101,"directed":9102,"bella":9103,"resolved":9104,"lustre":9105,"simplicity":9106,"basest":9107,"Messina":9108,"briefly":9109,"Gonz":9110,"dragon":9111,"thorough":9112,"opinions":9113,"malicious":9114,"commendations":9115,"girls":9116,"sorts":9117,"temperate":9118,"drunkard":9119,"hypo":9120,"churchyard":9121,"songs":9122,"Dido":9123,"frighted":9124,"mingle":9125,"mingled":9126,"dwelling":9127,"wrathful":9128,"lamentable":9129,"ports":9130,"accusation":9131,"weighty":9132,"executioner":9133,"practices":9134,"perilous":9135,"twelvemonth":9136,"imperious":9137,"square":9138,"volunt":9139,"prophecy":9140,"Deny":9141,"lambs":9142,"eager":9143,"patron":9144,"merriment":9145,"WATCHMAN":9146,"Gracious":9147,"comfortable":9148,"events":9149,"Florentine":9150,"approved":9151,"Strange":9152,"moody":9153,"feathers":9154,"slipp":9155,"ALEXANDER":9156,"protection":9157,"characters":9158,"Singing":9159,"HUME":9160,"Stabs":9161,"ACT_3":9162,"BLANCH":9163,"philosopher":9164,"Courage":9165,"carrion":9166,"applause":9167,"immediately":9168,"Gallia":9169,"bawdy":9170,"Prospero":9171,"doubts":9172,"testimony":9173,"Ambassad":9174,"counsellor":9175,"subscribe":9176,"Surrey":9177,"territ":9178,"grateful":9179,"pestilence":9180,"sanctuary":9181,"Fleance":9182,"Beaufort":9183,"champion":9184,"JULIET":9185,"renew":9186,"anchor":9187,"abundance":9188,"vanquish":9189,"sympa":9190,"patricians":9191,"pattern":9192,"covetous":9193,"Costard":9194,"especially":9195,"peremp":9196,"princi":9197,"accomplish":9198,"Illyria":9199,"Menelaus":9200,"mangled":9201,"restraint":9202,"Faulconbridge":9203,"BAGOT":9204,"Bottom":9205,"Dukes":9206,"DECIUS":9207,"Gadshill":9208,"Metellus":9209,"VENTIDIUS":9210,"Hecuba":9211,"diadem":9212,"Marcellus":9213,"CONSPIRATOR":9214,"Ama":9215,"Again":9216,"Bion":9217,"BUT":9218,"Back":9219,"Cries":9220,"CARL":9221,"CURIO":9222,"Cala":9223,"Dieu":9224,"During":9225,"Ear":9226,"Eve":9227,"EPI":9228,"Elean":9229,"Fer":9230,"Far":9231,"Fight":9232,"Gower":9233,"Grant":9234,"Jer":9235,"Lat":9236,"Led":9237,"Navar":9238,"Op":9239,"Prom":9240,"Past":9241,"Pass":9242,"Pyr":9243,"Ren":9244,"Rat":9245,"Rest":9246,"Russi":9247,"Sor":9248,"Sent":9249,"Sits":9250,"Scar":9251,"Spain":9252,"Scro":9253,"Thither":9254,"TWO":9255,"UGH":9256,"VAU":9257,"Wast":9258,"WILLO":9259,"],":9260,"actor":9261,"bain":9262,"bau":9263,"bbles":9264,"dir":9265,"dart":9266,"dally":9267,"eg":9268,"fen":9269,"fest":9270,"fang":9271,"fren":9272,"gull":9273,"greas":9274,"gloss":9275,"hen":9276,"jades":9277,"link":9278,"mits":9279,"niggard":9280,"oy":9281,"py":9282,"pig":9283,"rout":9284,"rents":9285,"saints":9286,"tween":9287,"ui":9288,"udes":9289,"ually":9290,"vall":9291,"vout":9292,"wave":9293,"ering":9294,"iner":9295,"infa":9296,"inquire":9297,"influ":9298,"ann":9299,"isted":9300,"enna":9301,"attent":9302,"attor":9303,"toss":9304,"tower":9305,"tops":9306,"meal":9307,"melo":9308,"meek":9309,"stabs":9310,"stairs":9311,"heave":9312,"nox":9313,"iting":9314,"sear":9315,"seated":9316,"ingen":9317,"bee":9318,"beest":9319,"chest":9320,"chers":9321,"chie":9322,"chol":9323,"chris":9324,"fors":9325,"demi":9326,"dello":9327,"lick":9328,"ooms":9329,"albain":9330,"ric":9331,"ading":9332,"adise":9333,"usual":9334,"doting":9335,"rapt":9336,"unlike":9337,"los":9338,"loins":9339,"tiest":9340,"tians":9341,"feeds":9342,"ORS":9343,"shaft":9344,"fact":9345,"labor":9346,"rud":9347,"contracted":9348,"sith":9349,"poise":9350,"mole":9351,"motley":9352,"indust":9353,"quill":9354,"ctures":9355,"whate":9356,"sheathe":9357,"sap":9358,"saving":9359,"Forest":9360,"LOGUE":9361,"sayest":9362,"agon":9363,"ague":9364,"ISLE":9365,"wayward":9366,"uellen":9367,"tood":9368,"sphere":9369,"augh":9370,"disorder":9371,"disgrac":9372,"dial":9373,"vizard":9374,"peration":9375,"peradventure":9376,"plebe":9377,"extra":9378,"exquis":9379,"handle":9380,"tions":9381,"eys":9382,"offense":9383,"nighting":9384,"broils":9385,"plants":9386,"brew":9387,"breech":9388,"greatly":9389,"marr":9390,"glories":9391,"abate":9392,"abandon":9393,"monsters":9394,"whereupon":9395,"Anten":9396,"fulness":9397,"gnaw":9398,"ficial":9399,"Prof":9400,"asses":9401,"flames":9402,"SHER":9403,"pricks":9404,"bable":9405,"Yourself":9406,"lively":9407,"foolery":9408,"purchas":9409,"lightly":9410,"betters":9411,"chains":9412,"chambers":9413,"compassion":9414,"insin":9415,"parle":9416,"follower":9417,"Herald":9418,"carp":9419,"meantime":9420,"laying":9421,"tempts":9422,"thron":9423,"lawy":9424,"meets":9425,"childish":9426,"falcon":9427,"happen":9428,"goldsmith":9429,"greets":9430,"worthily":9431,"fights":9432,"beauties":9433,"nearest":9434,"Looks":9435,"Looking":9436,"penalty":9437,"sending":9438,"musician":9439,"Capt":9440,"trot":9441,"throughly":9442,"crafty":9443,"crystal":9444,"exceed":9445,"clap":9446,"BOUR":9447,"certainty":9448,"plainness":9449,"kneels":9450,"linger":9451,"Boyet":9452,"slender":9453,"pasture":9454,"yields":9455,"deeper":9456,"requires":9457,"suffers":9458,"Corporal":9459,"abominable":9460,"lane":9461,"Church":9462,"Christ":9463,"questions":9464,"rumour":9465,"Parth":9466,"Paroll":9467,"cords":9468,"gaunt":9469,"gaoler":9470,"speechless":9471,"culate":9472,"wonted":9473,"entreaty":9474,"cases":9475,"hurl":9476,"wretches":9477,"Friends":9478,"SOLDIERS":9479,"fancies":9480,"regal":9481,"treble":9482,"bells":9483,"springs":9484,"flee":9485,"midst":9486,"seasons":9487,"posts":9488,"labouring":9489,"stained":9490,"secretly":9491,"drives":9492,"IDEN":9493,"draught":9494,"element":9495,"beggary":9496,"sixth":9497,"lify":9498,"mutton":9499,"blushes":9500,"dishonest":9501,"Fluellen":9502,"Coventry":9503,"necessities":9504,"Puts":9505,"expected":9506,"STRATE":9507,"victorious":9508,"hills":9509,"bonius":9510,"Cambridge":9511,"different":9512,"Banish":9513,"Donalbain":9514,"schoolmaster":9515,"Philo":9516,"Turning":9517,"Green":9518,"languish":9519,"shrill":9520,"advanc":9521,"provok":9522,"generate":9523,"lux":9524,"admiration":9525,"afflict":9526,"Himself":9527,"neglected":9528,"inheritance":9529,"Grand":9530,"yesternight":9531,"protect":9532,"German":9533,"slipper":9534,"contains":9535,"Stafford":9536,"pupil":9537,"magic":9538,"distraction":9539,"receives":9540,"receipt":9541,"bankrupt":9542,"coffers":9543,"studies":9544,"equi":9545,"wrinkles":9546,"wrinkled":9547,"feigned":9548,"Borachio":9549,"discovery":9550,"Touching":9551,"dissembling":9552,"organ":9553,"cepts":9554,"suggestion":9555,"PHILOSTRATE":9556,"humorous":9557,"Kneeling":9558,"Towards":9559,"contemplation":9560,"gossip":9561,"understood":9562,"amazement":9563,"compliment":9564,"decrees":9565,"Chamberlain":9566,"challeng":9567,"tyrannous":9568,"chival":9569,"upbraid":9570,"jerkin":9571,"sepulchre":9572,"Ephesus":9573,"Lennox":9574,"Third":9575,"Ventidius":9576,"spacious":9577,"ecstasy":9578,"Rowland":9579,"Trebonius":9580,"avoided":9581,"uneration":9582,"voluntary":9583,"peremptory":9584,"Biondello":9585,"CARLISLE":9586,"Calais":9587,"EPILOGUE":9588,"Eleanor":9589,"Latin":9590,"Navarre":9591,"Scroop":9592,"UGHBY":9593,"WILLOUGHBY":9594,"frenzy":9595,"infamy":9596,"exquisite":9597,"Antenor":9598,"Parolles":9599,"Af":9600,"Agri":9601,"Aug":9602,"Ba":9603,"Bir":9604,"Bur":9605,"Blan":9606,"Cent":9607,"Cic":9608,"Crown":9609,"Cob":9610,"Cato":9611,"Dull":9612,"Ely":9613,"Egl":9614,"EGE":9615,"EUPH":9616,"Fill":9617,"FRO":9618,"FRI":9619,"Found":9620,"Fell":9621,"Froth":9622,"GOTH":9623,"HUNT":9624,"JAM":9625,"Kath":9626,"Mel":9627,"Muse":9628,"Nan":9629,"Night":9630,"Ob":9631,"PU":9632,"PUR":9633,"RONIC":9634,"RONIUS":9635,"Sus":9636,"Sblood":9637,"Sund":9638,"SPI":9639,"Seven":9640,"Simp":9641,"Sooth":9642,"SMI":9643,"Stop":9644,"Spoke":9645,"Tu":9646,"Tong":9647,"Tull":9648,"TMOR":9649,"Vir":9650,"VEL":9651,"Wall":9652,"Wish":9653,"WHI":9654,"XTH":9655,"YOR":9656,"aut":9657,"aville":9658,"bis":9659,"bby":9660,"bary":9661,"core":9662,"cardinal":9663,"cousins":9664,"duck":9665,"duteous":9666,"dirt":9667,"fist":9668,"gor":9669,"gle":9670,"hrew":9671,"iard":9672,"ici":9673,"ja":9674,"jar":9675,"jaws":9676,"lends":9677,"nick":9678,"pant":9679,"pts":9680,"puff":9681,"rang":9682,"rhus":9683,"sess":9684,"sma":9685,"sans":9686,"tink":9687,"ture":9688,"waf":9689,"wins":9690,"whelp":9691,"wages":9692,"ousies":9693,"inn":9694,"inconstant":9695,"infancy":9696,"anish":9697,"theart":9698,"orb":9699,"istr":9700,"enet":9701,"ensed":9702,"enrag":9703,"arine":9704,"stall":9705,"stee":9706,"hem":9707,"hew":9708,"itor":9709,"ittle":9710,"itim":9711,"regi":9712,"levy":9713,"beads":9714,"ason":9715,"forf":9716,"detain":9717,"demean":9718,"deaux":9719,"altar":9720,"rivers":9721,"ribly":9722,"wheres":9723,"entrails":9724,"usage":9725,"usions":9726,"usale":9727,"hiss":9728,"rade":9729,"raised":9730,"unluck":9731,"unlawful":9732,"unfortunate":9733,"unmannerly":9734,"feits":9735,"pective":9736,"shakes":9737,"map":9738,"herbs":9739,"necks":9740,"fath":9741,"geant":9742,"supre":9743,"button":9744,"lable":9745,"lazy":9746,"prating":9747,"moist":9748,"commended":9749,"tabor":9750,"hoar":9751,"boat":9752,"outside":9753,"worshipp":9754,"aken":9755,"shell":9756,"Heart":9757,"Hecate":9758,"EDY":9759,"agent":9760,"RIT":9761,"SIXTH":9762,"forever":9763,"truest":9764,"Weigh":9765,"spies":9766,"spire":9767,"spider":9768,"Gold":9769,"display":9770,"discer":9771,"dispers":9772,"disperse":9773,"Become":9774,"ANDRONIC":9775,"roward":9776,"vide":9777,"vigour":9778,"exhi":9779,"exclaim":9780,"daylight":9781,"honors":9782,"eless":9783,"aces":9784,"ached":9785,"plate":9786,"howling":9787,"IRY":9788,"gling":9789,"LAMO":9790,"sonnet":9791,"fickle":9792,"retires":9793,"footed":9794,"orns":9795,"ppa":9796,"madmen":9797,"wary":9798,"downright":9799,"voc":9800,"tram":9801,"traffic":9802,"GEANT":9803,"opposed":9804,"imes":9805,"Shake":9806,"resist":9807,"witted":9808,"cheat":9809,"clout":9810,"SERGEANT":9811,"litter":9812,"Albeit":9813,"pton":9814,"paragon":9815,"denies":9816,"beshrew":9817,"Roy":9818,"posing":9819,"conflict":9820,"closed":9821,"Thyself":9822,"villany":9823,"farm":9824,"overthrown":9825,"Leaving":9826,"needless":9827,"faithfully":9828,"bris":9829,"smart":9830,"pleased":9831,"pleaseth":9832,"wearied":9833,"vaul":9834,"WIFE":9835,"Proclaim":9836,"visited":9837,"formal":9838,"Possess":9839,"singular":9840,"spoils":9841,"capacity":9842,"Armado":9843,"biting":9844,"palate":9845,"paltry":9846,"commander":9847,"horsemen":9848,"armies":9849,"versy":9850,"waits":9851,"mix":9852,"crew":9853,"strait":9854,"corpor":9855,"interpre":9856,"interim":9857,"interchange":9858,"Confound":9859,"barr":9860,"EXTON":9861,"served":9862,"sinful":9863,"Wash":9864,"proudly":9865,"vances":9866,"unclean":9867,"trusted":9868,"TITINIUS":9869,"plains":9870,"Leontes":9871,"acted":9872,"knell":9873,"Haven":9874,"Seeing":9875,"surly":9876,"salve":9877,"Gloucestershire":9878,"signal":9879,"VOLSC":9880,"fourth":9881,"ceiving":9882,"murmur":9883,"watchful":9884,"Parliament":9885,"skil":9886,"Trumpet":9887,"gape":9888,"mockery":9889,"lication":9890,"sports":9891,"speedily":9892,"despised":9893,"weaker":9894,"entreats":9895,"entreated":9896,"entreaties":9897,"Troyans":9898,"credulous":9899,"suffering":9900,"swine":9901,"scarlet":9902,"Mercy":9903,"reverent":9904,"BASSET":9905,"wildly":9906,"flatterers":9907,"Disdain":9908,"fills":9909,"famine":9910,"ostent":9911,"images":9912,"ashore":9913,"poisonous":9914,"fleur":9915,"midwife":9916,"remainder":9917,"balance":9918,"chooseth":9919,"stealing":9920,"baser":9921,"quietly":9922,"bbing":9923,"Hearing":9924,"cherub":9925,"Barbary":9926,"continual":9927,"jealousies":9928,"bitterness":9929,"sixteen":9930,"sixpence":9931,"arguments":9932,"incense":9933,"usurer":9934,"dishonoured":9935,"importune":9936,"glasses":9937,"crutch":9938,"Rosalinde":9939,"offenders":9940,"snake":9941,"breathes":9942,"Musicians":9943,"piercing":9944,"companies":9945,"cloudy":9946,"reputed":9947,"Steal":9948,"weighs":9949,"particulars":9950,"malady":9951,"Britaine":9952,"clamorous":9953,"solemnity":9954,"reigns":9955,"revolted":9956,"floods":9957,"affects":9958,"decree":9959,"circumstances":9960,"Longaville":9961,"debtor":9962,"lodg":9963,"shriek":9964,"depends":9965,"objects":9966,"robber":9967,"SURVE":9968,"errors":9969,"ghosts":9970,"zzle":9971,"leagues":9972,"belief":9973,"planted":9974,"generally":9975,"rushes":9976,"shrink":9977,"stantial":9978,"streams":9979,"alogue":9980,"preferr":9981,"Graces":9982,"controversy":9983,"statutes":9984,"abhorr":9985,"observation":9986,"arrested":9987,"begotten":9988,"listen":9989,"bias":9990,"sacrif":9991,"conveni":9992,"frailty":9993,"repeat":9994,"pearls":9995,"designs":9996,"assume":9997,"tickle":9998,"Killing":9999,"plenty":10000,"plenteous":10001,"heavily":10002,"Serving":10003,"tumult":10004,"ornaments":10005,"tapster":10006,"traveller":10007,"ambassadors":10008,"adversaries":10009,"applaud":10010,"trencher":10011,"inclination":10012,"FAIRY":10013,"muddy":10014,"planet":10015,"Stood":10016,"Stoop":10017,"indignation":10018,"moderate":10019,"BALTH":10020,"MUSIC":10021,"Montano":10022,"puissant":10023,"Harfleur":10024,"Mount":10025,"imitate":10026,"Bedford":10027,"whelm":10028,"embrac":10029,"ruthless":10030,"Worthies":10031,"pronounc":10032,"Vienna":10033,"Cimber":10034,"eloquence":10035,"oubted":10036,"chimney":10037,"EGLAMO":10038,"Venetian":10039,"Egyptian":10040,"Words":10041,"Caliban":10042,"villanous":10043,"territories":10044,"Jerusale":10045,"Pyrrhus":10046,"Renown":10047,"Ratcliff":10048,"ingenious":10049,"oomsday":10050,"plebeians":10051,"chivalry":10052,"Agrippa":10053,"Birnam":10054,"Cicero":10055,"Eglamour":10056,"EGEUS":10057,"EUPHRONIUS":10058,"FROTH":10059,"FRIAR":10060,"Katharine":10061,"PUBL":10062,"SPIRIT":10063,"SMITH":10064,"TMORE":10065,"WHITMORE":10066,"ANDRONICUS":10067,"SURVEYOR":10068,"EGLAMOUR":10069,"Jerusalem":10070,",]":10071,"-'":10072,"00":10073,"11":10074,"Ali":10075,"AEM":10076,"Avaunt":10077,"Bold":10078,"Def":10079,"Dick":10080,"Ele":10081,"EWARD":10082,"EWELL":10083,"Escal":10084,"Fide":10085,"FIT":10086,"Geff":10087,"Hun":10088,"JEWELL":10089,"Lef":10090,"Mere":10091,"Mould":10092,"Nath":10093,"NARD":10094,"Obey":10095,"Pret":10096,"Sau":10097,"Sex":10098,"Stra":10099,"Safe":10100,"Sail":10101,"TU":10102,"Twi":10103,"Tart":10104,"Twould":10105,"Took":10106,"Tears":10107,"Temp":10108,"Tarry":10109,"Thie":10110,"Win":10111,"Want":10112,"aled":10113,"bout":10114,"boughs":10115,"cleave":10116,"cends":10117,"clip":10118,"dil":10119,"dwar":10120,"dition":10121,"doomsday":10122,"echo":10123,"flo":10124,"froward":10125,"gay":10126,"ii":10127,"ilius":10128,"jack":10129,"jug":10130,"kers":10131,"kitch":10132,"lon":10133,"lers":10134,"lascivious":10135,"mow":10136,"nal":10137,"nations":10138,"pon":10139,"purn":10140,"pious":10141,"pander":10142,"rite":10143,"sist":10144,"tir":10145,"tough":10146,"vag":10147,"vation":10148,"yare":10149,"ination":10150,"inty":10151,"inies":10152,"orp":10153,"oration":10154,"orph":10155,"orator":10156,"enjoin":10157,"atory":10158,"lle":10159,"llable":10160,"onna":10161,"estern":10162,"mell":10163,"stings":10164,"stark":10165,"staves":10166,"stinking":10167,"hag":10168,"hay":10169,"halt":10170,"refer":10171,"rewards":10172,"revol":10173,"secon":10174,"bees":10175,"beet":10176,"bellow":10177,"bequeath":10178,"cedar":10179,"owls":10180,"forg":10181,"dete":10182,"deform":10183,"deformed":10184,"defiance":10185,"degenerate":10186,"livers":10187,"withered":10188,"advantages":10189,"using":10190,"coach":10191,"dotage":10192,"raign":10193,"raiment":10194,"unct":10195,"ungentle":10196,"uncles":10197,"amoun":10198,"verity":10199,"ordain":10200,"esta":10201,"peck":10202,"idd":10203,"idered":10204,"mann":10205,"fable":10206,"fails":10207,"factious":10208,"gear":10209,"geese":10210,"sulp":10211,"labours":10212,"morris":10213,"STEWARD":10214,"cony":10215,"proffer":10216,"comest":10217,"muff":10218,"taff":10219,"tapers":10220,"holes":10221,"goodman":10222,"boist":10223,"worships":10224,"Heard":10225,"canon":10226,"Forth":10227,"heretic":10228,"ured":10229,"spear":10230,"prodi":10231,"proceeded":10232,"probable":10233,"Goes":10234,"dissen":10235,"disting":10236,"disloyal":10237,"distract":10238,"Beats":10239,"ANDON":10240,"dict":10241,"vico":10242,"pert":10243,"Kings":10244,"offered":10245,"amed":10246,"accurs":10247,"active":10248,"Whoever":10249,"FORT":10250,"abuses":10251,"trad":10252,"trash":10253,"icing":10254,"hearers":10255,"grav":10256,"undes":10257,"mistaking":10258,"lesson":10259,"retain":10260,"flows":10261,"ominous":10262,"achi":10263,"guides":10264,"madonna":10265,"Mary":10266,"headstrong":10267,"preva":10268,"presage":10269,"tribe":10270,"BRANDON":10271,"fooling":10272,"purity":10273,"cheth":10274,"chaf":10275,"chaff":10276,"chapel":10277,"dearth":10278,"cures":10279,"kindle":10280,"kindled":10281,"Join":10282,"ighthood":10283,"sleeves":10284,"ffith":10285,"confines":10286,"stealth":10287,"peaceful":10288,"runk":10289,"elsewhere":10290,"yeoman":10291,"overcame":10292,"praising":10293,"sorcer":10294,"bedfellow":10295,"mines":10296,"submit":10297,"submission":10298,"brary":10299,"knives":10300,"knighthood":10301,"drawing":10302,"courtes":10303,"sleepy":10304,"stately":10305,"POST":10306,"Poly":10307,"Maid":10308,"Brought":10309,"ventures":10310,"hanged":10311,"capon":10312,"Suc":10313,"brim":10314,"breathless":10315,"bites":10316,"fitness":10317,"commanding":10318,"strains":10319,"corded":10320,"corporal":10321,"harder":10322,"painter":10323,"cramm":10324,"Convey":10325,"dames":10326,"barber":10327,"Luc":10328,"Lucet":10329,"considered":10330,"commonweal":10331,"calamity":10332,"exception":10333,"suited":10334,"actors":10335,"Meas":10336,"Seems":10337,"ubber":10338,"crop":10339,"fourscore":10340,"eating":10341,"gallop":10342,"gallants":10343,"pile":10344,"ceives":10345,"Englishman":10346,"abode":10347,"Common":10348,"profan":10349,"thrifty":10350,"rascally":10351,"petti":10352,"Desire":10353,"Despair":10354,"Despite":10355,"mirror":10356,"BARNARD":10357,"wheels":10358,"damnable":10359,"Prick":10360,"ewes":10361,"ized":10362,"Worse":10363,"blade":10364,"blazon":10365,"swan":10366,"swing":10367,"bondman":10368,"testament":10369,"evidence":10370,"wilder":10371,"navy":10372,"throwing":10373,"witnesses":10374,"teaching":10375,"breasts":10376,"swifter":10377,"simply":10378,"assail":10379,"murderers":10380,"Silvius":10381,"infants":10382,"beggarly":10383,"Britons":10384,"ginger":10385,"argues":10386,"wedlock":10387,"incens":10388,"incensed":10389,"catching":10390,"gird":10391,"girdle":10392,"blowing":10393,"temperance":10394,"Walk":10395,"Fairies":10396,"hymn":10397,"Bertram":10398,"cups":10399,"winters":10400,"allowance":10401,"snuff":10402,"wickedness":10403,"companied":10404,"sailors":10405,"repute":10406,"sequent":10407,"fishes":10408,"syllable":10409,"hunts":10410,"Holla":10411,"lamentation":10412,"smells":10413,"publicly":10414,"drugs":10415,"fifth":10416,"sauc":10417,"examine":10418,"expressly":10419,"Alexas":10420,"mater":10421,"Bearing":10422,"pageant":10423,"volume":10424,"shrift":10425,"frozen":10426,"winking":10427,"merchants":10428,"zzled":10429,"vexation":10430,"strangeness":10431,"accordingly":10432,"Antium":10433,"pillars":10434,"generous":10435,"generation":10436,"rashness":10437,"CAPTAINS":10438,"murdered":10439,"Players":10440,"admittance":10441,"alteration":10442,"pennyworth":10443,"extremest":10444,"swallowed":10445,"edict":10446,"bags":10447,"wrestling":10448,"claimed":10449,"wealthy":10450,"complaints":10451,"shrewdly":10452,"Resol":10453,"shunn":10454,"coronet":10455,"correct":10456,"Amongst":10457,"chiding":10458,"sinew":10459,"ordinance":10460,"Urge":10461,"perfume":10462,"juice":10463,"rooted":10464,"pilgrim":10465,"Fourth":10466,"conspiracy":10467,"Bordeaux":10468,"Hymen":10469,"erog":10470,"sweetheart":10471,"Jaquenet":10472,"Gregory":10473,"frankly":10474,"grudge":10475,"Calpurn":10476,"channel":10477,"suggest":10478,"appointment":10479,"posterity":10480,"shillings":10481,"impression":10482,"beseeming":10483,"Griffith":10484,"sanctified":10485,"modern":10486,"gorgeous":10487,"construction":10488,"loathed":10489,"arrog":10490,"hallowed":10491,"descended":10492,"drooping":10493,"ceremonies":10494,"cabin":10495,"emulation":10496,"temporal":10497,"substitute":10498,"desolation":10499,"occupation":10500,"dunghill":10501,"globe":10502,"gulf":10503,"canopy":10504,"stratagem":10505,"besiege":10506,"Lodovico":10507,"Nichol":10508,"Owen":10509,"ingrateful":10510,"assembled":10511,"lackey":10512,"tragedy":10513,"Europe":10514,"compulsion":10515,"parallel":10516,"sympathy":10517,"principal":10518,"greasy":10519,"influence":10520,"chiefly":10521,"christen":10522,"nightingale":10523,"Blanch":10524,"Centa":10525,"HUNTSMAN":10526,"smack":10527,"itimate":10528,"forfend":10529,"whereso":10530,"corporate":10531,"VOLSCE":10532,"Renowned":10533,"PUBLIUS":10534,"AEMILIUS":10535,"Escalus":10536,"Fidele":10537,"Geffrey":10538,"JEWELLER":10539,"Left":10540,"Nathaniel":10541,"TUBAL":10542,"Twice":10543,"Thieves":10544,"Lucetta":10545,"BARNARDINE":10546,"Jaquenetta":10547,"Calpurnia":10548,"Nicholas":10549,",\"":10550,"Ae":10551,"Bound":10552,"BAT":10553,"Blow":10554,"Cad":10555,"CER":10556,"Creat":10557,"CET":10558,"Cried":10559,"Close":10560,"Cris":10561,"Carry":10562,"Dro":10563,"DON":10564,"Dep":10565,"Dame":10566,"Del":10567,"Dark":10568,"Dem":10569,"Dream":10570,"Dane":10571,"Ep":10572,"Eth":10573,"Fine":10574,"FANG":10575,"Fife":10576,"Ga":10577,"GRO":10578,"Hall":10579,"Home":10580,"IFF":10581,"Iras":10582,"Less":10583,"Lab":10584,"LLON":10585,"Mut":10586,"OM":10587,"Oly":10588,"Ph":10589,"PING":10590,"Park":10591,"Pier":10592,"RUT":10593,"Rum":10594,"RAM":10595,"Raven":10596,"Sad":10597,"Sco":10598,"Spr":10599,"Sear":10600,"Sic":10601,"Sons":10602,"Sali":10603,"Tha":10604,"Tun":10605,"Tub":10606,"Va":10607,"Vis":10608,"VIII":10609,"Varro":10610,"Wid":10611,"Wol":10612,"Yond":10613,"ZWAT":10614,"az":10615,"aweary":10616,"bak":10617,"cit":10618,"cars":10619,"cite":10620,"cris":10621,"dul":10622,"daunt":10623,"dances":10624,"eke":10625,"fust":10626,"fum":10627,"flaw":10628,"files":10629,"gout":10630,"gau":10631,"gore":10632,"glean":10633,"hits":10634,"igent":10635,"jet":10636,"jig":10637,"kites":10638,"lamp":10639,"omen":10640,"odious":10641,"pse":10642,"pond":10643,"rons":10644,"surn":10645,"snail":10646,"sheriff":10647,"tou":10648,"twin":10649,"uation":10650,"vat":10651,"wain":10652,"wrote":10653,"western":10654,"yards":10655,"thunders":10656,"threes":10657,"erable":10658,"incur":10659,"inspir":10660,"incorporate":10661,"ism":10662,"isher":10663,"isten":10664,"enow":10665,"atone":10666,"aright":10667,"ario":10668,"ands":10669,"andra":10670,"tot":10671,"mellow":10672,"mechan":10673,"nois":10674,"revi":10675,"reple":10676,"regar":10677,"refle":10678,"release":10679,"revell":10680,"revive":10681,"sevent":10682,"severe":10683,"veal":10684,"leth":10685,"wight":10686,"widows":10687,"becoming":10688,"betide":10689,"befits":10690,"choo":10691,"chides":10692,"asphe":10693,"owed":10694,"forswore":10695,"hidden":10696,"ird":10697,"irons":10698,"roke":10699,"defe":10700,"devout":10701,"liars":10702,"ools":10703,"rious":10704,"rider":10705,"riding":10706,"White":10707,"cocks":10708,"ERPING":10709,"doves":10710,"dotes":10711,"rake":10712,"raught":10713,"raising":10714,"una":10715,"unic":10716,"unarm":10717,"unwilling":10718,"urging":10719,"ANCEL":10720,"ampton":10721,"loses":10722,"orders":10723,"tides":10724,"ARVEL":10725,"iding":10726,"idiot":10727,"shaking":10728,"mail":10729,"facul":10730,"geld":10731,"lave":10732,"rules":10733,"ruff":10734,"shin":10735,"shouts":10736,"morsel":10737,"STARVEL":10738,"conge":10739,"conject":10740,"concord":10741,"pry":10742,"pranks":10743,"gobl":10744,"governor":10745,"moi":10746,"compos":10747,"muffl":10748,"ilis":10749,"temn":10750,"owness":10751,"ifer":10752,"indent":10753,"bode":10754,"boil":10755,"boats":10756,"quer":10757,"quin":10758,"quir":10759,"CHAS":10760,"CHATI":10761,"CHANCEL":10762,"wasp":10763,"sheath":10764,"Hell":10765,"ROMACH":10766,"sale":10767,"comedy":10768,"cann":10769,"therewithal":10770,"sayer":10771,"ager":10772,"Note":10773,"propose":10774,"sped":10775,"spaniel":10776,"spheres":10777,"aug":10778,"disput":10779,"cio":10780,"cipher":10781,"Beware":10782,"ANDROMACH":10783,"mustard":10784,"diction":10785,"dimin":10786,"digg":10787,"diligence":10788,"vig":10789,"vicious":10790,"perus":10791,"peruse":10792,"perceiv":10793,"perdition":10794,"plea":10795,"Infect":10796,"mbroke":10797,"extern":10798,"eyne":10799,"Howe":10800,"However":10801,"elf":10802,"Withdraw":10803,"TRAG":10804,"accompanied":10805,"nightgown":10806,"foils":10807,"martial":10808,"glut":10809,"desired":10810,"gentler":10811,"Therein":10812,"tyrants":10813,"reech":10814,"EMPR":10815,"DION":10816,"strengthen":10817,"mises":10818,"misled":10819,"missing":10820,"mistaken":10821,"miscarried":10822,"retir":10823,"counts":10824,"flinty":10825,"courtiers":10826,"COMMON":10827,"guise":10828,"madame":10829,"Rebell":10830,"Reason":10831,"Maria":10832,"Marquis":10833,"wares":10834,"tenth":10835,"fortnight":10836,"prelate":10837,"preposter":10838,"predomin":10839,"trimm":10840,"votre":10841,"trace":10842,"travail":10843,"opens":10844,"opposition":10845,"jolly":10846,"rescu":10847,"residence":10848,"giously":10849,"grin":10850,"reasing":10851,"cheon":10852,"showers":10853,"rested":10854,"braver":10855,"LUCE":10856,"LUCULLUS":10857,"Already":10858,"charter":10859,"whipping":10860,"BEAD":10861,"paradise":10862,"denial":10863,"MARIN":10864,"garius":10865,"harp":10866,"harness":10867,"bandy":10868,"cleft":10869,"carve":10870,"viron":10871,"assign":10872,"presents":10873,"SOM":10874,"Leap":10875,"mestic":10876,"engine":10877,"Glamis":10878,"brat":10879,"brine":10880,"hitherto":10881,"hopeful":10882,"justices":10883,"Stir":10884,"truths":10885,"bane":10886,"cuts":10887,"sennet":10888,"DERCET":10889,"visor":10890,"Point":10891,"quell":10892,"spots":10893,"Dece":10894,"suns":10895,"phant":10896,"drench":10897,"obscur":10898,"ULCON":10899,"fitting":10900,"remuneration":10901,"Ligarius":10902,"Pembroke":10903,"delivers":10904,"corpse":10905,"hardy":10906,"Conrade":10907,"batt":10908,"calend":10909,"ignoble":10910,"arnish":10911,"awning":10912,"Hautboys":10913,"cribe":10914,"queens":10915,"surge":10916,"survive":10917,"marrying":10918,"Tiber":10919,"CITIZENS":10920,"BURES":10921,"chanced":10922,"fasten":10923,"grounds":10924,"galled":10925,"pilot":10926,"lantern":10927,"watching":10928,"CALCHAS":10929,"Perdit":10930,"suppress":10931,"cordial":10932,"skins":10933,"wooer":10934,"appearing":10935,"prettiest":10936,"Desires":10937,"covert":10938,"wheat":10939,"FEEB":10940,"hammer":10941,"moonshine":10942,"easier":10943,"blaze":10944,"Lovell":10945,"deliverance":10946,"guards":10947,"casement":10948,"thirst":10949,"wildness":10950,"feasting":10951,"torments":10952,"harmful":10953,"HORNER":10954,"Haste":10955,"CLITUS":10956,"sprite":10957,"sprites":10958,"sighing":10959,"alehouse":10960,"passionate":10961,"cheerfully":10962,"effected":10963,"Indian":10964,"Holds":10965,"MOROC":10966,"healthful":10967,"coloured":10968,"quietness":10969,"solus":10970,"partial":10971,"carrying":10972,"Christians":10973,"Beside":10974,"cherry":10975,"conceited":10976,"drowning":10977,"IDAMUS":10978,"adders":10979,"Verges":10980,"roundly":10981,"starv":10982,"solely":10983,"British":10984,"bitterly":10985,"Attendant":10986,"ortive":10987,"commendation":10988,"commendable":10989,"vainly":10990,"spurgh":10991,"usurper":10992,"Countess":10993,"Bernar":10994,"imports":10995,"importun":10996,"important":10997,"grieved":10998,"humbled":10999,"greetings":11000,"fruits":11001,"costly":11002,"snar":11003,"wretchedness":11004,"sequel":11005,"maidenhead":11006,"Sennet":11007,"Senators":11008,"bonnet":11009,"Menas":11010,"accustom":11011,"lineal":11012,"conjunction":11013,"plotted":11014,"faintly":11015,"whistle":11016,"condemned":11017,"burdens":11018,"Volumn":11019,"pulse":11020,"Lays":11021,"buckle":11022,"buckram":11023,"guiltiness":11024,"masks":11025,"ARCHIDAMUS":11026,"milit":11027,"mildly":11028,"melting":11029,"wasteful":11030,"swells":11031,"earnestly":11032,"eagles":11033,"budge":11034,"apprehended":11035,"humanity":11036,"suspected":11037,"eternity":11038,"rhymes":11039,"Repent":11040,"climate":11041,"building":11042,"passages":11043,"slightly":11044,"redemption":11045,"concerning":11046,"discreet":11047,"groaning":11048,"preferment":11049,"sticks":11050,"Greekish":11051,"Witches":11052,"sparrow":11053,"sparks":11054,"tasted":11055,"Katherina":11056,"multit":11057,"deceas":11058,"parentage":11059,"Officer":11060,"Spir":11061,"advancement":11062,"haunts":11063,"poetry":11064,"****":11065,"magistr":11066,"qualify":11067,"breadth":11068,"choleric":11069,"liquid":11070,"brands":11071,"phoenix":11072,"foresaid":11073,"gratis":11074,"roots":11075,"BEAUFORT":11076,"adversary":11077,"compel":11078,"compounded":11079,"Turkish":11080,"cullus":11081,"dissemble":11082,"curtains":11083,"FAULCON":11084,"fantastic":11085,"endeavours":11086,"riotous":11087,"limits":11088,"braggart":11089,"parcels":11090,"Immediate":11091,"summons":11092,"Colville":11093,"inferior":11094,"MUST":11095,"gaping":11096,"hoop":11097,"issues":11098,"chronicle":11099,"puissance":11100,"stumble":11101,"education":11102,"resemble":11103,"confederates":11104,"Sixth":11105,"rivals":11106,"spectacle":11107,"Volscian":11108,"Cheer":11109,"Syracuse":11110,"majesti":11111,"indirectly":11112,"nymphs":11113,"continuance":11114,"Derby":11115,"Palace":11116,"contagious":11117,"whirl":11118,"obsequious":11119,"reconcile":11120,"riddle":11121,"gibbet":11122,"Titania":11123,"NOB":11124,"Whispers":11125,"consecrate":11126,"Beauty":11127,"transgression":11128,"Bellario":11129,"Thoughts":11130,"Gonzalo":11131,"attorney":11132,"SHERIFF":11133,"Philomel":11134,"Sunday":11135,"Tongue":11136,"Tullus":11137,"autumn":11138,"interpreter":11139,"skilful":11140,"FITZWAT":11141,"Mouldy":11142,"Tartar":11143,"dissension":11144,"distinguish":11145,"courtesies":11146,"erogative":11147,"BATES":11148,"GROOM":11149,"Olymp":11150,"RUTLAND":11151,"RAMBURES":11152,"Ravenspurgh":11153,"Salique":11154,"Tunis":11155,"Tubal":11156,"Widow":11157,"replete":11158,"regarded":11159,"ERPINGHAM":11160,"STARVELING":11161,"CHATILLON":11162,"CHANCELLOR":11163,"ANDROMACHE":11164,"TRAGEDY":11165,"DERCETAS":11166,"Perdita":11167,"FEEBLE":11168,"MOROCCO":11169,"Bernardo":11170,"FAULCONBRIDGE":11171,"FITZWATER":11172,"!)":11173,"AZ":11174,"Abra":11175,"ABERG":11176,"Adri":11177,"Aquit":11178,"AVEN":11179,"Arab":11180,"Bury":11181,"Bush":11182,"Cra":11183,"Care":11184,"Cuck":11185,"Cran":11186,"Camb":11187,"Daughter":11188,"Eight":11189,"FI":11190,"Fast":11191,"Fred":11192,"Fire":11193,"Fates":11194,"Feed":11195,"GL":11196,"Gany":11197,"GARD":11198,"Hic":11199,"Hop":11200,"Humb":11201,"Hume":11202,"JUN":11203,"Judge":11204,"Lose":11205,"Larti":11206,"Od":11207,"Ober":11208,"Oliver":11209,"Pay":11210,"Pour":11211,"Pale":11212,"PINCH":11213,"Plu":11214,"Pinch":11215,"Ran":11216,"Sin":11217,"Sto":11218,"Sam":11219,"Sith":11220,"Sey":11221,"Sever":11222,"Sea":11223,"Said":11224,"Smile":11225,"TS":11226,"Treason":11227,"Tues":11228,"Tew":11229,"Wa":11230,"YER":11231,"abed":11232,"bil":11233,"bower":11234,"bition":11235,"cin":11236,"cund":11237,"cable":11238,"cres":11239,"dore":11240,"eur":11241,"fre":11242,"gion":11243,"ghed":11244,"gasp":11245,"hint":11246,"hats":11247,"ico":11248,"ict":11249,"iquity":11250,"jur":11251,"jars":11252,"jester":11253,"kite":11254,"kick":11255,"lout":11256,"lass":11257,"mise":11258,"massa":11259,"mature":11260,"ots":11261,"oxen":11262,"pan":11263,"ply":11264,"pard":11265,"pith":11266,"pins":11267,"rine":11268,"range":11269,"radi":11270,"soo":11271,"sly":11272,"sci":11273,"smock":11274,"slips":11275,"sways":11276,"tunes":11277,"tered":11278,"vit":11279,"vary":11280,"wof":11281,"wage":11282,"erun":11283,"eress":11284,"ertake":11285,"erlook":11286,"erick":11287,"injustice":11288,"anew":11289,"thecar":11290,"orm":11291,"enroll":11292,"atom":11293,"argo":11294,"arrow":11295,"ont":11296,"toads":11297,"mede":11298,"stony":11299,"havoc":11300,"itious":11301,"rement":11302,"relie":11303,"repri":11304,"relate":11305,"recreation":11306,"sew":11307,"vehe":11308,"lecher":11309,"wip":11310,"chuck":11311,"ases":11312,"ascend":11313,"ldron":11314,"Throws":11315,"Thrust":11316,"roars":11317,"depose":11318,"deject":11319,"lified":11320,"keley":11321,"tering":11322,"sop":11323,"sojourn":11324,"rig":11325,"rides":11326,"ribb":11327,"rigour":11328,"admi":11329,"advocate":11330,"etition":11331,"uspicious":11332,"cog":11333,"colt":11334,"coals":11335,"allies":11336,"doct":11337,"raz":11338,"railing":11339,"unlook":11340,"unborn":11341,"uncivil":11342,"urus":11343,"urbs":11344,"ANGER":11345,"amber":11346,"ambush":11347,"vering":11348,"verge":11349,"verily":11350,"verdict":11351,"lopp":11352,"timor":11353,"tives":11354,"estates":11355,"pell":11356,"peal":11357,"mans":11358,"shak":11359,"mace":11360,"maim":11361,"herb":11362,"hero":11363,"hermit":11364,"neys":11365,"sund":11366,"sunder":11367,"endless":11368,"Told":11369,"labella":11370,"ruminate":11371,"shoo":11372,"confir":11373,"conspire":11374,"contemn":11375,"goat":11376,"goats":11377,"poly":11378,"hoof":11379,"hovel":11380,"hobby":11381,"tez":11382,"teem":11383,"ifull":11384,"ifies":11385,"Heigh":11386,"ROBERT":11387,"Expect":11388,"sacra":11389,"blister":11390,"blasphe":11391,"TITION":11392,"thereupon":11393,"seemeth":11394,"agg":11395,"agate":11396,"mps":11397,"Youth":11398,"aved":11399,"prose":11400,"progen":11401,"proclaimed":11402,"spill":11403,"spade":11404,"augment":11405,"displeas":11406,"distemp":11407,"dispraise":11408,"disobedience":11409,"distres":11410,"cible":11411,"ANDRA":11412,"musty":11413,"vict":11414,"vilius":11415,"perils":11416,"persever":11417,"perplex":11418,"Inform":11419,"exter":11420,"exten":11421,"exche":11422,"exempt":11423,"handed":11424,"hearty":11425,"honoured":11426,"offi":11427,"speaker":11428,"Sole":11429,"elves":11430,"timeless":11431,"accommod":11432,"broil":11433,"broker":11434,"brood":11435,"plat":11436,"angled":11437,"ARDSE":11438,"Offer":11439,"marshal":11440,"abound":11441,"monkey":11442,"whereby":11443,"fulfill":11444,"ringe":11445,"Doing":11446,"Doct":11447,"Dolabella":11448,"Isis":11449,"scy":11450,"scab":11451,"misfortune":11452,"gentlewomen":11453,"Gods":11454,"lieu":11455,"wrangling":11456,"flay":11457,"flown":11458,"flaming":11459,"aching":11460,"warp":11461,"prim":11462,"bale":11463,"PETITION":11464,"northern":11465,"Yours":11466,"precepts":11467,"tends":11468,"tending":11469,"uding":11470,"presump":11471,"trip":11472,"tribune":11473,"impose":11474,"immin":11475,"imposition":11476,"ksbury":11477,"jocund":11478,"ressed":11479,"lightness":11480,"grind":11481,"checks":11482,"poorest":11483,"clasp":11484,"cauldron":11485,"intoler":11486,"showing":11487,"finding":11488,"compt":11489,"brake":11490,"chariot":11491,"whips":11492,"begging":11493,"parish":11494,"gripe":11495,"TIMANDRA":11496,"commence":11497,"garlands":11498,"afterward":11499,"confounds":11500,"royally":11501,"stew":11502,"killed":11503,"virgins":11504,"GOVER":11505,"huswife":11506,"overcome":11507,"overtake":11508,"overheard":11509,"lawless":11510,"needle":11511,"engend":11512,"replied":11513,"repetition":11514,"bedchamber":11515,"subdue":11516,"substantial":11517,"suburbs":11518,"wrongfully":11519,"kennel":11520,"justify":11521,"threefold":11522,"remedies":11523,"Star":11524,"banners":11525,"Mock":11526,"dues":11527,"duch":11528,"duly":11529,"bubble":11530,"xture":11531,"maidens":11532,"visions":11533,"pavi":11534,"MOON":11535,"Poison":11536,"embo":11537,"strip":11538,"strives":11539,"penet":11540,"sounding":11541,"briers":11542,"carefully":11543,"breaths":11544,"fitter":11545,"commanders":11546,"sicken":11547,"waving":11548,"contention":11549,"Shout":11550,"Short":11551,"Shore":11552,"freeze":11553,"interru":11554,"painful":11555,"grooms":11556,"Consent":11557,"Constance":11558,"attendance":11559,"wanted":11560,"chok":11561,"igneur":11562,"valor":11563,"Boar":11564,"Seeking":11565,"lovest":11566,"learnt":11567,"hellish":11568,"requir":11569,"suffered":11570,"galls":11571,"pikes":11572,"pipes":11573,"Corne":11574,"Corinth":11575,"wisdoms":11576,"lances":11577,"lanthorn":11578,"relation":11579,"musical":11580,"profits":11581,"Chat":11582,"Change":11583,"castles":11584,"soldiership":11585,"confessor":11586,"hinds":11587,"gaol":11588,"license":11589,"pretence":11590,"aments":11591,"Desp":11592,"Descend":11593,"basely":11594,"opening":11595,"openly":11596,"feels":11597,"lenity":11598,"mounting":11599,"traitorous":11600,"moonlight":11601,"SICILIUS":11602,"embark":11603,"revengeful":11604,"firmly":11605,"laughs":11606,"darkly":11607,"Herod":11608,"flowing":11609,"dinand":11610,"battlements":11611,"toric":11612,"fashions":11613,"family":11614,"burthen":11615,"porridge":11616,"Knows":11617,"sprung":11618,"instructions":11619,"ashful":11620,"poisons":11621,"orderly":11622,"crosses":11623,"fresher":11624,"measur":11625,"measures":11626,"Troth":11627,"closely":11628,"conquered":11629,"buys":11630,"Holding":11631,"basilis":11632,"MORTON":11633,"wooden":11634,"seals":11635,"consented":11636,"Quar":11637,"Quince":11638,"Question":11639,"adding":11640,"addle":11641,"Guard":11642,"starved":11643,"drab":11644,"drawer":11645,"CAMBRIDGE":11646,"Helenus":11647,"HORTENSIUS":11648,"malignant":11649,"supplied":11650,"bastardy":11651,"Double":11652,"cater":11653,"mutinous":11654,"savours":11655,"revenged":11656,"changed":11657,"Berkeley":11658,"Siward":11659,"demanded":11660,"shepherds":11661,"strucken":11662,"Abhor":11663,"offending":11664,"corners":11665,"cornets":11666,"louder":11667,"bounti":11668,"triumphs":11669,"injurious":11670,"STRANGER":11671,"courageous":11672,"physicians":11673,"Advise":11674,"utterly":11675,"utterance":11676,"Given":11677,"murtherer":11678,"betrayed":11679,"wantonness":11680,"Shows":11681,"Showing":11682,"fondly":11683,"digestion":11684,"drudge":11685,"factions":11686,"rarely":11687,"translate":11688,"FRENCHMAN":11689,"Tribune":11690,"dukedoms":11691,"trembles":11692,"Dogberry":11693,"whispers":11694,"functions":11695,"pulpit":11696,"Turns":11697,"bullets":11698,"Neigh":11699,"refus":11700,"ditch":11701,"ditary":11702,"treads":11703,"incline":11704,"flag":11705,"nibal":11706,"prophecies":11707,"profitable":11708,"frosty":11709,"disdainful":11710,"esteemed":11711,"merchand":11712,"mischiefs":11713,"tortur":11714,"Report":11715,"Repair":11716,"forfeiture":11717,"apparell":11718,"imaginary":11719,"murders":11720,"Satan":11721,"knots":11722,"ensive":11723,"packing":11724,"waxen":11725,"afflicted":11726,"sociable":11727,"monger":11728,"invited":11729,"Hostess":11730,"Jacob":11731,"chastisement":11732,"pedant":11733,"pedlar":11734,"greyhound":11735,"Finding":11736,"Strato":11737,"nicely":11738,"abhorred":11739,"Sleeps":11740,"blots":11741,"wrestler":11742,"clergy":11743,"candles":11744,"waken":11745,"acceptance":11746,"puppet":11747,"multip":11748,"creeping":11749,"expedient":11750,"bulwar":11751,"gratify":11752,"Servilius":11753,"equally":11754,"sexton":11755,"acheth":11756,"blasted":11757,"rhetoric":11758,"recovery":11759,"recovered":11760,"thankfulness":11761,"Court":11762,"halter":11763,"contrive":11764,"discovered":11765,"packet":11766,"manifold":11767,"trenches":11768,"comparison":11769,"comparisons":11770,"Calchas":11771,"News":11772,"method":11773,"PHILOTUS":11774,"meditation":11775,"Suppose":11776,"bragging":11777,"rarest":11778,"insolent":11779,"doubted":11780,"construe":11781,"sparkling":11782,"troublesome":11783,"violet":11784,"unchient":11785,"captives":11786,"ceremonious":11787,"Drink":11788,"Drinks":11789,"spectacles":11790,"Syracus":11791,"dedicate":11792,"magnanim":11793,"Advancing":11794,"distinct":11795,"distinction":11796,"courtship":11797,"transported":11798,"Tarquin":11799,"idol":11800,"conversation":11801,"tragic":11802,"divinity":11803,"DENNY":11804,"dungeon":11805,"lousy":11806,"popular":11807,"Mariana":11808,"possibility":11809,"bridal":11810,"gesture":11811,"ensuing":11812,"forgiveness":11813,"prattle":11814,"appertain":11815,"parchment":11816,"impudent":11817,"hypocr":11818,"Ambassador":11819,"Ferdinand":11820,"Sorrow":11821,"bauble":11822,"oyster":11823,"melody":11824,"industry":11825,"aughan":11826,"fleece":11827,"luxury":11828,"slippery":11829,"August":11830,"tinker":11831,"fathom":11832,"discern":11833,"Royal":11834,"ostentation":11835,"robbery":11836,"BALTHAZ":11837,"Pretty":11838,"Straight":11839,"kitchen":11840,"muffled":11841,"Polydore":11842,"wilderness":11843,"Demand":11844,"Epid":11845,"Phry":11846,"Scots":11847,"Search":11848,"Valiant":11849,"Wolsey":11850,"BEADLE":11851,"December":11852,"calendar":11853,"Volumnius":11854,"military":11855,"MUSTARDSE":11856,"majestical":11857,"ABERGAVEN":11858,"Aquitaine":11859,"Bushy":11860,"Cranmer":11861,"Cambio":11862,"Frederick":11863,"Ganymede":11864,"GARDEN":11865,"Humbly":11866,"Lartius":11867,"Oberon":11868,"Pluto":11869,"Tuesday":11870,"Tewksbury":11871,"radiant":11872,"woful":11873,"thecary":11874,"admired":11875,"doctrine":11876,"ifully":11877,"sacrament":11878,"distressed":11879,"intolerable":11880,"GOVERNOR":11881,"BALTHAZAR":11882,"MUSTARDSEED":11883,"ABERGAVENNY":11884,"Allow":11885,"Aff":11886,"Aem":11887,"AVE":11888,"BW":11889,"Bind":11890,"BONA":11891,"BULL":11892,"Cain":11893,"Cass":11894,"Chor":11895,"Cham":11896,"Carri":11897,"Dat":11898,"Det":11899,"Dard":11900,"Drown":11901,"Dutch":11902,"Damn":11903,"Et":11904,"Ev":11905,"Fro":11906,"Fam":11907,"Fate":11908,"Fab":11909,"Fee":11910,"Field":11911,"FAST":11912,"FATH":11913,"Further":11914,"Gard":11915,"Grow":11916,"Hip":11917,"Horns":11918,"IPH":11919,"IGH":11920,"IRIS":11921,"Iachi":11922,"James":11923,"Lent":11924,"Lud":11925,"List":11926,"Lament":11927,"Little":11928,"MU":11929,"Met":11930,"Main":11931,"Mend":11932,"MEL":11933,"Money":11934,"Mino":11935,"Nine":11936,"Nea":11937,"OBUS":11938,"Pan":11939,"PLA":11940,"Pull":11941,"Plead":11942,"Place":11943,"Rain":11944,"Rho":11945,"Rel":11946,"Rough":11947,"Rose":11948,"Ride":11949,"Sa":11950,"Sly":11951,"Sard":11952,"Shad":11953,"Sheriff":11954,"SELE":11955,"SEMPR":11956,"SSOM":11957,"Tend":11958,"Trem":11959,"Twenty":11960,"Taking":11961,"Vaughan":11962,"Woo":11963,"Went":11964,"Wart":11965,"Wil":11966,"Wake":11967,"bier":11968,"bended":11969,"cage":11970,"cake":11971,"claw":11972,"cates":11973,"cows":11974,"cides":11975,"cated":11976,"coffer":11977,"cuff":11978,"cited":11979,"ctable":11980,"darts":11981,"dalliance":11982,"eze":11983,"fry":11984,"festi":11985,"grum":11986,"jurious":11987,"lor":11988,"lump":11989,"lated":11990,"mare":11991,"mated":11992,"nis":11993,"nets":11994,"ninth":11995,"oh":11996,"pies":11997,"pable":11998,"rrel":11999,"rmid":12000,"sou":12001,"sne":12002,"snor":12003,"squar":12004,"soften":12005,"tas":12006,"tary":12007,"tallow":12008,"uge":12009,"umed":12010,"vac":12011,"varnish":12012,"tha":12013,"thage":12014,"erst":12015,"erves":12016,"inve":12017,"infe":12018,"infall":12019,"inhuman":12020,"ority":12021,"enquire":12022,"arith":12023,"arraign":12024,"onish":12025,"meals":12026,"stif":12027,"stag":12028,"station":12029,"heigh":12030,"oftent":12031,"haven":12032,"hamed":12033,"hagg":12034,"itan":12035,"repreh":12036,"remote":12037,"recorded":12038,"wield":12039,"bewitch":12040,"belied":12041,"chant":12042,"chick":12043,"ashamed":12044,"cel":12045,"celer":12046,"cepted":12047,"fortify":12048,"forerun":12049,"hiding":12050,"hilts":12051,"ldo":12052,"uted":12053,"rook":12054,"robs":12055,"roasted":12056,"deign":12057,"liz":12058,"liable":12059,"weeks":12060,"oop":12061,"sot":12062,"soar":12063,"solace":12064,"entice":12065,"ador":12066,"adorn":12067,"admire":12068,"usher":12069,"coven":12070,"covered":12071,"doe":12072,"doit":12073,"raine":12074,"untrue":12075,"unrest":12076,"uncertain":12077,"ungracious":12078,"unseason":12079,"unwholesome":12080,"unjustly":12081,"urre":12082,"ural":12083,"aminius":12084,"amiable":12085,"vertis":12086,"log":12087,"logs":12088,"ordered":12089,"tif":12090,"tithe":12091,"tice":12092,"timber":12093,"ARM":12094,"feu":12095,"feminate":12096,"pecu":12097,"shaken":12098,"maculate":12099,"neth":12100,"nether":12101,"faw":12102,"factors":12103,"sued":12104,"sured":12105,"lais":12106,"rubs":12107,"shrunk":12108,"congre":12109,"constra":12110,"convoy":12111,"convert":12112,"prerogative":12113,"upper":12114,"poser":12115,"posses":12116,"pockets":12117,"moons":12118,"comfit":12119,"commotion":12120,"compreh":12121,"OLFE":12122,"indis":12123,"bleeds":12124,"bol":12125,"boarded":12126,"outrun":12127,"cting":12128,"venal":12129,"aks":12130,"Heme":12131,"Excuse":12132,"saith":12133,"safest":12134,"selfsame":12135,"LOSSOM":12136,"ISABEL":12137,"COBW":12138,"Myrmid":12139,"specially":12140,"earls":12141,"prop":12142,"provision":12143,"spin":12144,"aust":12145,"auda":12146,"Assist":12147,"Going":12148,"Governor":12149,"distrust":12150,"disclaim":12151,"dissolute":12152,"discontents":12153,"dispense":12154,"cide":12155,"somebody":12156,"dile":12157,"dialogue":12158,"vided":12159,"pled":12160,"Inv":12161,"Injurious":12162,"expost":12163,"UCUS":12164,"offends":12165,"Soon":12166,"accompany":12167,"friended":12168,"plus":12169,"plum":12170,"plume":12171,"howsoever":12172,"fog":12173,"foam":12174,"CAPUC":12175,"abides":12176,"serp":12177,"servile":12178,"sergeant":12179,"trades":12180,"whereto":12181,"Ancient":12182,"fairs":12183,"hearken":12184,"reek":12185,"grapes":12186,"grapple":12187,"merited":12188,"strut":12189,"partake":12190,"scattered":12191,"misuse":12192,"mispris":12193,"missive":12194,"Pron":12195,"betroth":12196,"counc":12197,"countri":12198,"wren":12199,"wray":12200,"wrangle":12201,"SHINE":12202,"hasten":12203,"tshire":12204,"PATRI":12205,"fearfully":12206,"guer":12207,"guided":12208,"sweeten":12209,"sweetness":12210,"Ref":12211,"praying":12212,"Herein":12213,"eyesight":12214,"plagu":12215,"PEAS":12216,"brotherhood":12217,"bearers":12218,"bearded":12219,"MERY":12220,"downfall":12221,"preach":12222,"prescription":12223,"tripping":12224,"trivial":12225,"trains":12226,"mightier":12227,"mightiest":12228,"Shalt":12229,"housewife":12230,"AMBASS":12231,"purcha":12232,"respective":12233,"gig":12234,"giv":12235,"witting":12236,"effeminate":12237,"chew":12238,"poorly":12239,"chaps":12240,"cursing":12241,"righteous":12242,"brav":12243,"Alcides":12244,"Normand":12245,"begs":12246,"parrot":12247,"deno":12248,"womanish":12249,"MARULLUS":12250,"garb":12251,"welcomes":12252,"Herself":12253,"confis":12254,"confused":12255,"played":12256,"stem":12257,"clog":12258,"cloister":12259,"closes":12260,"sandy":12261,"staying":12262,"carc":12263,"carous":12264,"carded":12265,"GOMERY":12266,"lacking":12267,"LION":12268,"farthing":12269,"fardel":12270,"Lethe":12271,"Ourselves":12272,"sores":12273,"engross":12274,"childhood":12275,"berate":12276,"Start":12277,"Storm":12278,"courtly":12279,"gains":12280,"dule":12281,"dukes":12282,"shameless":12283,"cession":12284,"thankfully":12285,"imputation":12286,"MOUL":12287,"Devil":12288,"sunshine":12289,"penn":12290,"penury":12291,"honestly":12292,"obdur":12293,"oblig":12294,"Arden":12295,"nerves":12296,"mistresses":12297,"COLVILLE":12298,"palaces":12299,"spiritual":12300,"weening":12301,"remn":12302,"Life":12303,"Library":12304,"Licio":12305,"lowest":12306,"Laid":12307,"Shut":12308,"sealed":12309,"returned":12310,"trodden":12311,"corax":12312,"throughout":12313,"humbleness":12314,"Learn":12315,"cushion":12316,"gros":12317,"larg":12318,"Consu":12319,"Contin":12320,"Confirm":12321,"judges":12322,"richest":12323,"sincere":12324,"Lucre":12325,"Lucullus":12326,"fouler":12327,"prouder":12328,"calum":12329,"exceeds":12330,"igation":12331,"favoured":12332,"purposed":12333,"saddle":12334,"awry":12335,"awful":12336,"quicken":12337,"cript":12338,"summers":12339,"Boys":12340,"changeling":12341,"doubtless":12342,"wounding":12343,"dreaming":12344,"comforted":12345,"umps":12346,"generals":12347,"surmise":12348,"Whip":12349,"moneys":12350,"writers":12351,"defil":12352,"cropp":12353,"crook":12354,"requital":12355,"pictures":12356,"wished":12357,"ront":12358,"CALF":12359,"CALPUR":12360,"skies":12361,"wooed":12362,"wooers":12363,"quarters":12364,"!']":12365,"safeguard":12366,"miracles":12367,"favourites":12368,"straightway":12369,"Monday":12370,"Monster":12371,"caskets":12372,"mounts":12373,"mounsieur":12374,"stooping":12375,"mortals":12376,"embassa":12377,"lioness":12378,"evident":12379,"strengths":12380,"kerns":12381,"thirsty":12382,"regions":12383,"regards":12384,"Dismiss":12385,"filling":12386,"athed":12387,"direful":12388,"directions":12389,"exeunt":12390,"poisoned":12391,"cheerly":12392,"India":12393,"posted":12394,"stains":12395,"remembran":12396,"freshly":12397,"woodcock":12398,"Tyrrel":12399,"Quo":12400,"conception":12401,"murderous":12402,"Briton":12403,"proceeds":12404,"departed":12405,"incest":12406,"increasing":12407,"DEIPH":12408,"lifted":12409,"adel":12410,"Jewry":12411,"pinion":12412,"conclusions":12413,"revenues":12414,"swiftly":12415,"legate":12416,"legitimate":12417,"washing":12418,"churchman":12419,"Flaminius":12420,"grievances":12421,"successive":12422,"itizen":12423,"Colle":12424,"Seal":12425,"Seest":12426,"Second":12427,"smelt":12428,"puny":12429,"frights":12430,"benefits":12431,"seventh":12432,"formerly":12433,"Keeps":12434,"Admir":12435,"uttermost":12436,"contradi":12437,"tailors":12438,"creditors":12439,"heedful":12440,"MONTGOMERY":12441,"bonny":12442,"lamenting":12443,"durance":12444,"thunderbolt":12445,"repentance":12446,"neighbourhood":12447,"solemnly":12448,"realms":12449,"negligent":12450,"consideration":12451,"transformed":12452,"differences":12453,"fainting":12454,"aptly":12455,"consume":12456,"Retreat":12457,"imperfect":12458,"masqu":12459,"masque":12460,"Grecians":12461,"mildness":12462,"Osric":12463,"arrived":12464,"estimate":12465,"depth":12466,"sucking":12467,"conveyance":12468,"enforcement":12469,"ghostly":12470,"humane":12471,"believing":12472,"clime":12473,"Antigon":12474,"provokes":12475,"merrier":12476,"scription":12477,"copper":12478,"lugg":12479,"information":12480,"Elbow":12481,"delays":12482,"admiring":12483,"heralds":12484,"camps":12485,"intelle":12486,"haviour":12487,"instances":12488,"LOVEL":12489,"confounded":12490,"mournful":12491,"Crying":12492,"DORE":12493,"Strong":12494,"baggage":12495,"aspiring":12496,"Patri":12497,"Turks":12498,"wrestle":12499,"Trou":12500,"Trans":12501,"haunted":12502,"truncheon":12503,"declining":12504,"Chiron":12505,"spotless":12506,"puppy":12507,"peasants":12508,"qualified":12509,"achiev":12510,"Runs":12511,"attaint":12512,"makers":12513,"perfections":12514,"pursues":12515,"pursuiv":12516,"BLUNT":12517,"Carthage":12518,"bruis":12519,"hunter":12520,"martyr":12521,"swol":12522,"depending":12523,"juvenal":12524,"foresee":12525,"peerless":12526,"gratitude":12527,"EBLOSSOM":12528,"eclips":12529,"hatches":12530,"Pandar":12531,"blasts":12532,"conspirator":12533,"knavish":12534,"heaps":12535,"carriages":12536,"Pursue":12537,"paces":12538,"devoted":12539,"bracelet":12540,"SNUG":12541,"Travell":12542,"organs":12543,"reconcil":12544,"copyright":12545,"disciplines":12546,"Smith":12547,"moulded":12548,"hawk":12549,"planets":12550,"accents":12551,"succeeding":12552,"dominions":12553,"impediments":12554,"PRIEST":12555,"gossips":12556,"violets":12557,"greedy":12558,"pestilent":12559,"Bullcalf":12560,"Tearsheet":12561,"decreed":12562,"converted":12563,"Angus":12564,"Presenting":12565,"Volscians":12566,"tumble":12567,"vapour":12568,"vapours":12569,"taunts":12570,"skirmish":12571,"Advance":12572,"Embrace":12573,"sloth":12574,"weaver":12575,"obsequies":12576,"Holiness":12577,"battery":12578,"dregs":12579,"idolat":12580,"entirely":12581,"codpiece":12582,"tragical":12583,"venturous":12584,"Destroy":12585,"Sycorax":12586,"gusts":12587,"amnum":12588,"eminence":12589,"gamester":12590,"lullaby":12591,"pirate":12592,"insulting":12593,"deceased":12594,"obstinate":12595,"BUTTS":12596,"Scarce":12597,"VAUX":12598,"dirty":12599,"eggs":12600,"uiuc":12601,"forsook":12602,"vizards":12603,"breeches":12604,"carpenter":12605,"lawyer":12606,"Parthia":12607,"Observe":12608,"session":12609,"regiment":12610,"unluckily":12611,"supreme":12612,"Merely":12613,"orphans":12614,"beetle":12615,"amount":12616,"sulphur":12617,"Success":12618,"Measure":12619,"petticoat":12620,"Centaur":12621,"Cadwal":12622,"CERES":12623,"Mutius":12624,"Rumour":12625,"Thames":12626,"citadel":12627,"lethar":12628,"faculties":12629,"vigil":12630,"external":12631,"COMMONER":12632,"Pointing":12633,"multitudes":12634,"Spirits":12635,"Immediately":12636,"Olympus":12637,"Samson":12638,"Seyton":12639,"polyta":12640,"exchequer":12641,"scythe":12642,"baleful":12643,"PETITIONER":12644,"imminent":12645,"pavilion":12646,"MOONSHINE":12647,"Chatillon":12648,"bountiful":12649,"merchandise":12650,"Syracusian":12651,"magnanimous":12652,"hypocrite":12653,"Epidamnum":12654,"Phrygi":12655,"GARDENER":12656,"BULLCALF":12657,"Dardan":12658,"Fabian":12659,"Feeble":12660,"FASTOLFE":12661,"FATHER":12662,"Hippolyta":12663,"Iachimo":12664,"MUTIUS":12665,"MELUN":12666,"Neapolit":12667,"Shadow":12668,"SELEUCUS":12669,"SEMPRONIUS":12670,"Wiltshire":12671,"festival":12672,"arithme":12673,"oftentimes":12674,"peculiar":12675,"COBWEB":12676,"audacious":12677,"CAPUCIUS":12678,"countries":12679,"PATRICI":12680,"PEASEBLOSSOM":12681,"AMBASSAD":12682,"Normandy":12683,"MOULDY":12684,"obdurate":12685,"CALPURNIA":12686,"DEIPHOBUS":12687,"Antigonus":12688,"..":12689,"AEL":12690,"Afri":12691,"Aust":12692,"Agin":12693,"Add":12694,"Bow":12695,"Bay":12696,"Bour":12697,"BIO":12698,"Bles":12699,"Brain":12700,"Bade":12701,"Cho":12702,"Cau":12703,"Cond":12704,"Clit":12705,"CENT":12706,"Coward":12707,"Clock":12708,"Day":12709,"Dur":12710,"Dam":12711,"Done":12712,"Dru":12713,"Daniel":12714,"Danish":12715,"Ege":12716,"EITH":12717,"Eliz":12718,"Fla":12719,"FTH":12720,"Fled":12721,"Gal":12722,"GALL":12723,"Hus":12724,"Hob":12725,"IX":12726,"ISI":12727,"Iden":12728,"ITION":12729,"Ilion":12730,"Kno":12731,"Kins":12732,"KELE":12733,"Land":12734,"LAN":12735,"Lion":12736,"Lif":12737,"LOND":12738,"Lover":12739,"Listen":12740,"Mir":12741,"Mart":12742,"MET":12743,"Mass":12744,"MENT":12745,"Nile":12746,"Next":12747,"Nilus":12748,"Py":12749,"Phar":12750,"PIND":12751,"Pleas":12752,"RET":12753,"RAG":12754,"Room":12755,"Swi":12756,"Sink":12757,"Spart":12758,"Stain":12759,"Soul":12760,"Sland":12761,"Sick":12762,"Sem":12763,"Try":12764,"TEM":12765,"Und":12766,"UTH":12767,"Vul":12768,"Vex":12769,"Wis":12770,"Wound":12771,"Wret":12772,"Work":12773,"WALL":12774,"abeth":12775,"aqua":12776,"auspicious":12777,"bing":12778,"boo":12779,"bun":12780,"bbo":12781,"bass":12782,"bashful":12783,"cd":12784,"cart":12785,"cant":12786,"cough":12787,"cum":12788,"cats":12789,"cream":12790,"cub":12791,"cens":12792,"dus":12793,"ders":12794,"dive":12795,"danc":12796,"daff":12797,"drain":12798,"dank":12799,"daws":12800,"dastard":12801,"dawning":12802,"dressed":12803,"eter":12804,"eel":12805,"fad":12806,"fates":12807,"fery":12808,"frequ":12809,"gal":12810,"gab":12811,"gation":12812,"gery":12813,"goot":12814,"ims":12815,"iors":12816,"jure":12817,"lone":12818,"lish":12819,"lore":12820,"lengthen":12821,"lubber":12822,"md":12823,"mends":12824,"nery":12825,"oa":12826,"olive":12827,"operation":12828,"pis":12829,"pter":12830,"pied":12831,"pian":12832,"pated":12833,"pages":12834,"pyra":12835,"plod":12836,"parson":12837,"ral":12838,"rts":12839,"rors":12840,"sher":12841,"sque":12842,"ssed":12843,"sconce":12844,"swarm":12845,"scep":12846,"testy":12847,"tling":12848,"tires":12849,"ux":12850,"uffl":12851,"vince":12852,"vult":12853,"vmd":12854,"whale":12855,"xx":12856,"yawn":12857,"zzard":12858,"thres":12859,"thors":12860,"thaw":12861,"ouds":12862,"erthrown":12863,"erwhelm":12864,"iners":12865,"inish":12866,"intr":12867,"ints":12868,"inside":12869,"incertain":12870,"incontinent":12871,"iniquity":12872,"aniard":12873,"orus":12874,"orig":12875,"isander":12876,"ena":12877,"endear":12878,"ensign":12879,"ensible":12880,"atre":12881,"attempts":12882,"arbour":12883,"llity":12884,"ontory":12885,"anda":12886,"tole":12887,"toast":12888,"mear":12889,"mead":12890,"stam":12891,"stung":12892,"heth":12893,"hemp":12894,"nods":12895,"nostri":12896,"haz":12897,"hales":12898,"halting":12899,"iture":12900,"rely":12901,"reel":12902,"refresh":12903,"remiss":12904,"reveal":12905,"sect":12906,"seeds":12907,"lete":12908,"leaven":12909,"leapt":12910,"levity":12911,"wive":12912,"widower":12913,"beer":12914,"becom":12915,"betake":12916,"beach":12917,"beadle":12918,"bewray":12919,"ching":12920,"chests":12921,"forn":12922,"forgo":12923,"forked":12924,"fortified":12925,"hive":12926,"hild":12927,"utish":12928,"Thence":12929,"roan":12930,"rove":12931,"rood":12932,"deity":12933,"devices":12934,"lice":12935,"liers":12936,"limp":12937,"weird":12938,"alarums":12939,"ediction":12940,"rian":12941,"riots":12942,"ente":12943,"adj":12944,"admon":12945,"advert":12946,"admits":12947,"advertis":12948,"usest":12949,"usive":12950,"coy":12951,"cote":12952,"ERK":12953,"allied":12954,"doctors":12955,"domestic":12956,"ramp":12957,"unite":12958,"unable":12959,"unsure":12960,"unfit":12961,"unpeople":12962,"unquiet":12963,"united":12964,"unmat":12965,"unsatisfied":12966,"unkindly":12967,"unprovided":12968,"untie":12969,"unsettled":12970,"ungrateful":12971,"unusual":12972,"unfeigned":12973,"unhallowed":12974,"ampl":12975,"ambling":12976,"verified":12977,"ENOR":12978,"lop":12979,"ordnance":12980,"tigers":12981,"ARRAG":12982,"areth":12983,"fees":12984,"fealty":12985,"peat":12986,"pelting":12987,"pepper":12988,"shap":12989,"shades":12990,"shapen":12991,"maw":12992,"mable":12993,"herring":12994,"herds":12995,"heresy":12996,"fade":12997,"factor":12998,"failing":12999,"suf":13000,"sues":13001,"sual":13002,"sump":13003,"butchers":13004,"endow":13005,"Tomorrow":13006,"laz":13007,"laud":13008,"lavish":13009,"ruden":13010,"rubb":13011,"ruler":13012,"shorter":13013,"ardseed":13014,"conn":13015,"conjoin":13016,"conceiv":13017,"prun":13018,"prunes":13019,"uphold":13020,"sium":13021,"pois":13022,"potion":13023,"poten":13024,"poets":13025,"postern":13026,"motives":13027,"ALB":13028,"tack":13029,"hoard":13030,"hops":13031,"hospit":13032,"holiness":13033,"temand":13034,"Enjoy":13035,"Entreat":13036,"lordly":13037,"ific":13038,"indu":13039,"induce":13040,"bodes":13041,"quond":13042,"quires":13043,"CHAEL":13044,"outface":13045,"venison":13046,"shearing":13047,"Hea":13048,"Hey":13049,"Excursions":13050,"saves":13051,"blench":13052,"comely":13053,"canary":13054,"letting":13055,"Forbid":13056,"Forsooth":13057,"appar":13058,"astonish":13059,"thanked":13060,"LET":13061,"agony":13062,"ishon":13063,"hereditary":13064,"Weak":13065,"uel":13066,"specul":13067,"earthy":13068,"prolong":13069,"proclaims":13070,"prostrate":13071,"prospect":13072,"spout":13073,"spied":13074,"spices":13075,"spired":13076,"aub":13077,"aud":13078,"Gobbo":13079,"dispossess":13080,"disfigure":13081,"disposed":13082,"dissuade":13083,"disclos":13084,"discarded":13085,"ciency":13086,"Became":13087,"Behind":13088,"dily":13089,"dimm":13090,"diligent":13091,"vily":13092,"viper":13093,"victors":13094,"viands":13095,"perion":13096,"perdu":13097,"perturb":13098,"exil":13099,"extent":13100,"excre":13101,"exclaims":13102,"expert":13103,"handled":13104,"thinkest":13105,"ECUTION":13106,"eyeless":13107,"offspring":13108,"Withal":13109,"affirm":13110,"affable":13111,"across":13112,"accounted":13113,"pling":13114,"anywhere":13115,"ANTENOR":13116,"Whoe":13117,"FORESTER":13118,"CASTER":13119,"heathen":13120,"margent":13121,"marches":13122,"mariners":13123,"glit":13124,"BERKELE":13125,"abil":13126,"abstra":13127,"abrid":13128,"monk":13129,"wherewith":13130,"icy":13131,"hearer":13132,"gram":13133,"graver":13134,"graze":13135,"grafted":13136,"bloodless":13137,"mermaid":13138,"mercil":13139,"mercies":13140,"undoubted":13141,"partners":13142,"scare":13143,"screech":13144,"mist":13145,"misdoubt":13146,"PHRY":13147,"retent":13148,"county":13149,"tains":13150,"wrench":13151,"wrung":13152,"flam":13153,"ustrious":13154,"hastly":13155,"honourably":13156,"newer":13157,"gud":13158,"Receiv":13159,"Married":13160,"pricket":13161,"headlong":13162,"bathe":13163,"baited":13164,"umvir":13165,"shifts":13166,"shirts":13167,"tripp":13168,"trail":13169,"travels":13170,"putter":13171,"oppressed":13172,"john":13173,"jollity":13174,"purest":13175,"reserve":13176,"witches":13177,"lightens":13178,"clad":13179,"keepers":13180,"chafed":13181,"compounds":13182,"underta":13183,"curate":13184,"currents":13185,"bravery":13186,"brags":13187,"brawn":13188,"ickle":13189,"Alisander":13190,"charmed":13191,"insurre":13192,"uneven":13193,"kinds":13194,"kinder":13195,"jection":13196,"paramour":13197,"tongu":13198,"beset":13199,"bespeak":13200,"besmear":13201,"womanhood":13202,"Joy":13203,"Roger":13204,"SECRET":13205,"sentine":13206,"sentences":13207,"sentenc":13208,"bestrid":13209,"bestride":13210,"player":13211,"playfellow":13212,"astern":13213,"steer":13214,"cloven":13215,"closing":13216,"cargo":13217,"carved":13218,"rancour":13219,"answering":13220,"SOUTH":13221,"village":13222,"LIGAR":13223,"horribly":13224,"rung":13225,"runaway":13226,"tempting":13227,"yew":13228,"overborne":13229,"overture":13230,"Lean":13231,"needy":13232,"repay":13233,"repul":13234,"minist":13235,"minstre":13236,"faiths":13237,"brush":13238,"brutish":13239,"EXECUTION":13240,"earthquake":13241,"genius":13242,"lasts":13243,"dug":13244,"ducat":13245,"cerity":13246,"cute":13247,"cutting":13248,"sensual":13249,"windy":13250,"breaker":13251,"grease":13252,"impious":13253,"impiety":13254,"Post":13255,"beaver":13256,"Bris":13257,"empress":13258,"helping":13259,"vented":13260,"MACMOR":13261,"nearly":13262,"stride":13263,"striving":13264,"Deep":13265,"pens":13266,"pension":13267,"Suff":13268,"obli":13269,"obstru":13270,"observing":13271,"Army":13272,"halfpenny":13273,"gotten":13274,"bric":13275,"brier":13276,"bribe":13277,"strongest":13278,"career":13279,"palpable":13280,"spirited":13281,"horseback":13282,"appell":13283,"appele":13284,"waited":13285,"wailing":13286,"People":13287,"towers":13288,"Lack":13289,"trophi":13290,"intercession":13291,"hardness":13292,"promo":13293,"promontory":13294,"foundation":13295,"Yorkshire":13296,"cuss":13297,"cushions":13298,"cram":13299,"craven":13300,"groat":13301,"Conspir":13302,"TAINE":13303,"colder":13304,"royalties":13305,"barks":13306,"barons":13307,"medd":13308,"medlar":13309,"sinister":13310,"sincerity":13311,"consci":13312,"consist":13313,"serviceable":13314,"bating":13315,"vanities":13316,"excel":13317,"excels":13318,"excepted":13319,"trusting":13320,"igest":13321,"values":13322,"bourn":13323,"workman":13324,"Saying":13325,"Speaking":13326,"acting":13327,"watery":13328,"boundless":13329,"soonest":13330,"fetter":13331,"empery":13332,"slumb":13333,"surprise":13334,"believed":13335,"drove":13336,"dross":13337,"salutation":13338,"salvation":13339,"borough":13340,"gger":13341,"defended":13342,"deepest":13343,"paying":13344,"Mistake":13345,"galleys":13346,"Englishmen":13347,"Perform":13348,"Persuade":13349,"Choose":13350,"Chrish":13351,"supple":13352,"supplant":13353,"CLERK":13354,"ski":13355,"skip":13356,"tenderly":13357,"caut":13358,"caves":13359,"caution":13360,"gathered":13361,"tinent":13362,"tinct":13363,"appeared":13364,"Deserve":13365,"Deserves":13366,"pities":13367,".--":13368,"mities":13369,"covering":13370,"hurly":13371,"Mustardseed":13372,"framed":13373,"World":13374,"scornful":13375,"firmament":13376,"hoodwink":13377,"Scorn":13378,"swagg":13379,"Calls":13380,"denying":13381,"darling":13382,"register":13383,"flatteries":13384,"Macmorris":13385,"naldo":13386,"ostler":13387,"quote":13388,"teaches":13389,"liberties":13390,"flea":13391,"flew":13392,"MICHAEL":13393,"cruell":13394,"posture":13395,"extort":13396,"basis":13397,"forgetfulness":13398,"colors":13399,"Bestow":13400,"drowned":13401,"finely":13402,"Albion":13403,"SEYTON":13404,"rounded":13405,"infringe":13406,"staring":13407,"continues":13408,"continued":13409,"Greater":13410,"CAMBIO":13411,"elect":13412,"reckless":13413,"sharper":13414,"Thinking":13415,"folded":13416,"incision":13417,"rusty":13418,"sorted":13419,"wrack":13420,"Cornets":13421,"Fairy":13422,"drunkards":13423,"hyper":13424,"swiftest":13425,"importunate":13426,"churchmen":13427,"Flatter":13428,"dealt":13429,"ELLUS":13430,"crit":13431,"Abate":13432,"Abbey":13433,"Divide":13434,"grossness":13435,"Coeur":13436,"catech":13437,"clearly":13438,"Seize":13439,"MURDERERS":13440,"barefoot":13441,"costard":13442,"necessaries":13443,"rudely":13444,"BISHOPS":13445,"helmet":13446,"cottage":13447,"lucky":13448,"twigs":13449,"semble":13450,"rosemary":13451,"privately":13452,"sailor":13453,"Acquaint":13454,"faints":13455,"threatens":13456,"sequest":13457,"forestall":13458,"Admit":13459,"Author":13460,"Steps":13461,"weighing":13462,"constantly":13463,"creditor":13464,"hunted":13465,"habited":13466,"anguish":13467,"Hope":13468,"Hanging":13469,"murtherous":13470,"nettle":13471,"nettles":13472,"turf":13473,"liveries":13474,"URION":13475,"gowns":13476,"laments":13477,"lamented":13478,"incessant":13479,"smelling":13480,"during":13481,"portly":13482,"medic":13483,"applied":13484,"protestation":13485,"civility":13486,"accusers":13487,"accusations":13488,"clamours":13489,"drug":13490,"lineaments":13491,"treasury":13492,"enjoys":13493,"shock":13494,"Drawn":13495,"variable":13496,"starting":13497,"examples":13498,"slanderous":13499,"quittance":13500,"cension":13501,"provinces":13502,"professes":13503,"Voltemand":13504,"twink":13505,"encounters":13506,"ruinous":13507,"buckler":13508,"consuls":13509,"Retires":13510,"imperfection":13511,"Longer":13512,"Setting":13513,"masked":13514,"breeder":13515,"tribution":13516,"refuge":13517,"lodges":13518,"inclining":13519,"prevention":13520,"prophetic":13521,"cule":13522,"source":13523,"inventory":13524,"arrival":13525,"dews":13526,"Capulets":13527,"forbearance":13528,"dispositions":13529,"Presents":13530,"finer":13531,"strangle":13532,"strangled":13533,"grievance":13534,"grievously":13535,"Brab":13536,"thorny":13537,"inherited":13538,"forfeited":13539,"complexions":13540,"sweating":13541,"monuments":13542,"chairs":13543,"shrine":13544,"Satis":13545,"filth":13546,"sufficiency":13547,"confirmation":13548,"Softly":13549,"Writ":13550,"controll":13551,"conquering":13552,"conquerors":13553,"Welshman":13554,"Welshmen":13555,"eighteen":13556,"swallowing":13557,"momentary":13558,"zealous":13559,"Spaniard":13560,"Sleeping":13561,"slily":13562,"jointly":13563,"Sicily":13564,"VARRIUS":13565,"ravenous":13566,"complaining":13567,"proportions":13568,"desirous":13569,"Germany":13570,"babbling":13571,"antiquity":13572,"rejoicing":13573,"declare":13574,"decline":13575,"pottle":13576,"Villains":13577,"Child":13578,"behaviours":13579,"robbers":13580,"monarchs":13581,"monarchy":13582,"securely":13583,"determination":13584,"petitions":13585,"bruise":13586,"climbing":13587,"swoons":13588,"detestable":13589,"perfumes":13590,"heaviest":13591,"forester":13592,"GAOLERS":13593,"brawls":13594,"brawling":13595,"Import":13596,"tapest":13597,"Saturninus":13598,"Ceres":13599,"Hyperion":13600,"halber":13601,"adversity":13602,"prophes":13603,"discovers":13604,"BRITAINE":13605,"limited":13606,"Curtis":13607,"Happily":13608,"wilfully":13609,"COURT":13610,"deservings":13611,"quarrelling":13612,"GUARDSMAN":13613,"deceitful":13614,"Kissing":13615,"hawthorn":13616,"GHOSTS":13617,"DRAWER":13618,"stalk":13619,"uttish":13620,"uttered":13621,"indignity":13622,"dieted":13623,"scales":13624,"beseem":13625,"penitence":13626,"concludes":13627,"exploits":13628,"blossoms":13629,"CUPID":13630,"Grief":13631,"Murtherers":13632,"sancti":13633,"throngs":13634,"testify":13635,"Colours":13636,"looked":13637,"paths":13638,"devised":13639,"counsellors":13640,"subdued":13641,"FRANCISCO":13642,"separate":13643,"chronicles":13644,"terrors":13645,"restored":13646,"complices":13647,"Reynaldo":13648,"benediction":13649,"cools":13650,"cooling":13651,"diffic":13652,"treaty":13653,"wreak":13654,"wreath":13655,"outrageous":13656,"affrighted":13657,"descends":13658,"captivity":13659,"Snare":13660,"lurk":13661,"lurking":13662,"tuned":13663,"digested":13664,"nunnery":13665,"defects":13666,"dissolve":13667,"purgation":13668,"consorted":13669,"skirts":13670,"conjurer":13671,"transformation":13672,"adultery":13673,"Directly":13674,"sallet":13675,"scolding":13676,"waning":13677,"weasel":13678,"contagion":13679,"desolate":13680,"customary":13681,"swaggering":13682,"slaughtered":13683,"dreaded":13684,"lidity":13685,"epithe":13686,"epilogue":13687,"preservation":13688,"Certainly":13689,"collected":13690,"Syria":13691,"Taurus":13692,"nurser":13693,"arbitrement":13694,"meteors":13695,"stables":13696,"brooch":13697,"precisely":13698,"clubs":13699,"dragons":13700,"Bloody":13701,"Briefly":13702,"Creep":13703,"Plague":13704,"Plains":13705,"aeus":13706,"pagan":13707,"reformation":13708,"adopted":13709,"Exceeding":13710,"Amazon":13711,"quillets":13712,"insinuate":13713,"throned":13714,"Grandam":13715,"Bagot":13716,"Cobweb":13717,"Elysium":13718,"JAMY":13719,"Simple":13720,"Soothsayer":13721,"Tucket":13722,"Virgin":13723,"jacks":13724,"waft":13725,"steeled":13726,"exhibition":13727,"sacrifices":13728,"convenience":13729,"Aliena":13730,"seconds":13731,"establish":13732,"Forthwith":13733,"Lucifer":13734,"exceptions":13735,"sauciness":13736,"material":13737,"Resolve":13738,"arrogance":13739,"wheresoe":13740,"Crispian":13741,"dulcet":13742,"gaudy":13743,"reviv":13744,"reflection":13745,"seventeen":13746,"magistrates":13747,"Cheerly":13748,"Adrian":13749,"Cuckoo":13750,"JUNO":13751,"Severn":13752,"Wait":13753,"massacre":13754,"pardons":13755,"enrolled":13756,"reliev":13757,"timorous":13758,"presumption":13759,"Cornelius":13760,"Augustus":13761,"Cassandra":13762,"Minola":13763,"Rhodes":13764,"vacant":13765,"infectious":13766,"fawning":13767,"constraint":13768,"Myrmidons":13769,"austere":13770,"serpents":13771,"misprision":13772,"Pronounce":13773,"guerdon":13774,"denote":13775,"obligation":13776,"Lucrece":13777,"embassage":13778,"intellect":13779,"Smithfield":13780,"idolatry":13781,"Neapolitan":13782,"arithmetic":13783,"PATRICIANS":13784,"Austria":13785,"Agincourt":13786,"Blessed":13787,"Brainford":13788,"Clitus":13789,"CENTURION":13790,"Durst":13791,"Egeus":13792,"Elizabeth":13793,"GALLUS":13794,"Husband":13795,"ISIDORE":13796,"Knocks":13797,"LANCASTER":13798,"LONDON":13799,"Lovers":13800,"METELLUS":13801,"MENTEITH":13802,"PINDARUS":13803,"Vulcan":13804,"dusky":13805,"ARRAGON":13806,"rudeness":13807,"potency":13808,"quondam":13809,"apparition":13810,"BERKELEY":13811,"abstract":13812,"merciless":13813,"PHRYNIA":13814,"SOUTHWELL":13815,"LIGARIUS":13816,"minstrels":13817,"MACMORRIS":13818,"trophies":13819,"'.":13820,"-\"":13821,"82":13822,"93":13823,"Abr":13824,"Abb":13825,"Aunchient":13826,"Bon":13827,"Bas":13828,"Bad":13829,"Bare":13830,"BON":13831,"Bru":13832,"Bac":13833,"Born":13834,"Buck":13835,"Bears":13836,"BUL":13837,"Brid":13838,"Cir":13839,"CES":13840,"CIC":13841,"Cease":13842,"Clean":13843,"Cuts":13844,"Dy":13845,"Due":13846,"Danger":13847,"Dist":13848,"Drew":13849,"Dishon":13850,"Ete":13851,"Etext":13852,"Especially":13853,"Fas":13854,"Fain":13855,"Fier":13856,"Faint":13857,"Few":13858,"Gor":13859,"Grew":13860,"Grows":13861,"Hand":13862,"Hoo":13863,"HAR":13864,"Hood":13865,"Hate":13866,"Hunt":13867,"Hide":13868,"Hallow":13869,"Ili":13870,"IRI":13871,"Les":13872,"Low":13873,"Lam":13874,"Lust":13875,"Lascivious":13876,"Min":13877,"Mor":13878,"Med":13879,"Mid":13880,"Mace":13881,"Mask":13882,"Non":13883,"NIS":13884,"NESS":13885,"Nevils":13886,"Nero":13887,"OD":13888,"OW":13889,"Obe":13890,"OPH":13891,"Oui":13892,"Pha":13893,"Pit":13894,"Pep":13895,"Pau":13896,"PET":13897,"Pick":13898,"Puck":13899,"Paint":13900,"Puff":13901,"Praise":13902,"Pays":13903,"Porp":13904,"Ptole":13905,"Ring":13906,"Ram":13907,"Rape":13908,"Sti":13909,"Spe":13910,"Sher":13911,"Saf":13912,"Sans":13913,"Sum":13914,"Spre":13915,"Spur":13916,"Scy":13917,"Self":13918,"Tor":13919,"Tour":13920,"Tast":13921,"Tig":13922,"Ut":13923,"UGHT":13924,"Vat":13925,"Vere":13926,"Vio":13927,"Via":13928,"Wise":13929,"Wonder":13930,"XT":13931,"apr":13932,"acold":13933,"acock":13934,"avaunt":13935,"bard":13936,"bust":13937,"bough":13938,"cso":13939,"cad":13940,"cive":13941,"craw":13942,"cran":13943,"cended":13944,"curi":13945,"cakes":13946,"cises":13947,"citizen":13948,"doff":13949,"dates":13950,"daub":13951,"eer":13952,"eking":13953,"ems":13954,"ebon":13955,"fines":13956,"fume":13957,"fading":13958,"fisher":13959,"fuel":13960,"gan":13961,"gas":13962,"gag":13963,"gaw":13964,"gash":13965,"gashes":13966,"glim":13967,"ghastly":13968,"hing":13969,"jor":13970,"jes":13971,"lash":13972,"mince":13973,"mice":13974,"mickle":13975,"nour":13976,"nurs":13977,"nuts":13978,"olo":13979,"oats":13980,"pall":13981,"pest":13982,"pates":13983,"paved":13984,"rad":13985,"rus":13986,"ration":13987,"rful":13988,"rates":13989,"sity":13990,"scot":13991,"sangu":13992,"sainted":13993,"tan":13994,"tto":13995,"tart":13996,"tine":13997,"tant":13998,"tore":13999,"tub":14000,"tume":14001,"tatt":14002,"tsies":14003,"tiring":14004,"ugn":14005,"vant":14006,"wool":14007,"xter":14008,"xts":14009,"thic":14010,"thump":14011,"erver":14012,"erring":14013,"erving":14014,"erio":14015,"inti":14016,"inland":14017,"inded":14018,"inated":14019,"anket":14020,"anatom":14021,"thel":14022,"theatre":14023,"orough":14024,"orable":14025,"orange":14026,"orbs":14027,"orient":14028,"orisons":14029,"encamp":14030,"encourage":14031,"encompass":14032,"enthrall":14033,"artill":14034,"arison":14035,"arily":14036,"lls":14037,"llars":14038,"essed":14039,"esquire":14040,"anders":14041,"toll":14042,"topher":14043,"methe":14044,"memb":14045,"mets":14046,"meats":14047,"meads":14048,"stou":14049,"stin":14050,"stink":14051,"stumps":14052,"hedule":14053,"nowed":14054,"ofold":14055,"habi":14056,"hapless":14057,"recall":14058,"rebu":14059,"reprove":14060,"refra":14061,"rehears":14062,"releas":14063,"semb":14064,"sedu":14065,"seats":14066,"seilles":14067,"seduc":14068,"lea":14069,"leer":14070,"leak":14071,"levi":14072,"legg":14073,"leeks":14074,"levell":14075,"lecture":14076,"wizard":14077,"beho":14078,"befriend":14079,"beheaded":14080,"chink":14081,"choughs":14082,"asant":14083,"asies":14084,"fork":14085,"forge":14086,"forged":14087,"hic":14088,"hier":14089,"hips":14090,"utters":14091,"Thra":14092,"Thorough":14093,"rothed":14094,"dez":14095,"deface":14096,"depra":14097,"decess":14098,"debating":14099,"dexter":14100,"lial":14101,"liction":14102,"thatch":14103,"keth":14104,"ooded":14105,"ooze":14106,"withhold":14107,"tery":14108,"terre":14109,"ales":14110,"alto":14111,"alche":14112,"albeit":14113,"edified":14114,"sola":14115,"ril":14116,"rift":14117,"whist":14118,"adds":14119,"adles":14120,"adiction":14121,"eta":14122,"codile":14123,"dol":14124,"doings":14125,"doig":14126,"dogg":14127,"rams":14128,"raps":14129,"ravis":14130,"raze":14131,"ragon":14132,"uns":14133,"unre":14134,"unge":14135,"union":14136,"unspeak":14137,"unmeet":14138,"unwelcome":14139,"unlock":14140,"unloose":14141,"untaught":14142,"unused":14143,"unwillingly":14144,"unworthiness":14145,"unaccustom":14146,"INT":14147,"ENGL":14148,"loam":14149,"logy":14150,"essence":14151,"tight":14152,"tible":14153,"peian":14154,"iders":14155,"idious":14156,"mane":14157,"magi":14158,"gem":14159,"onel":14160,"sucks":14161,"supers":14162,"buttock":14163,"lab":14164,"lac":14165,"lag":14166,"lath":14167,"lake":14168,"rug":14169,"rup":14170,"ruins":14171,"ruled":14172,"rumin":14173,"rugged":14174,"shent":14175,"shoots":14176,"ardy":14177,"mort":14178,"mortified":14179,"STOPH":14180,"illustrious":14181,"contam":14182,"convince":14183,"contume":14184,"prone":14185,"prised":14186,"sia":14187,"sied":14188,"similes":14189,"podes":14190,"posure":14191,"poesy":14192,"polis":14193,"moans":14194,"mots":14195,"moss":14196,"tackle":14197,"hoa":14198,"holl":14199,"homi":14200,"hogs":14201,"team":14202,"Envy":14203,"Enforce":14204,"Environ":14205,"Whatever":14206,"owners":14207,"indict":14208,"bleak":14209,"ELON":14210,"bod":14211,"bomb":14212,"bots":14213,"boister":14214,"bodied":14215,"boding":14216,"quart":14217,"CHRI":14218,"outright":14219,"outrages":14220,"whatever":14221,"whatsoe":14222,"venerable":14223,"aker":14224,"ongy":14225,"shear":14226,"shedding":14227,"Held":14228,"blished":14229,"blanks":14230,"blanket":14231,"blooded":14232,"cank":14233,"TIENCE":14234,"Forc":14235,"Fort":14236,"Forres":14237,"Forget":14238,"ulcer":14239,"apish":14240,"appro":14241,"thereon":14242,"thereabout":14243,"seemed":14244,"ieur":14245,"athwart":14246,"ept":14247,"sayings":14248,"agit":14249,"agre":14250,"aggrav":14251,"hereabout":14252,"mpled":14253,"foremost":14254,"trudge":14255,"Weary":14256,"OFEPHESUS":14257,"earldom":14258,"propos":14259,"span":14260,"spher":14261,"spits":14262,"sprightly":14263,"spongy":14264,"mayest":14265,"authors":14266,"disable":14267,"disaster":14268,"discomfort":14269,"distil":14270,"distaste":14271,"disgraces":14272,"distaff":14273,"discomfit":14274,"Belar":14275,"wholly":14276,"musters":14277,"dic":14278,"diver":14279,"dible":14280,"dimen":14281,"dicious":14282,"digress":14283,"viz":14284,"vicar":14285,"perpend":14286,"Inter":14287,"Instru":14288,"Infer":14289,"expos":14290,"extemp":14291,"extol":14292,"exhal":14293,"expel":14294,"honester":14295,"honneur":14296,"Sola":14297,"swept":14298,"TREB":14299,"acorn":14300,"brothel":14301,"plumes":14302,"plunge":14303,"foh":14304,"foison":14305,"foaming":14306,"marrow":14307,"glister":14308,"abond":14309,"monkeys":14310,"gentles":14311,"fulsome":14312,"fulfil":14313,"gnats":14314,"gniz":14315,"ics":14316,"icer":14317,"icles":14318,"ictiers":14319,"reeking":14320,"graff":14321,"Letters":14322,"aseblossom":14323,"EMPER":14324,"undis":14325,"partis":14326,"scout":14327,"scatt":14328,"scouts":14329,"scapes":14330,"schedule":14331,"fife":14332,"Print":14333,"counties":14334,"wardrobe":14335,"taints":14336,"sterile":14337,"fling":14338,"flats":14339,"flash":14340,"flung":14341,"redoubted":14342,"standard":14343,"standers":14344,"courser":14345,"newest":14346,"aches":14347,"PATIENCE":14348,"guile":14349,"sweeting":14350,"madcap":14351,"Reli":14352,"Reven":14353,"Revo":14354,"Marseilles":14355,"ABBOT":14356,"pridge":14357,"prizing":14358,"headless":14359,"Fresh":14360,"tenant":14361,"tenants":14362,"bearest":14363,"fortitude":14364,"named":14365,"downward":14366,"longest":14367,"predecess":14368,"udy":14369,"shipping":14370,"shilling":14371,"votar":14372,"atching":14373,"trap":14374,"traction":14375,"tractable":14376,"immodest":14377,"impossibility":14378,"immaculate":14379,"purblind":14380,"resides":14381,"respite":14382,"resisted":14383,"ATO":14384,"ATUS":14385,"giver":14386,"gibes":14387,"iope":14388,"iots":14389,"grasp":14390,"chet":14391,"clust":14392,"clutch":14393,"showed":14394,"chafe":14395,"resting":14396,"Shepher":14397,"undertook":14398,"understands":14399,"curl":14400,"curer":14401,"curing":14402,"curls":14403,"currish":14404,"curtsies":14405,"dye":14406,"cypress":14407,"brach":14408,"braves":14409,"braving":14410,"Alone":14411,"charming":14412,"Thanes":14413,"stillness":14414,"parage":14415,"parado":14416,"psy":14417,"MARTE":14418,"MARCADE":14419,"communic":14420,"vilest":14421,"garlic":14422,"bides":14423,"welfare":14424,"eyeballs":14425,"harbing":14426,"clears":14427,"clod":14428,"clocks":14429,"carb":14430,"carbon":14431,"rancor":14432,"ransack":14433,"enchanting":14434,"husks":14435,"Lechery":14436,"Ourself":14437,"lawfully":14438,"replies":14439,"repaid":14440,"subjection":14441,"atiate":14442,"ativo":14443,"Unarm":14444,"Unworthy":14445,"hitherward":14446,"hopeless":14447,"stolen":14448,"smir":14449,"homeward":14450,"doubly":14451,"State":14452,"Study":14453,"graced":14454,"graceful":14455,"lastly":14456,"sleepers":14457,"camel":14458,"Moth":14459,"vaward":14460,"validity":14461,"bub":14462,"shamefully":14463,"dero":14464,"derision":14465,"Proper":14466,"Prodig":14467,"Prologue":14468,"Provide":14469,"Procule":14470,"winding":14471,"implore":14472,"Poictiers":14473,"highway":14474,"singly":14475,"quean":14476,"spoon":14477,"helpful":14478,"GHAN":14479,"wishing":14480,"striking":14481,"stripp":14482,"caper":14483,"caparison":14484,"phras":14485,"obscene":14486,"brick":14487,"bridle":14488,"nerable":14489,"Falconbridge":14490,"fitly":14491,"Rialto":14492,"musk":14493,"appeas":14494,"appease":14495,"Lionel":14496,"lowliness":14497,"Peaseblossom":14498,"Canidius":14499,"delicet":14500,"deliberate":14501,"Lafeu":14502,"trophy":14503,"interr":14504,"interview":14505,"interrupt":14506,"prompts":14507,"groves":14508,"groats":14509,"larger":14510,"Contempt":14511,"Condemn":14512,"DAUGHT":14513,"damask":14514,"renounce":14515,"Richer":14516,"Lov":14517,"barge":14518,"sorrowful":14519,"medon":14520,"sinn":14521,"Lucy":14522,"sightless":14523,"GRAVE":14524,"foulness":14525,"Moreover":14526,"vanished":14527,"wallows":14528,"clapper":14529,"JOAN":14530,"sisterhood":14531,"chopp":14532,"igate":14533,"PART":14534,"PARITION":14535,"Says":14536,"pitying":14537,"Meg":14538,"doubting":14539,"footman":14540,"APPARITION":14541,"graciously":14542,"comfortless":14543,"slough":14544,"sluttish":14545,"Kentish":14546,"HELENUS":14547,"ubb":14548,"surd":14549,"surrender":14550,"surgery":14551,"birding":14552,"burned":14553,"dropping":14554,"walked":14555,"paste":14556,"pastor":14557,"hug":14558,"warranted":14559,"define":14560,"Beating":14561,"crocodile":14562,"requited":14563,"pike":14564,"piety":14565,"Corrupt":14566,"slavery":14567,"slavish":14568,"botch":14569,"bolder":14570,"Comment":14571,"watches":14572,"Peruse":14573,"hotter":14574,"woos":14575,"cavil":14576,"gaz":14577,"mocker":14578,"lications":14579,"knightly":14580,"pretend":14581,"hairy":14582,"speeds":14583,"counters":14584,"counterpoise":14585,"Counter":14586,"beholders":14587,"feelingly":14588,"weakest":14589,"ANGUS":14590,"cashier":14591,"LEONATUS":14592,"GARTER":14593,"GARGRAVE":14594,"Pride":14595,"Priest":14596,"hurried":14597,"mounte":14598,"stools":14599,"fraud":14600,"fragrant":14601,"izing":14602,"Works":14603,"Scratch":14604,"scarr":14605,"joiner":14606,"jointed":14607,"jesting":14608,"MARGARELON":14609,"Poland":14610,"kerchief":14611,"thirteen":14612,"regular":14613,"feasted":14614,"Maccab":14615,"burs":14616,"bellied":14617,
[...]
